#version: 0.2 - Trained by `huggingface/tokenizers`
Ġ Ġ
e r
ĠĠ ĠĠ
o n
Ġ <
a n
Ġ t
o r
] ]
[ [
i n
r e
a t
Ġ [[
o t
l e
< /
a l
m e
i s
i t
h e
Ġ |
ĠĠĠĠ Ġ
i d
o u
q u
s t
e d
' '
qu ot
l t
a r
n t
g t
ĠĠ Ġ
g e
i on
Ġ a
i k
Ġ c
s er
Ġ w
p a
Ġt he
i c
m p
an d
2 0
Ġ b
e l
} }
in g
{ {
e x
Ġ s
Ġ =
Ġ f
o f
ik i
o m
a s
e n
e s
Ġt o
on t
i a
Ġ Ċ
o l
ex t
Ġ (
Ġ of
r i
a me
Ġ p
Ġ d
h a
u t
Ġ y
Ġ m
Ġ n
at e
Ġy ou
pa ge
c e
Ġ T
a mp
Ġ in
v e
Ġ and
o d
Ġ 1
= &
W iki
i l
p ed
t ext
; &
Ġ S
f or
ped ia
; /
Ġ< /
o w
Ġ I
'' '
U ser
u s
Ġt h
me nt
Wiki pedia
it le
20 1
Ġ *
m at
al k
Ġ &
- -
Ġ A
t i
n ame
t itle
for mat
u ser
ri b
c om
v is
Ġ l
c t
ont rib
ĠĠĠĠ ĠĠĠ
Ġb e
Ġ C
n s
vis ion
c h
ontrib ut
i g
Ġ {{
h t
a d
o p
Ġ re
u r
ti me
Ġ is
al l
t h
0 0
v er
Ġ M
s ha
Ġ h
od el
l a
c ontribut
st amp
m odel
re vision
time stamp
contribut or
user name
s p
u n
]] .
i r
Ġ P
at ion
Ġ st
com ment
h an
1 9
is t
c k
Ġf or
Ġ on
Ġ= =
re f
r o
i f
20 0
Ġ B
| |
or y
e t
]] ,
Ġ H
a ge
ar t
Ġt alk
ol or
w iki
Ġ 201
a y
a m
u l
s e
u b
Ġ R
f ont
Ġ page
c c
re nt
Ġ an
h er
Ġ F
p e
ate g
s s
o me
e w
ĠĠĠĠ ĠĠĠĠ
Ġ E
ateg ory
m l
e st
b er
l o
Ġn ot
ou nt
Ġ D
n d
b o
pa rent
p re
r a
parent id
Ġ W
C ategory
Ġ L
e le
a k
Ġ it
Ġc han
w w
Ġ| -
Ġ 2
w ik
0 6
s pa
il l
e nt
Ġ N
= "
c i
ou t
ĠT he
e m
u m
y le
Ġ g
ou r
an t
Ġ us
T C
]] )
Ġ G
sp an
U TC
Ġ J
wik it
Ġ x
spa ce
/ /
Ġ --
u p
b r
p x
d i
â Ģ
ser ve
1 0
Ġx ml
pre serve
e mp
" >
wikit ext
Ġ ha
as e
Ġ ''
l y
= =
Ġ Wikipedia
Ġa s
it h
t p
bo x
Ġ1 9
ht tp
Ġst yle
Ġth is
: //
Ġ O
t alk
i m
Ġth at
Ġ 6
r om
ig n
emp l
! --
; !--
er s
Ġ '''
]] &
2 5
Ġ| |
Ġw as
o v
Ġn ame
t ion
or e
in k
1 8
a b
is h
Ġ( [[
e f
d d
c olor
it y
Ġchan ge
l d
t er
it e
Ġ /
empl ate
le ase
a p
| &
Ġ al
g u
al is
or t
Ġw ith
Ġb y
Ġ 200
1 2
le s
ar y
Ġa cc
e p
or k
Ġf rom
Ġ he
; [[
o g
i mp
Ġ le
Ġ +
ĠI f
or d
Ġ Y
Ġa re
n g
r y
Ġ-- &
1 7
Ġha ve
Ġc an
. &
ci al
Ġ at
]] </
e b
Ġacc ount
1 6
1 5
Ġ me
1 4
s m
i an
Ġ 0
es s
Ġyou r
ou nd
1 3
er e
Ġ or
Ġw h
Ġ #
c ome
u re
Ġs e
a in
Ġchange s
Ġc olor
Ġd o
}} }
ar d
b out
o s
alis m
Ġ -
i p
d ate
and alism
ĠS t
a ck
i es
sm all
and box
0 8
ak e
pe cial
on e
el come
' s
o b
ar n
m in
o k
as s
he n
Ġw ill
Ġ v
ow n
U n
ele tion
art ic
i z
ion s
a g
S pecial
}} &
r an
a st
l in
e ar
ww w
; {{
3 3
2 4
Ġm ore
B ot
) |
f f
ic k
âĢ ĵ
imp le
re d
; |
Ġ K
f t
u e
9 9
m er
l p
Ġ :
3 0
g r
ig ht
i le
a c
i e
: #
1 1
ik e
u d
; #
{{ {
en d
2 7
i v
on g
2 9
n b
Ġa bout
T he
R e
ou ld
ed it
Ġus e
0 3
Ġd e
Ġbe en
2 3
Ġ e
ng l
c l
Ġw ork
ic e
nt er
m ber
Ġ k
on s
e ct
Ġs h
o st
s v
in d
I n
el l
ĠT emplate
5 5
Ġh as
Ġ artic
0 4
ot her
ver t
; ]]
Ġw ant
m age
nb sp
format ion
i ve
u st
Ġm ake
0 7
ur l
at es
Ġl ike
Ġ[[ :
F F
ar ch
Ġp lease
e e
un d
2 8
Ġ/ >
0 9
la y
n e
sv g
al ign
han k
in e
m an
ic an
I mage
ĉ ĉ
Ġpage s
2 6
p h
Ġ all
4 8
id e
ub l
o c
Ġp ro
u ary
re ct
Ġc l
at ed
Ġ 3
o ve
Ġ V
c es
a v
ngl ish
Ġw eb
di v
0 1
]] ''
lo ck
s up
g ht
0 5
ic h
or g
s o
ĠT h
5 6
ĠI t
Ġhe lp
n ow
ad e
ol d
ic al
f ul
o ot
le ft
2 2
r it
ver y
Ġ edit
W P
4 7
Ġn ew
Ġ [
4 6
4 9
4 3
om m
it ed
ir st
qu est
Ġd id
th er
S t
0 2
op le
4 5
Ġ !
i me
Ġ pa
on d
g ing
Ġb ut
Ġa dd
ĠT hank
Ġ* [[
ct ion
b all
i b
ĠE nglish
e ople
Ġs o
all y
Ġs ome
) </
gr ound
u nt
' t
P A
c o
Ġp ol
5 7
Ġ/ &
Ġ ex
e c
5 3
r u
ack ground
v andalism
at h
an s
ov ed
ri ght
iz e
as h
ce nter
C h
Ġ'' [[
Ġ out
cc ess
Ġd eletion
c ite
z w
ation al
Ġ Un
t e
t o
Ġm ade
ic s
mer ican
l and
ĠI n
il y
ĠH e
at a
ĠP lease
Ġon e
me d
an g
t y
or s
p la
Ġd is
her e
an gu
Ġan y
Ġ }}
ink s
is her
min or
; '''
Ġt itle
dd ing
Ġal so
Ġre m
S andbox
angu age
a re
R E
er en
2 1
a u
p ort
hen zw
Ġc o
Ġchan ging
ĠC h
ord er
C henzw
T W
re ss
5 0
; ,
19 9
Ġ r
"> {{
i o
g in
oot ball
8 8
ver s
o od
s andbox
re e
ou s
Ġh ow
p p
4 4
s h
ĠTh is
ir th
3 6
ro ss
p t
im age
g an
Ġp lay
3 7
l ist
T emplate
Ġ un
F ile
Ġ if
''' &
ep t
od e
a ut
3 9
us s
ob lin
Ġth ink
3 8
Ġp eople
Ġle arn
p g
f o
t s
a z
Ġ âĢĵ
ab le
a ch
a il
o ok
H el
as on
ubl isher
ar k
{{ #
ic y
Ġ '
Ġ1 8
ing s
Ġ {
la g
ĠĠĠĠĠĠĠĠ ĠĠĠĠ
7 9
ĠN ew
u c
p ri
a ccess
u ch
le d
U w
Ġ user
is s
v i
ĠY ou
Ġc h
re at
un e
In formation
3 4
Ġ 4
p er
access date
5 8
Ã ©
am ily
Ġ j
o se
c a
Ġpol icy
Ġ âĢ
di rect
us e
o ver
: :
cl ud
6 6
ge n
Ġ other
N A
Ġ U
t he
5 9
= [[
en s
Ġ201 0
Ġartic les
00 0
unt of
h y
id th
Ġt ry
i x
o ber
t l
ĠY our
ĠSt ates
| }}}
j ect
Ġcl ass
r al
p r
201 3
g h
o in
A untof
Ġ201 5
i al
a ce
5 4
A r
ĠD e
if ic
Ġn ow
F A
}} |
il d
if f
. .
Ġh is
e ver
r at
Ġ 20
Ġartic le
a w
Hel p
pri l
Ġ 7
an uary
u lt
M E
Ġwh ich
Ġp r
Re quest
now iki
Ġ 9
Ġsh ould
Ġw r
arn ing
Ġ200 9
Ġ ĉĉ
med ia
a ct
Ġt est
Ġf ont
Ġp re
Ġus ing
re ate
) &
Q u
j pg
r ic
Ġh ere
6 8
n ot
6 9
v el
or ld
e ed
; ]]&
p ublisher
Ġ Wiki
c y
i re
t op
Ġ| [[
/ &
ĠM arch
ĠS imple
an y
G E
ment s
oblin Bot
d e
G oblinBot
Ġ== =
Ġ 8
ge t
ontribut ions
r ow
w e
Ġ1 0
e a
7 8
re n
Ġ 5
op e
e y
c he
Ġ en
) .
g o
eren ces
l l
on al
ount y
a h
4 0
b l
o h
201 5
f amily
Ġw arning
e br
C ontributions
er n
Ġpa dding
u k
ont ent
op ul
NA ME
ss age
em ber
st ub
Ġm ay
Ġp art
c on
; </
s ize
v en
ation s
f ter
b ot
U L
u gu
r ou
ĠM ay
19 8
us ic
s ub
um b
ĠA pril
3 1
et er
7 7
3 5
m s
or n
Ġ201 1
Ġw ould
Ġ201 2
ou n
und er
PA GE
; (
: |
e am
Ġ200 8
ebr uary
Ġwork s
A merican
ht ml
ĠJ anuary
PAGE NAME
b lock
Ġth ere
ct ober
en ce
f l
Ġme ssage
er al
Ġw ere
Chenzw Bot
ove mber
Ġf in
r is
Ġin formation
ce mber
u g
"> ==
-- --
re direct
Ġthe y
Ġ own
ept ember
Ġs ol
vert ed
t ed
Ġ201 6
K ee
ha red
at er
Ġal ign
Ġ* *
Kee gan
Ġt ime
ĠA r
Ġ1 7
T alk
fo box
Ġf irst
ugu st
b ackground
Un ited
3 2
Ġco mp
Ġp er
]] ||
Ġw e
C omm
gu e
ul y
) ,
ĠH ow
Ġ201 3
s c
w ard
ve nt
4 2
er r
Ġ up
ing le
00 00
Ġbe t
ou th
Ġc on
clud e
201 4
a le
s imple
ol og
]]. &
Ġ{{ #
ear s
V andalism
o y
~ ~
W elcome
el f
) ;
ay s
Ġweb s
Ġhelp ful
5 2
ĠA n
Ġb el
ĠW elcome
in ce
c uss
f lag
Ġ201 4
Ġ1 6
Ġin ter
5 1
8 9
ran ce
4 1
Ġpro v
-- &
ef erences
Ġ our
201 6
it ion
'' &
g color
Ġs uch
ty pe
O R
in a
ic on
Ġ-- [[
opul ation
ĠâĢ ¢
er man
Ġb irth
re s
n ew
ol l
lt r
an k
ĠJ une
ĠF ebruary
h or
Ġ19 9
d min
M F
Ġd ate
Q D
o ck
ĠWiki media
ĠC ounty
ĠĠĠĠ ĠĠ
Ġc ons
w a
r op
Ġw hen
v ol
Ġa c
ĠO ctober
D eletion
b le
Ġa g
ot e
i ed
]] '''
| [[
ĠN ovember
t le
Ġ end
a x
Ġw elcome
l at
201 0
Ġ1 2
onal d
Ġthe m
en n
Ġaccount s
: {{{
Ġ1 5
ĠR e
Ġc ont
Ġsol id
6 7
ĠHow ever
ĠDe cember
Ġse em
pla in
201 7
Ġse e
S E
Ġrem oved
en ame
id er
Ġwh o
ĠĠĠĠ ĠĠĠĠĠ
as ed
c ol
v ed
ar r
i el
at ure
ĠA l
i er
m y
W MF
H ow
Ġha d
Ġa fter
Ġ{{ {
ĠA ugust
ra ph
Ġl anguage
Ġl og
i vers
Ġre ad
w o
Ġplay er
alis ation
Ġon ly
n oun
Ġdis cuss
ar s
v o
A n
]]) </
C T
ĠJ uly
Ġ1 4
D I
th umb
T h
Ġfin alisation
Ġ image
or th
Ġ1 3
P ro
al s
Qu ick
for e
Ġt ext
Ġas k
;]] [[
Ġ ser
Ġt eam
D E
Ġb ackground
Ġa ct
Ġm ov
N ew
re en
Ġthe n
"> #
Ġ ĉ
Ġ1 1
ist ory
T A
M ac
a j
Ġc al
f irst
Ġ| }
um ber
Ġb order
A l
ĠY ork
id ent
ap an
ĠS eptember
In fobox
Ġan other
Ġn eed
7 2
200 9
200 8
Ġ''' [[
1 00
ca use
ef ul
Ġf ace
p ng
err or
"> [[
el y
Ġd iff
i rect
it es
o x
;[[ :
ĠĠĠĠĠĠĠĠ ĠĠ
l inks
Ġat t
t t
ĠL ea
8 6
s on
reat ing
Ġl ist
la st
Ġbe cause
7 6
s elf
Ġ ar
Ġm oved
Ġa p
ce nt
A N
st yle
re ated
ph p
ib le
noun ce
Ġcal led
he d
v ice
Ġus eful
an ce
ame s
d onald
S imple
very one
M y
Ġthe ir
op y
ific ation
Ġ imp
201 2
c ode
E d
id ata
ak ing
RE CT
2 20
DI RECT
Â ·
Ġl inks
RE DIRECT
ele ct
lin e
Ġre ason
Ġm y
Ġus ed
Ġb ot
b e
Mac donald
s k
I f
it ies
in es
ount ry
U S
t en
Ġadd ress
ĠLea gue
; [
A bout
ind ex
m ar
ĠA merican
7 0
y pe
}}} |
t r
Ġc reate
w ork
Ġ2 1
ol s
ur n
b um
Ġc ol
8 0
oh n
ĠF or
ĠUn ited
Ġ op
Ġst at
Ġcons ider
b al
la ck
d f
Ġc omm
Ġde ath
pla ce
Ġ200 7
A W
name d
qu ick
7 5
ig h
un ic
ou gh
w ay
k m
B A
ik idata
b y
ic es
e ch
w idth
T S
}} }}
if e
i ver
Ġ{ |
ĠE veryone
om in
b ig
}} </
Ġf e
ers on
Ġ error
t om
F ootball
A A
Ġg one
y p
Ġ2 2
P eter
Ġs ub
wiki pedia
Ġb lock
201 1
Request s
G e
th ing
ad y
ic ally
Ġw idth
L ist
; ''
f r
o ss
per i
AW B
c at
od u
og raph
Ġ2 3
Ġre named
Ġm any
vi ew
n ational
y n
p l
O s
6 0
c ed
Ġd on
9 8
Ġbe fore
Ġm ost
Ġn o
olog y
g ion
Ġ201 7
p lay
it s
Ġof f
D e
9 0
le x
Ġbet ter
Ġbe ing
a i
OR T
om at
Ġ| {{
200 7
Ġwr ite
Ġs c
ist rat
w elcome
ic a
p s
Ġan nounce
6 4
iv ing
an ge
Ġag ain
ou se
ivers ity
Ġc om
le y
er t
Ġannounce ment
plain links
A m
R ename
ontrib s
r ad
Ġsh ow
ist ics
ĠĠĠĠ ĠĠĠĠĠĠĠ
id d
L L
ir is
block ed
n a
ad er
ele ted
d own
) ]]
er y
Ġs pe
lo bal
nd ash
Ġap pe
Ġdid n
DE FA
Ġrem ove
iel d
ĠI P
Ġs ay
UL TS
Ġwebs ites
Ġth ings
ch o
over n
ULTS ORT
id ed
r on
a ve
O C
DEFA ULTSORT
] &
om an
ust ral
Ġa pp
er ent
Os iris
Ġ: ''
b gcolor
d is
Ġ over
Ġl ine
ist ric
ic t
c ap
Ġwh at
al ity
Re vert
R eferences
flag icon
or m
of f
6 5
7 4
unic ip
Ġg u
|}}} |
Ġt wo
Ġg o
6 3
ur ther
Ġg ood
ĠĠĠĠĠĠĠĠĠĠĠĠ ĠĠ
qu e
Ġw rit
h ip
y ear
ar ge
s u
r and
Ġedit s
Ġ ro
ul l
Ġin to
e g
Ġ Z
Ġ gen
m i
c ontent
il ity
ref list
n own
W ikidata
dmin istrat
ĠH el
Ġc he
Ġdiff erent
v ant
? |
y st
b order
art y
w eb
t on
ha m
8 7
t d
S c
ha mp
in n
at ch
220 27
ubl ic
Ġth an
B e
I PA
w h
Ġ User
http s
Ġh er
Ġs ame
le n
is e
Comm un
an n
* *
]] :
at or
ord s
Ġit s
ĠThe y
Ġj ust
M er
ĠP ro
ow er
]] }}
u w
L anguage
vo id
Ġf urther
C E
Ġwh y
Ġf ind
Ġp la
sp e
W hy
Ġc ent
in s
|| ||
Ġl ook
it al
7 3
c er
M ar
ef f
u ck
Ġs hared
Ġ ra
rit ish
Ġv andalism
Ġa void
down under
7 1
. ''&
ran s
al t
new s
bo ok
Ġare a
Ġl ast
8 2
Ġ get
G lobal
Peter downunder
an ad
Ġbel ow
b irth
Ġ very
ĠĠĠĠĠĠĠĠ ĠĠĠĠĠĠĠĠ
re ady
Ġ 30
Ġ ir
Ġyour self
z e
Ġa m
Ġm usic
u al
re le
a f
ur y
omat ically
ut ion
bl ue
Ġc ell
in t
% &
ur rent
n o
v il
ĠO ne
re st
un g
200 6
lo g
ĠI s
y m
G en
j s
o mp
p ar
Ġd es
g ed
c reating
is m
k a
ĠF rance
Ã ¤
com m
Ġthe se
al i
Ġf ootball
istric t
. |
Ġal ready
o ci
d vice
la b
he s
Ġth ose
se nt
Ġk now
Ġn ational
Ġcl ub
Ġm aking
Pro ject
ur ing
Ġst art
il m
aut hor
row span
ar i
S hared
l ue
am a
C C
y l
Ġs our
My Language
OC K
;/ &
Ġnot ices
Ġy ears
8 1
ren ch
Ch ris
ĠW orld
ti ve
simple wiki
ĠI nd
Ġf ound
he lp
Ġc opy
8 5
oin t
C at
op er
9 5
ur ope
ĠP ri
od y
Ġstat istics
g y
i vision
Ġp ar
'' ,
% ;
l i
BA SE
is hed
Ġme an
ĠM ar
ian s
]] |
Ġuser s
BASE PAGENAME
wik t
n al
di vision
re verted
ĠĠĠĠĠĠĠĠ ĠĠĠĠĠ
Shared IPA
6 2
Ġb ook
SharedIPA dvice
rele vant
w ed
ep art
Ġl ang
Ġbirth s
Ã ¼
es e
Ġir relevant
Ġnot e
ĠS he
ic ial
1 20
le t
Ġ200 6
n et
Ġto p
a ir
Ġst ill
' ,
Ġwr ote
A dd
us h
um m
Ġwork ed
S ingle
Ġfor m
Ġ und
ail s
i um
l ong
Ġm w
'' [[
R ed
Ġto ols
Ġc ap
ĠC on
st e
st er
Ġprov ided
c u
M ed
og in
Ġg rou
an a
.. .
08 0
18 3
Ġp l
Ġk nown
at her
C on
l ink
v al
g er
Ġ under
T hank
n y
ĠW ar
peri ment
are a
k e
Ġa ut
P ol
ĠK ing
Ġd ir
Ġp ost
Ġimp ort
Ġre f
ist s
re t
m a
m ap
Ġ: ::
ab l
9 6
Ġa b
h il
9 7
iv es
w p
w it
id a
Ġw ay
Ġall ow
ra p
Ġe very
Ġa ge
Ġ| &
Ġy ear
Ġs p
J apan
W h
p os
l or
y s
ele vision
ĠI I
elect ed
p opulation
8 4
yst em
spe cial
Ġbot h
Ġ2 4
Ġn umber
; .
oin clude
in ter
Ġinter wiki
8 3
n oinclude
c ess
Ġdiscuss ion
B lock
ĠC ity
re m
Ġw here
a ur
Ġmov ie
t ing
ime s
se c
L e
ĠM an
Ġha pp
el i
at ive
ĠS h
n ia
y our
ond on
Ġ2 5
== =
S h
M an
79 3
. '''&
J ohn
L K
ĠP r
ĠO ther
help ful
ĠS UL
ĠC l
Ġs ign
ĠR iver
u ally
, &
Ġnot ification
29 3
9 1
6 1
ĠHel lo
aut omatically
Ġv i
r d
ain t
Ġn omin
or ge
ĠO n
Ġle ast
gt h
ĠG erman
Ġ http
S T
I t
o z
R u
our nal
O ther
o le
cl ub
Ġl ong
is on
E n
''' [[
TA LK
vol a
Ġt emplate
ĠT o
u vola
Ġ[[ {{#
ĠL ogin
R az
Rename Request
Global RenameRequest
Ġst op
b b
Ġ }
Ġs et
l ing
Ġ o
C l
hamp ions
/ {{
n i
Ġche ck
Ġb u
Ã ¡
Ġl ink
empl ates
ag o
ĠE d
er m
;| [[
ĠA ward
ran k
sp ort
ff f
and al
Ã ¶
9 3
ce pt
Ġ right
cho ol
on ly
Ġ2 8
R us
c ing
Ġ2 7
Ġ: :
ĠW e
Ġdo es
Ġde vel
ĠT here
bot tom
Ġh im
Ġm ight
ist er
st it
ab el
at ing
Gen eral
P age
ele te
ĠUn iversity
Ġtest s
ograph y
Ġimport ant
Ġal bum
mar gin
Ġ }}&
Ġre s
Ġk ept
Ġre port
y r
G erman
ia m
Am box
ĠB e
ĠA s
t a
ir d
ar a
b orn
Ġ2 6
Ġpro ject
p le
we ight
unicip ality
Ġ vis
Ġs ure
ri es
N ot
umm ary
y d
'' .
Ġ0 8
Ġre verted
ge s
Ġst ate
est abl
ar l
vert ical
not ice
vers ion
Ġch o
ĠThe se
Ġser ies
z er
ĠW h
et ails
ngl and
ful l
08 4
ĠI nter
o o
Ar ch
''' ,
aj or
l er
P r
ĠC ol
N e
b ack
odu ction
Ġ[[ {{
ar m
ic ha
|| [[
ĠB r
ot al
p ost
Ġd ef
Ġs ize
b i
ass o
Ġs up
Ġc reated
Ġs he
| {{
gt on
ti an
---- ----
Ġde c
F rance
arch ive
Ġc ould
Add bot
293 183
O T
Ġf ree
C ontribs
ri al
g ov
E nglish
TALK PAGENAME
ak es
Ġpa ss
Ġp erson
Ġt ag
k s
arr as
Ġ quest
Ġ2 9
Ġl oc
Ġ ide
ing er
st ru
ĠH OCK
Ġc ity
Ġ username
old id
s q
Ġse ason
at t
ĠC omm
Ġs elected
9 4
u me
icha el
Ġin clud
an e
c f
oll ow
v ar
ur r
overn ment
vi ous
ature s
i us
wa it
b ur
Ġre l
Ġ* [
Ġcont in
Comm ons
cap tion
ure s
p tion
d om
ne y
I nd
u di
k i
we en
B C
9 2
200 5
E x
for d
eren ce
m d
amp le
ov ie
H ot
t est
I N
ri pt
v ation
od uc
O n
le an
ĠS c
Ġa d
ch ange
M ain
Ġappe ar
to ol
c lo
or ry
am s
Ã Ń
al on
Ġre c
| ,
Ġm ain
ĠNew s
w n
e v
' m
Ġp oint
ur al
or ies
g reen
B arras
p ro
Ġt emplates
Ġhelp ing
FF FA
= {{
k y
Ġ* /
Ġwebs ite
s ort
al y
Ġre quest
à ¤
Ġse c
Ġt ra
res ident
Ġb ack
Ġt yp
at ely
u x
Ġle vel
in o
a ction
ĠR eferences
ali for
ly mp
ic ago
Ġedit ing
ri e
"> '''
âĢ Ķ
b ar
ont h
ut ure
fl ame
Ġund eletion
ht m
Ġp oss
a ul
:| {{{
alifor nia
und eleted
s et
Ġle t
ĠS ee
or flame
Ġs ong
s ite
Ġs m
B lue
on y
ss oci
S p
O r
Ð °
g l
Ġg ive
artic le
ct or
y es
t ain
epart ment
ĠG u
ock ey
ĠĠĠĠĠĠĠĠ ĠĠĠĠĠĠĠ
R ef
Ġl arge
ff in
Ġw ik
d oc
iv ed
t ic
i lt
lo gin
hampions hip
Raz orflame
M ay
rou gh
b io
ĠI AN
cl ass
Ġbel ie
Ġb ased
Ġb gcolor
st r
d ay
ĠP arty
a id
ĠL e
Ġpol it
Ru les
Ġbet ween
pa dding
en se
ĠG rand
C he
Ġs u
20 00
ĠâĢ Ķ
J P
B ad
ri ed
Ġc ount
ĠD ivision
land s
at s
Ġnew s
Red irect
Ġd irect
e ep
ĠR ep
ci ent
Hot Cat
id ge
Th is
Ġf our
âĢ Ŀ
! }}
Ġdeath s
Ġt r
: {{
Ġm an
et s
ustral ia
un ction
book s
Ġwith out
Ġ* {{
Ġ url
Ġ quick
dministrat ors
bo ard
Ġm ar
sub division
Ġ qu
pt alon
ad d
il la
Ġvi ew
ĠA ir
Ġf ollow
G ri
Ġp opulation
m iss
b old
Ġc a
b n
Ã ³
]] {{
S e
Ġvis it
C ent
C reated
Ġw ell
Ġ version
re w
Ġf ar
Ġre t
ĠJ apan
in al
Ġĉĉ ĉ
084 080
Ġme mber
is c
~~ ~~
Revert ing
Ġm in
15 7
r ist
i j
Ġl ater
T ech
g s
ot t
ser ved
;, }}
id el
ĠE x
200 4
C om
B ill
l ight
a a
Ð ¾
Ġany thing
Ġre g
Ġc ome
ut e
Ġr ow
lab el
Ø §
Ġmov ies
a e
Ġ ent
Ġs ide
Ġf uture
ĠR D
/ *
not es
E ptalon
i et
a red
m idd
o on
. ]]
Ġd uring
ud e
c ame
Ġc ategory
Ġh and
Ġ ext
Ġd ata
ĠS outh
in gton
eli very
for t
Ġt ype
Ġgrou p
z a
ther n
Ġm uch
ee k
ir a
ia Wiki
B ar
in clude
Ġin d
Ġex periment
i que
Ġ ear
wa les
'' '''
Ġc ountry
av y
l ang
o e
h i
lo c
m usic
ect s
n er
ĠA t
it her
ap p
I nter
ĠC ent
le ar
re gion
FF FF
Ġbe came
ul ar
ur ch
> /*
ĠF ound
ĠP eter
de ath
12 3
ĠR ec
ĠC ar
Ed it
ĠA nd
h r
om a
re name
au lt
v es
of wales
ffin ofwales
cy clo
Commun ity
C ontent
Ġw orld
Ġĉĉ ĉĉ
u j
b lack
I S
g oblin
Ġsh ort
ar act
| {{{
le ct
d y
Gri ffinofwales
Ġposs ible
ele vation
Ġre direct
ion al
col span
Ã ¨
include only
Ġw iki
d o
C ar
V er
Ġm ap
ĠG e
Ġs ystem
Ġth rough
ĠC up
I s
on a
ist an
ser if
a les
re am
ill ion
Ġpla ce
Blue goblin
Ġwant ed
Ġmessage s
B el
; )
d b
ĠR oman
if ied
anad a
B r
S pa
Ġ''' &
ĠT alk
Ġs ans
Ġ )
Ġf ix
Ġ unt
Ġ art
n ing
u la
v ince
if y
w here
Ġ i
Ġc lo
for m
js asso
Ġch ild
B ritish
wed en
ge o
av id
ers onal
N ational
in it
12 4
Ġp ri
oot notes
pre sent
P eople
ĠC hampionship
f ield
te am
ĠM ed
A T
sh ip
ĠThank s
he ight
0000 00
]]) &
l s
ic o
Block ing
H e
== ==
co mp
Ġc urrent
: &
ĠS ome
v an
CE F
ide o
ill iam
F C
h u
W est
at tle
R S
Ġpre vious
Ġd elivery
Ġth ree
Ge orge
ed y
t w
time s
99 99
Ġg ame
Ġ3 1
ra z
Ġre cent
Ġac ross
D D
ĠB ot
w ord
ge st
ens ity
Ġunt il
D jsasso
Ġsm all
Ġb orn
it tle
LL LL
T est
ant s
Ġh igh
le ge
Ġprov ide
en ed
Ġadd ed
ĠD o
u es
Med iaWiki
Ġre le
W orld
y ears
Ġ200 5
el s
Ġbelie ve
Ġ 00
Ġpro ble
um mer
Ġbe st
wiki media
ĠFound ation
Ġ Â·
Å į
Ġac cept
P lease
Ġsec ond
ĠN ational
ĠPri x
A d
rit er
ci es
port s
st ate
Ġc ross
me mber
ĠO lymp
Ġacc ess
ĠA ll
Ġsour ces
S aint
Ġw ord
Ġm ove
T D
w ays
Ġs ince
Ġagain st
f ootball
ol it
ĠE urope
Ġpro cess
Ġfe atures
- &
Ġ old
Content s
ut er
Ġl ife
Ġ //
ep end
u z
. }}&
m ovie
gr am
y a
ĠKing dom
er a
200 3
Ġc ontent
of ess
ra in
c reate
Ġle ft
re g
ome n
c ity
à ¦
Ġd ied
Ġwik is
Ġun helpful
ex pr
200 1
Ġse ction
''' .
vil le
C ol
Ð ¸
ic ian
ĠM c
; :
Ġ ob
me n
cyclo pedia
midd ot
on es
Ġ el
Ġcho ose
Ġt elevision
Ġc are
ens us
Ġar ound
( '
ight s
Ġpre vent
~~~~ &
; ]
A dministrators
ra ft
Ġrow span
sp eed
ĠG en
v andal
Ġg r
Ġex ample
L a
s ingle
L iving
ou ght
full url
ad min
K ans
ĠA d
ĠR et
Ref list
Wh at
Ġbe gin
Ġ X
ĠO ff
Ġwh ile
d iff
ran ge
âĢ Ļ
ĠĠ Ċ
Ġh ope
Ġme t
ĠW hen
ĠS p
I P
Ġe ven
ĠC alifornia
ĠE ngland
ĠS er
ustral ian
H L
W E
og le
c fff
mer ica
Ġproject s
I nt
Ġ0 1
Ġs imp
s y
it ation
and er
Ġ ru
F r
200 2
ĠM in
ĠN o
Ġc red
ĠB ritish
O N
E S
Ġc ode
ra ct
ic tion
Ġ** *
Ġper miss
ĠSt ate
edit or
ĠF rench
F lag
Ġnomin ation
P i
= #
P ri
C al
re l
Ġatt ack
b s
y an
g i
J im
A rial
ot ect
Ġ( {{
Ð ½
Ġa dmin
Ġstart ed
establ ished
now rap
l anguage
= |
urr ican
ast er
;( [[
Ġb r
Ġ ef
ord in
our s
S outh
st at
idel ines
S eptember
Ġ0 9
bo ve
ĠW est
N orth
um an
Ġme d
lean up
an ish
Ġs aid
Ġh istory
ou is
m m
web site
Ġk ind
A nd
ĠS orry
d eletion
ĠC he
v ing
s w
b a
j a
eff ects
as k
Ġact ors
u ff
Ġgen eral
G r
Ġof ten
Y ou
Ġcent ury
Ġle ave
g g
st art
Ġm ist
Commons cat
as hes
Â· }}
rest ling
or p
A R
I I
10 9
con vert
ard s
c ontribs
A cc
o is
page s
ml in
E R
Ġ* '''
ssoci ation
ific ations
m b
bur g
FF C
ci ence
re ak
et y
Ġ0 2
ĠN orth
se y
p o
ĠT imes
m w
Ġs ummary
ĠP ark
ĠO r
un ity
club s
fort un
Ġv al
20 9999
uc first
F rench
Ð µ
ĠS e
pre ss
F or
Ġw ords
le ment
Ġplay ed
ĠB ut
ss ue
Ġd one
speed y
it ing
C re
il it
Ġor ig
]]'' ,
an o
ã ĥ
Ġo cc
A ut
Ġb ox
Ġs andbox
ĠC o
ist or
Ġto o
me t
u f
Ġbe come
ĠC omp
ĠP ar
ĠM e
25 0
ĠU S
r ol
ber g
Ġpermiss ions
Ġp ublisher
Ġf am
ri end
Ġ{{ !}}
fortun ately
P hil
Ġst r
19 99
Ġch aract
G u
ĠCh icago
en g
S er
; ~~~~&
ild es
Cent ral
Ġun ique
ri an
Ġp ut
U se
Commun es
iv en
ĠH er
val ue
c ha
Ġb ad
ĠB ar
at ter
ink le
i ence
B OT
dis play
le ss
Ġdevel oper
Ġrele ased
ash ington
for ts
ur ple
Ġt rans
go ing
ro ad
P mlin
ser ver
f ootnotes
ĠJ ohn
Ġa bove
d er
Ġw on
ĠP er
M r
re a
b or
Ġef forts
iz ed
p id
Ġquest ions
U K
ert ain
al ian
urrican e
St op
R ep
b an
w ith
ober t
Ġhe ight
E l
m ail
Ġaut hor
p ick
and s
Ġrec ord
i as
ĠUn fortunately
= {{{
h o
Ġin clude
C O
Ġl abel
T V
P ar
Ġ9 00
ĠA merica
n ess
Mer cy
re y
em oc
Ġcell padding
se arch
Ġ et
org ia
ic ies
N ame
qu ared
Chris tian
wh ite
mp er
wikit able
ut ral
Ġwrit er
Ġ200 4
Kans an
i od
15 0
Ġsour ce
che s
68 157
Ġre view
as es
Ġ Qu
u ns
sc ore
Ġe as
re port
Mer ge
J anuary
N uvola
Ġcred ited
Ġevery where
Ġf lex
Ġse ver
C o
ad get
ven ience
spa cing
od es
z ell
v a
b u
d a
5 07
g n
Ġf unction
Ġsome thing
Ġe ach
st and
Ġatt ach
Ġ( &
Ġapp s
Ġj ournal
J ames
Ġ'' '''
un k
Ġre sp
p op
RS quared
ra ck
Ġb l
ĠP al
| ''
Ġ â
Ġf ew
A s
Ġflex ible
Ġnot ifications
ĠN ot
Acc ount
ĠYour s
ĠL ia
G o
N N
Pi RSquared
Ġin con
Ġre served
raz il
33 72
Ġs imple
ag er
ĠS o
Ġcol span
Ġpass word
** **
ĠR am
v in
! !
Ġlog ging
Ġlog in
ain s
ber t
Ġ im
la m
Ġincon venience
Ġcom ments
our t
ĠĠĠĠĠĠĠĠĠĠĠĠ ĠĠĠĠĠ
Ġk eep
Ġp ersonal
Ġ ele
ĠL ondon
ir c
Ġ ge
âĢĿ &
Ġcl ashes
Ġs ur
}}} )
ĠLia ison
3372 19
Ġ1 00
Merge Account
ĠPeter zell
d ot
]] ;
Ġn ear
ĠR ename
s ign
Ġus ually
ri ver
p en
ĠRename d
199 2
Rename d
ol ic
Ġl a
}} ]].
! &
u el
Ġb old
I ssue
Ġc ar
ĠE n
hy s
p df
u mp
' ve
' :
c el
em y
it ar
C ite
in fo
ĠA ustralia
user login
h l
Ġd ays
M arch
n um
Ġre d
ĠM ichael
he l
Ġlanguage s
8 00
ste ad
Ġ );
Ġadd ing
j p
ĠJ er
i ous
Use ful
ĠH ar
Ġ0 3
Ġ Ð
ĠD istrict
Main Page
ig a
p ly
]]|| [[
C reate
n ical
Ġhe ad
al se
it t
Ġme et
m ag
ĠH is
ou p
Ġname d
art s
p in
A pril
ed u
ir gin
Ġcell spacing
Ġt ake
AA AA
Ġinclud ing
ĠG ood
U R
t v
Ġs end
u ment
h ot
se e
p i
Ġt erm
ilit ary
Ġs ent
Ġd ay
Ġchild ren
dministrat or
ol f
f cer
ĠP ress
JP G
z h
34 1
Ġread ing
ĠA fter
Cre ol
. ''
ow s
ar les
ĠP ort
ant on
sub st
ac y
ex as
Ġme ans
w d
oc al
En fcer
ĠI S
k ey
] .
Ġp os
Ġab ility
c r
u et
w inkle
L ondon
- ||
H ar
ter m
st ar
Ġle n
Ġex plain
ĠInter national
Ġgu idelines
is ode
Ġc or
le ader
ĠB el
Ġcontin ue
lor ida
e z
ĠAn ge
A nt
J ul
bl ank
St e
E urope
Ġs ingle
Ġsever al
Ġcare er
5 00
Q ue
tool server
Ġn uvola
it ude
D is
ri ate
x t
Ġm onth
Ġhapp y
Ġe vent
i les
om b
Ġcan not
ĠRep ublic
Ġpr oduc
Ġ* ''[[
h istory
N o
ward s
m ical
Ġf amily
lo ad
al th
Ġg overnment
ro s
b it
Ġse en
pos ition
Ġ20 00
199 8
M e
Ġle ad
ĠV andalism
ĠH istory
g a
ĠB er
w ood
ĠS m
A dding
N or
il le
c re
Ġd own
Ġmist ake
17 9
st on
Redirect ed
ĠRec ords
c ad
G N
Ġfor mer
i mat
Ġide as
]] '
Ġl ot
Â ł
Ġaccess date
Ġfe el
B L
Ġt ildes
# #
B N
Ġ== ==
sec ure
c is
Ġt er
en wp
ateg ories
r r
A ll
is se
Ġst ation
ge nt
m on
] ,
c ri
comm ons
us ed
Ġres ult
unicip al
S an
ro x
Ġlen gth
Ġaccept able
wit zer
2 13
it er
y o
s ur
M ont
ich ard
Ġsup port
witzer land
Ñ Ģ
p ut
id es
Ġ( ''
Ġcap tion
iz ing
emoc rat
f b
Ġ0 4
vol ution
L I
Ġp o
ĠT ime
anad ian
j ira
K ing
_ _
er gy
c d
ordin ates
ent s
ree k
and a
ab br
D etails
Ġbu ild
ub e
om as
Ġd eleted
j spa
Ġto wn
w est
Create Issue
t otal
Ġappe ars
s ident
Not ification
m ark
I R
199 6
z one
ra b
che d
s ide
Ġtry ing
sh ire
n l
D F
C han
i i
go ogle
ĠP resident
A ugust
ĠM on
Ġ id
Ġ vertical
Ġf l
ref ect
ĠA nt
u en
bl ing
ian a
ĠAn y
o j
nd er
Ġal ways
Ġblock ed
C omp
wit ch
A B
Ġcon f
Ġ ;
ot a
iz ation
199 7
al d
Ġchan ged
ĠGerman y
Ġfollow ing
f d
; |&
;{{ {
G la
ĠC ha
Ġ Ø
]]{{ Â·}}
act or
ĠS ec
Y ot
f e
av ing
Ġ( {{{
Ġh ome
De cember
ord on
O ctober
ro ve
ĠN e
c il
; =
Ġn e
l ic
b and
enn edy
ast ern
Ġtyp ing
r oduction
b en
Ġ200 1
> [[
d es
iv il
ĠS ummer
ak istan
F ebruary
H istory
Ġor gan
as c
ant ic
rad ius
i en
Ġact or
ĠS weden
W illiam
à ´
use um
Ġother s
ab ility
10 341
Ġ es
Ġm akes
Ġnot ice
Ġ[[: {{{
iss uet
CreateIssue Details
issuet ype
Ġwrit ten
ofess ional
b d
à ®
P ort
Ġinter est
Ġre gion
i ber
k man
idd le
sk y
J une
C ountry
Ġd etails
|}}}| {{{
ab ly
ĠS ch
i y
ĠR uss
art in
Ġst ud
n umber
ot h
d ef
Ġl aw
Ġsu ccess
ĠI mage
c ountry
ric a
T o
c ast
5 09
z y
Ġcount ries
r ia
Ġf ilm
p n
Gla isher
Ġ 06
our ce
ĠS pa
Ã³ n
m f
w orld
loc ation
Ġ1 01
Ġm unicipality
Ġpar ame
R oman
k o
Ġn ext
Ġplay ers
]] [[
Ñ Ĥ
i w
us ical
ĠOlymp ics
. </
in ess
Ġm od
Ġst and
w ater
Ġg iven
ec ess
N ovember
Ġre member
ict or
os h
w ill
ĠAl so
De ath
S up
Ġsome one
Pol icies
R el
ĠP ol
Ġ200 3
d q
f ilm
Ġv ote
uk e
}} }}}
3 00
German y
Ġro ck
ar th
i red
qu ad
ã Ĥ
7 29
a ff
pa ck
Ġshow s
55 5
Ġ ed
Ġmember s
ĠF ile
Ġ .
199 0
Ġcom ment
sk i
Ġ0 7
G adget
) :
y e
G w
Ġl ow
im a
lo od
ines e
Ġth ough
Ġtime s
ĠM y
]]'' .
M at
ag le
Ġb ar
ol ina
c ount
al a
as p
à ¸
ã ģ
ĠP l
ĠP aul
K R
Ġ icon
Ġcomm on
F ran
rie ved
d r
ond isse
ra w
Ġso on
Ġ $
-- [[
P er
Ġc reating
Arch ive
F irst
mat h
Ġide a
L og
ĠH ouse
Ġin stead
opul ar
ĠN or
Ġen cyclopedia
Ġsc ore
P resident
d ata
Ñ ģ
2 24
Ġret urn
w r
all ery
ĠA f
tle ment
c an
m g
56 6
Int roduction
ĠRam bling
Ġn orth
Pmlin editor
D avid
orp or
ĠB est
Ġw ater
199 5
m ay
Ġre ally
m ore
Ġh ockey
Ġf a
Ù Ĭ
Ġloc ation
10 5
Ġ elect
N S
r ation
u ation
Ġ0 5
Ġb ig
ĠF ootball
Ġth ought
Ġd ist
l ike
; ]])
he ad
one y
Ġa dministrator
Request ed
se par
rem oved
Ġb and
i h
d ensity
R uss
}} .
;'' '''
oy al
Ġs pa
ear ch
| '''
h ow
ur a
s ong
rop ical
wed ish
Ġle ader
ĠPro vince
Ġ order
M in
v ate
Ġwr ong
Ġper iod
sport s
list s
Ġs chool
Ġw ar
oc ation
az ine
Ġedit or
Ġbot tom
ĠR ed
as ons
S ha
Ù Ĩ
ĠR o
e an
b our
]]}} .
n am
J uly
ĠM usic
Ġ 50
b f
Ã ¥
Ġf lag
Ġ-- --
Tech nical
m o
t ers
overn or
ĠG r
12 2
c s
Ð »
99 1
Ġc at
id s
Ġg ames
Ġdes ign
R A
Ġ[ {{
ult ure
Ġr un
d ana
B en
:| ,
Ġdo cu
ĠInd ia
le te
M ajor
z o
Ġd istrict
s ol
i ef
Ġa ss
lt on
con om
oun cil
ak er
W e
Hel lo
T y
Ġsub ject
P rop
G B
D iff
an i
Ġl and
op s
Ġgo ing
Ġl ittle
ell ow
Ġf ield
Ġs k
x y
il led
W WE
FF F
C anada
Ù Ī
u y
Ġ200 2
l im
separ ator
i or
en ry
Ġm ajor
r n
ce ption
it a
}} ,
|||| ||||
op ment
me di
Ġp ower
' ll
N T
ĠD is
im al
lo s
r ick
Ġg reat
k h
Ġ# [[
ra g
Y our
Ġm ust
I D
Ġn on
D ata
Ġl ive
Or ash
ĠR es
199 4
M ic
Ġ ep
Ġm illion
5 08
up ation
quot e
th is
ĠIS BN
Ġs ays
ct ure
tool bar
ĠTh at
e th
ĠO ld
et work
Ġv ar
d elete
Ġel se
Ġp rom
emocrat ic
irgin ia
ol ly
ĠD ay
re ed
um n
Un iversity
Ġspe c
ĠS chool
un es
er ation
Ġoff icial
c urrent
on ia
5 16
in ed
M ichael
A ustralian
aw a
Ġgrou ps
Ġ 55
re et
o ice
Ġin fobox
Ġm atch
Ġm ark
ĠM S
ĠUn ion
mat ash
at ural
Ġ arch
ĠB lack
ar io
unicipal ities
al le
p m
ig ion
ĠAr my
m ost
AN D
ir o
10 4
Ġre ply
E W
Ġ em
B razil
ĠE l
US A
1 18
Ġ[[: :
10 7
;| -||
g b
k k
198 0
b ased
n ight
ĠJ ack
|[[ ::
C R
Ġ--[[ ::
u h
ym b
if expr
Ġa ir
Com ic
im il
Ġ! !
Ġb ody
ĠE mp
refect ure
x x
Orash matash
New s
ĠOff icial
R obert
a q
al bum
Ġg ot
n el
me s
ush pin
ĠAnge les
A lex
E ur
ĠL a
C D
Y Y
Ġre st
Ġex peri
ti es
Ġex p
s witch
Re verted
ult ip
E h
19 6
f our
iss ion
ol a
TD KR
T imes
s ch
ac tive
Ġ| ----
ase ball
ĠS ha
Ġquest ion
L inks
z z
Ġj oin
C A
53 9
Ġear ly
Ġtr ue
n ect
er ing
Ġf act
G ordon
R yan
us iness
w in
á ĥ
Ġen g
e i
]] -
l ad
ĠIs land
Ø ±
S ch
2 12
u v
Ġe ither
au ght
Ġcent er
Ġdocu ment
ĠCh ris
p olit
Ġedit ors
ĠG o
ĠF ran
f ig
N on
n n
o ser
admin s
B y
ĠJer sey
in i
Ù Ħ
; }}
;]] '''
Ġa way
American s
On ly
Ð º
A tl
ĠT r
T ah
ĠS ans
ot s
M on
Ù ħ
Gw ib
uc ation
; â
Ġt ell
' )
ge ther
1 06
ĠAr t
gr oup
Ar tic
Ge orgia
B ook
Ġst udi
1 16
C ross
Ġbl ank
S ec
et t
Ġfor mat
) }}
C ap
c le
ci p
ru les
Ġd em
ĠCh urch
Ġc leanup
on or
ot o
ĠH igh
1 14
ou l
ĠA ct
ef cfff
periment ing
ill s
10 8
stit ution
ĠA ut
1 17
' re
not e
13 2
l lin
ur s
g al
iv al
am big
Ġre qu
c ont
Ġsub division
establ ish
Ġt emp
c m
im ate
br ary
w riter
ĠN ame
Ġv align
h s
L A
Ġ::: ::
q q
ow ns
C S
and y
off set
ign post
E E
r as
ĠL in
2 16
Ġc ase
c j
199 3
llin ois
ol k
Ġm er
ons in
wiki x
Ġmar gin
ĠT exas
ĠL ouis
k J
y outh
C ounty
Ġpro b
len gth
lin er
ĠA m
isc onsin
'' )
Ġpr otect
ut ch
W wikix
ĠEurope an
12 6
Tah oma
Ġen ough
er ed
S w
ug gest
w y
ant a
ct ions
1 25
ex ico
/ |
Ġclo se
h ar
ir l
ut c
1 15
14 7
Ġspe cies
Ġd el
a is
I d
}} ||
ĠF lorida
Ġprocess ed
play er
LLLL LLLL
M h
ad o
Ġh ig
|}}} {{{
f ect
ge l
ĠAward s
Ġd r
Ġp artic
ĠO F
d ark
M al
ĠP en
Ġfam ous
u a
Ġs inger
ur t
f y
ou thern
Ġl uck
ri gin
Ġexperiment ing
Ġproble ms
ri z
Ġcor rect
ĠY ear
f n
Ġs outh
ov ing
Ġpolit ician
imil ar
ĠM et
ob el
s a
qu es
16 6
Ġs ha
Ġv ol
G et
nt s
ure au
ad io
he t
di an
ĠP age
ĠM any
ran sport
os op
aut ion
Ġ19 88
Ġst ru
Ġ Ã
4 24
;{{ #
an et
23 5
Ġc ame
Ġ19 99
507 729
c it
-------- --------
R ob
Ġh ard
ile d
Ġw eek
Ġs pecial
ĠCol lege
epend ent
Ġdes c
m ing
p arty
P l
en ces
cri ption
am b
in line
L E
ĠW ill
69 69
E ngland
er ty
Ġp opular
al f
ĠS en
Ġre ce
d en
Ġm on
ĠJ ames
re land
ĠJ ust
Ġag ree
rou p
8 78
ĠC han
1 10
ĠE ast
It aly
Ġproble m
j j
Ġf ull
ĠT eam
T r
ĠA ssociation
Ġdo ing
33 33
s l
of t
Ġis s
69 5
E m
20 7
ire s
mper or
k r
Ġpr odu
Ġb lack
ĠUn helpful
Gordon rox
Re g
Ġval ue
ĠH all
am m
ĠM ont
c z
ar get
Ġbe gan
w as
Ġpre sent
Ġneed ed
1 13
Ġ emp
Ġg row
P aul
T I
ĠM or
pr op
ĠM ost
ot land
ad ium
Ġw inn
g old
b on
c ar
ĠB ook
O S
ĠN HL
ĠS ub
Ch arles
C aution
Eh J
12 9
Ġex ist
ĠS up
ĠMin ister
p ha
Ġlook s
all s
Ġwork ing
Ne utral
Ġd ue
b j
ou ri
}} )
Sp anish
c md
Ĩ Ĵ
d x
St at
C ha
ant ed
ank s
he st
ĠEmp ire
ĠB l
ater ial
âĢ ¢
Ġc ategories
an c
ĠC or
Ġ- [[
ip p
Ver dana
n h
s en
ing les
Ġcomm unity
18 9
''' !
f a
ĠL ight
D ST
G reen
M et
re ason
Ġiss ue
99 9
b w
il ver
Ġcap ital
k en
Ġf r
; \
ad a
Ġcomp any
ĠĠĠĠĠĠĠĠ ĠĠĠĠĠĠĠĠĠĠ
Ġclo s
ĠM ac
Ġdoes n
âĢĶ ||
i ent
T H
19 4
cad emy
Ġunder stand
f ra
Ġhapp ened
LI GN
ount ain
User login
ĠSt yle
ff ff
v ocal
ĠK ore
Cl ass
]]) .
ar ia
Ġs ite
19 5
q v
in c
end er
Ġneed s
10 1
m it
ol y
ĠP hil
Ġlist s
Ġnot able
i ography
C ities
it ions
Ġg ives
ĠA LIGN
Ġbu ilt
B B
ia ment
co ver
j ournal
at in
18 6
qu ent
Ġt e
Ġpart s
d epartment
vandal izing
ĠT V
Ġl iving
17 8
ĠB C
at o
m oz
Ġart ist
L ights
la h
f g
u an
' );
b t
Ġp ublic
ser v
P e
ath olic
"> &
Ġop en
ĠR ail
p ose
k j
Ġb o
la v
ĠD i
Ġpro gram
ondisse ment
v ir
Ġle ss
os aur
d s
is bn
Ġre vision
Ð ²
ist ry
E p
A P
Ġ'' '''[[
ition al
id ence
Ġc ond
epart ments
Japan ese
ĠO b
Ġme n
q j
ĠA g
Ġv ideo
A ss
ĠB ay
E t
k n
w s
A ir
re cent
M B
ord ing
Ġ* ''
Ġv ari
v y
Ġconsider ed
Ġs uggest
Ġpr oper
Spa m
S av
ody ne
Ġf ive
BL OCK
ou ble
L aur
Ġto gether
ti e
Ġprob ably
g ian
23 8
k g
Sc ream
ĠCent er
Ġdirect or
Ġn ever
ic ians
B S
ch er
Ġimp rove
19 88
q x
us es
14 9
h m
ĠG reat
20 9
199 1
ak en
2 33
Ġm ag
Ġ** [[
en e
ĠII I
Ġw est
M D
olog ical
Ġcharact er
th od
spa per
ro y
ref erences
B G
t rans
ubl ican
ĠE agle
ed eral
es h
? ?
D an
G A
Ġcomp uter
; ).
ĠF irst
k w
Ġto ok
Bar liner
| (
ĠC om
ĠA ust
ow a
fr ican
ĠM er
Br own
Ġon es
ĠB rit
10 3
ĠC an
Ġeng ine
Ġp op
} ,
ĠS an
J o
Ġpla ces
T e
Ġt w
rib e
}}} &
Ġ199 8
Ġw ent
f s
Ġl ight
ti v
G old
M ark
lab ama
nter tain
str ong
Ġe qu
18 0
Ġpos ition
Ed ward
Ġf riend
Ġfa ith
Ġc lear
Ġs imilar
Ġlarge st
b in
B attle
f c
ce an
ĠJapan ese
d istrict
43 555
A ct
ix ed
T ele
ĠB o
T ur
ov el
al o
Inter national
Ġm aterial
13 0
r l
Ġbook s
FFFF FF
B er
cmd r
ĠP re
S ub
. ,
Ġact ress
St r
Ġpre sident
p y
w ar
z t
ĠV al
ben ef
k l
op tion
2 17
Ġa ble
P op
Ġcl ick
IN G
v g
w g
ĠC anada
Ġun blocked
b ody
13 9
}}}} }}
j e
198 9
en a
24 89
Ġpr op
am pa
ĠAl bum
J eff
Ġs ort
Ġsome times
Rel ated
am er
Ġf ather
ĠP eople
opy right
15 8
establish ments
m n
Ġd elete
ĠW isconsin
U N
ĠF in
ca le
ict ure
ti f
ĠCon f
ĠT er
' d
Ġh arm
j i
! ]]
Pol it
vocal Scream
M ost
Ġgen er
br idge
Ġallow ed
20 3
Ġp ubl
ĠM unicipality
Ã §
Ġre al
ĠP refecture
Ġext ra
ound s
ĠC ap
ĠCh ina
ultip le
Ġc ha
B lack
Ġ established
ĠM iss
ch i
he mat
J ack
ub s
M ax
; ;
ĠA tl
ge nd
change s
Non vocalScream
Ġin t
A L
Ġn orm
ĠB y
artic les
20 8
4 00
cc er
Ġb as
op h
ĠAf rica
ictor ia
56 7
p art
( &
ut es
b et
re c
Ġdis play
A b
l ow
Ġre search
et te
ov iet
Ġshort ly
ĠCl ass
Ġname s
ĠAir port
. --&
ĠHe ad
C anadian
w atch
b g
p et
Ġ 33
ore ki
k t
Ġ1 48
1 12
ia ms
ong o
arn star
Ġ ment
F B
D ef
c v
p d
x q
Ġcont rol
Jul ian
Ġorig inal
j u
}} ]]
art er
in tr
ĠH ockey
Â °
Ġra il
ĠW eb
er o
us ion
Ġwh ite
ĠGen eral
d ow
A S
org an
ot ion
ĠA sh
Aut h
und es
Ġh ours
C an
r id
it z
H oreki
20 4
Ġs on
Ġper for
Ġ199 0
00 66
; );
Ġl at
ep ar
om y
ĠSm ith
ose ph
ecess or
.. .&
S ports
R ichard
ĠW ashington
D on
uck y
cf cfff
ther lands
ĠM ag
comm une
Ġ*/ </
16 8
or ange
A ustralia
Ġfix ed
k v
Ġco ver
2489 20
p c
av en
l u
e al
se ction
Ġst ates
ida e
ad or
Ġmean ing
Ġal ong
ell ing
43 5
Ã ´
is ed
at ul
Ġre pla
ser t
Ġd iv
nounce ments
Ġmar ried
Ġc ities
ĠRe gion
M usic
oin ts
Ġ: )
E C
qu are
18 8
Prop erty
Ġsong s
S m
ci ally
enn is
F rank
ĠS w
Ġocc upation
il i
Ch icago
f i
og n
Ġpa st
u dd
77 00
A v
Che mical
A ust
Ġsimp l
am ni
14 0
198 7
ur ban
198 6
Ġapp rop
J on
Ġth ird
r ich
d on
f ace
Ġeas y
m ult
Ġst ay
Sc ript
Ġset tlement
Wiki Project
Ġspa ce
ic ult
j v
00 2
MainPage BG
Spa in
tr ue
at ino
Ġc la
u ri
D o
E ast
Ġop tion
z x
st ory
ĠP e
b ec
Ġet c
r t
Wiki ped
Ġ ri
r s
16 695
Ġsc ope
Ġc op
T rans
Ġc ertain
ĠCh rist
ĠĠĠĠĠĠĠĠĠĠĠĠ ĠĠĠĠĠĠĠ
ĠW ales
Ġ::: :
M L
Ġdis e
P at
ĠS ignpost
ong ress
5 10
ĠG od
Ġ Que
4 27
Ġcharact ers
S am
c n
ĠTh ree
19 3
f alse
AT E
ak i
t ry
Major ly
Et amni
2 30
E ither
ĠE st
14 5
art ist
17 7
q l
ov a
ĠT winkle
ro ck
b reak
ĠWh at
m x
pe ct
w rit
f rom
c ia
Ġ4 0
ste in
Ġ ident
Ġs elf
19 7
k x
St ar
Ġstat us
me ta
S ort
d ts
Ã ±
ĠW ith
ĠL i
ĠCar olina
z v
out e
gr ay
ymb ol
a it
act s
ĠJ r
19 70
ig an
j x
S weden
Ġtag s
4 30
Ġha ving
le ction
198 2
j o
20 6
An nouncements
C ur
ĠComp any
F D
19 0
198 4
ĠF rom
if t
h ol
N G
Ġ199 7
Ġac tive
end ed
Ġoff ice
Ġorig in
Ġis su
uj i
rem ier
off icial
Ġv ot
14 8
ĠM ad
D J
R es
B ob
] ;
c ategory
ar ies
Ġapprop riate
Ġattack s
ĠG reen
ĠR ock
ĠIt alian
f x
ov ies
w ell
Ġdec ide
h as
4 28
che ster
m v
Ġop er
Ġd eb
k it
ly ing
c rat
8 08
doc ument
r ish
P re
Ã ¢
Ġt ech
oh ns
q d
ĠS quad
Ġw he
ĠD a
c x
A rea
ĠC ast
Ġwith in
ak a
Ġus es
Ġstr ong
Ġl ate
er d
ask et
It alian
17 5
j oy
ife q
of tw
Ġcho ice
at ors
S o
h n
17 0
Ġ199 6
Ġs ix
Central Auth
ĠC ouncil
ĠW restling
ĠH ere
4 29
r v
def ault
b x
yl van
2 27
Ġin stru
n one
re ad
Eur odyne
ab or
is ing
ill y
Ġa v
G reat
ĠT wo
z l
ĠIt s
M il
Ġk ey
109 566
ind a
Ġth ing
Ġalbum s
oftw are
12 8
ond s
D elete
Pri me
Ã ¦
h ouse
road cast
Ġl ived
T b
ĠI llinois
Ġre place
em s
Ġk illed
q y
ĠM useum
or ial
S port
Ġst ory
17 3
Ġ199 5
b v
ip s
Bill z
Ġc ontribut
P urple
16 7
end ing
ret urn
Ġr ound
a cc
| â
( )
di e
ntertain ment
ĠU K
Ġprov ince
User name
Ġspec ific
Ġup d
L os
os ed
g allery
Bill board
Ġwrit ing
ĠF e
Ġtyp es
ĠG old
co lton
ĠV irginia
Ġs cient
tion ary
m ain
ĠPal atino
q w
ti red
ĠPri ze
Ġlook ing
ĠJack son
Ryan Cross
Ġh old
h h
ĠD epartment
ĠSt e
Ch ild
ail ing
st one
Ch rist
post al
ct ic
ĠT ra
SE R
ĠIn c
14 6
im on
ĠM ass
Ġ \
a gue
15 9
ia ble
B o
B BC
V en
or a
c w
ĠC ont
to ad
Ġp e
16 0
ut h
198 3
13 7
c ase
q z
ĠC at
e vent
ict ures
n ic
Ġloc al
st an
el le
f j
Ġs epar
ĠK ent
n es
Ġrel ated
Ġhe ld
à ¥
19 79
Ġtrans l
umb ia
Ġn av
Ġyou ng
ĠG ra
198 5
ĠP at
ro ok
ul f
C y
Ã £
'' '''&
stit ute
ĠS oci
r up
ĠWiki ped
Ġnational ity
}}}| }}&
ĠHel p
ew eb
p ol
lin es
co ordinates
ont o
ot ype
ult s
T ime
ick name
as px
ĠL aw
ĠâĢ ľ
17 4
ia b
ĠB ur
Ġp ur
su ccess
m t
ill er
j an
of ile
ĠM ary
18 4
Ġ}} {{
13 8
ic ine
M ag
JP N
Laur yn
z i
L ouis
ylvan ia
inter est
Ġr ather
im als
a use
M c
Ġgu ide
on ym
or ed
Ġm ind
f v
ail able
ab eth
Ġw omen
D a
| '''&
Ġro le
Ġt rad
h and
Ġp ract
ĠT H
C H
he im
ar ian
vandal ize
ons ense
rib ution
Ġh ouse
k in
s inger
E lement
) ]],
md ash
ĠD uring
iss ue
j y
EhJ J
. }}
ĠM T
d u
ot or
illa ge
C lement
Ġpart y
ĠC al
et ts
Ġar ms
5 29
q r
Ġd i
16 9
ig er
198 1
ow ski
vol ume
cuss ion
h io
;''' [[
s n
nd ar
r oll
ha vi
ain e
ou d
il ia
te ch
ĠP akistan
n ology
Ġp p
Ġto w
ĠD avid
ve st
Ġ= [[
Be en
24 9
Ġ 45
h ors
cit eweb
ĠF ilm
Ġt urn
ĠW illiam
x ford
C iting
Ġst age
ĠV ol
g ium
and id
Ġref erences
Ġpl an
T ext
od d
H er
Ġ199 4
Ġd epartment
2 26
q h
man ager
Ġw ind
Ġpubl ished
R ock
''' :
2 10
rd er
20 5
Wh ite
bb c
b h
C opyright
Ġn ative
p urple
ĠAr ch
ix ing
18 5
Ġd ivision
Ġ river
On MainPage
Been OnMainPage
ĠL ife
Julian colton
e k
Ġright s
Ġc y
Ġh uman
1 19
ĠB oy
ĠA lt
rib ut
pre c
ust om
Ġl o
l iga
l k
ĠFor m
Ä ģ
Ġf ood
asket ball
Ġf ight
th ough
ound ed
Ġdef e
179 88
n z
Ġ''' {{
ĠG roup
ĠBr own
re place
Ġcomp lex
13 6
15 6
Ġp hot
âĢĶ|| âĢĶ||
B irth
ri g
ott ish
; -
Ġplay s
2 25
ish ing
Ġcurrent ly
ĠP et
C olor
Christian Man
800 000
b el
ĠG ames
Ġm at
s r
it ch
f D
2 28
a o
g v
vel opment
à ²
app end
; '
Ġl ik
ĠL ove
Ġoff ic
h ib
24 8
W ik
b ad
Death s
d ale
( );
ost on
I A
t own
c al
Re ception
]]) ,
ac ific
j r
Ġre present
. '''
y ou
Ġg iving
W ashington
ĠCl ub
ach us
Get ting
Ġt otal
19 75
st ra
Ġ establishments
er ry
= '''
enn ert
ĠA ustralian
C leanup
ĠW il
Th omas
Ġc r
c or
Ġact ually
Ġmonth s
intr oduction
el d
k nown
Ġele ction
Ġare as
O ff
as ure
c b
p w
q t
Ġ19 82
amp les
ĠGe orge
ĠL ine
ns ylvania
Ġproduc er
D epartments
p v
ret ary
Ġhig hest
H yd
Sav h
Ġle aving
m r
Ġt our
Ġf un
Ġ ve
f z
h ome
V al
Ã ī
19 76
le vel
ĠIs lands
ok yo
Ġd ies
Ġpri vate
Flag icon
B E
Ù ĩ
pe cially
Ġk m
Tb ennert
M ad
m ir
; .&
re al
Ã£ o
Ġ1 88
Ġw at
Ġn one
g w
Ġa ward
ap prop
ĠS witzerland
Sup er
/ [[
od ay
em ale
ĠD on
ĠR el
Ġe ver
Ġsc ript
19 78
C ity
17 6
Ġimage s
me nd
ĠO k
Ġin vol
arl iament
q n
achus etts
ĠK night
j w
t able
25 9
24 3
ĠI reland
ĠM at
]]'' &
Clement ina
ital ic
ĠH ill
Ġdiff icult
ograph ic
ra el
Ġs y
12 1
ans as
15 3
ĠWh ite
5 33
7700 44
12 7
Ġdise ase
p ref
M S
k z
Ġa ff
Ġ199 2
ĠB en
ĠU p
Ġrequest s
bi ology
b ut
ĠP la
24 0
ĠP ost
Yot cmdr
Ġ range
] )
on ne
ĠD r
ĠA labama
it o
D r
B ig
k u
L ink
j z
b re
16 5
i ology
Ġ parent
g x
ug ia
R o
Ġmod ern
approp riate
un a
11 1
ĠS al
19 68
Ġt aken
b ish
k d
at i
time zone
f w
n els
P lay
p ing
co ord
Ġd est
Ġb it
23 4
M I
nt ario
tain toad
13 3
udi o
Ġm usical
b ury
t re
Ġ199 3
IR C
h old
sp er
W ill
ĠO ut
Ġ rom
ĠD es
Ġde ad
|}}} &
o a
O L
ec ut
Ġfound ed
C alifornia
Ġv andal
CO L
ect or
Ġen joy
al ter
ohns on
j n
ri ll
ĠSt at
Ġparame ters
T om
Ġf alse
Ġav ailable
as ka
ĠM ore
Ġh ost
19 77
i ew
Ġm other
ĠSoci ety
pp er
Ġon ce
ĠChris tian
24 53
Ġbuild ing
16 4
ureau crat
H az
Chemical interest
E D
j ust
**** ****
un it
ĠB G
Ġal though
ok e
20 2
Ġf ig
N umber
19 72
Ñ ĥ
ĠE arth
ĠS ystem
h ing
el ly
Ġk ing
m h
Ġd ia
ĠCent ral
Copyright s
14 4
ca pe
m ond
A ssociation
ĠM en
Ġv and
Ste ven
n at
oduc er
Ġt able
m as
H enry
ĠRe g
ol ar
yn ast
S J
m onth
Ġtag ged
o box
ri p
Ġ Q
I ST
ĠH am
Ġinclud ed
riter ia
F L
ĠLight ning
ic ation
Ġin fl
ĠM o
l b
B as
Ġc all
Ġm ilitary
. )
E V
yl bec
r ay
cho ols
on ment
T or
18 539
Ġĉĉĉĉ ĉ
Ġdesc rib
ian g
atul ous
ylbec atulous
18 7
may or
Ġob ject
gy pt
av es
Ø ¯
ĠT ur
f lo
ĠA dd
ĠSer ies
e h
Sec ond
f h
Ġ eff
Ġcome s
ĠV er
u i
ac hed
19 74
v v
F l
Ġp ort
Ġse at
23 9
ĠC a
Ġissu es
5 48
la ge
Ġto day
S ome
4 49
Ġ19 80
atter n
in cess
N at
Ġ 43
Ġin appropriate
dark green
p ublic
Ġru les
ĠM a
Ã¼ r
ĠCh art
5 03
M artin
ĠA rea
ĠFran cis
ex ist
W ar
m z
it or
d ec
ĠAg ain
undes liga
ĠW ikidata
is odes
c itation
Ġw restling
St art
Ġblock s
15 4
ĠS aint
Ġw atch
D el
ĠS u
Purple back
ĠForm ula
Ġh urricane
Ġh istor
ic ed
our se
ab out
it age
w an
ĠR ob
Ġ z
ist ub
av a
D ru
Ġblock ing
Ġd ouble
Ã ¸
Ġp hys
ĠP lay
ĠSt reet
3 54
c tive
g d
ĠT our
P ope
Ġfe ature
F ylbecatulous
ĠM ark
4 33
Ġtra ck
Europe an
Ch inese
am in
j d
m box
ĠAr tic
se ason
iction ary
ec tive
W ind
ard en
de ad
ve y
he m
u ge
r h
Ġes pecially
% ;&
Ġc re
Ġmet al
Å Ł
St ate
s ummary
t ra
O W
23 6
j l
A D
Ġ ...
z ech
4 26
ur o
it ive
Ġg reen
18 37
Ġ 48
Ġstand ard
ver age
em i
c q
la w
ell i
14 3
j h
Ġcomp et
Ġd a
) .&
eal and
Ġlong er
mult istub
la ze
ĠA lex
19 73
ĠH ot
Ind ia
Ġ* &
Ġend ed
Ġal most
Ġk ill
14 2
ele na
led ge
( [[
ct s
S witzerland
ĠAsh by
ambig uation
Ġun block
ssoci ated
5 45
17 1
sh ow
gl ish
Ġb ans
Ġser vice
com ing
ĠS pe
NN N
Ġret rieved
arr ia
Ġb lue
Ġre asons
Ã «
B l
P P
D emocratic
Ġst ar
S n
us ing
v ices
S ign
Ġsub page
archive url
Ã º
Reg ions
Ġparame ter
gen cy
5 47
la p
}} '''
Ġp red
Ġpr ofessional
ĠPort al
G rand
Ã Ł
D en
R T
th ur
L ugia
Ġm iss
15 2
Ġin cre
M or
S wedish
19 69
H i
rit ic
ent ion
v ideo
ĠZ ealand
o lt
se quent
ĠW omen
Ġclos ed
Ġwiki pedia
Ġcomp oser
g le
ĠS am
Ġm odel
Ġse ven
ust ry
L ocation
Ġf ire
k q
Med al
P akistan
ĠD an
lo go
che ck
Ġm iddle
ĠO rigin
ch ild
Con vert
m ont
ch an
at ory
or ough
M a
R em
S ee
ived ate
==== ====
H uji
our ces
]] !
Ġtest ing
sc ope
app y
ĠS ea
j t
Ã ª
rit ory
ag ery
22 22
A tt
ĠT e
Ġ19 70
Ġ199 1
5 49
23 7
Ġchan nels
Ġim medi
S ing
for ce
Redirect ing
) ]]</
istric ts
ron ic
p ushpin
u o
ĠD el
R oyal
5 28
ĠL ast
ec ause
CS D
M o
29 48
25 4
Ġj ob
S ur
C a
ĠD irect
ĠB ug
u ild
press ion
Ġre lease
2 19
Ġser ved
Ġquick ly
b z
24 6
g ress
Ġinclud es
S pe
Ġhow ever
f er
ad el
Block s
Ġ uns
P ers
T ra
lah oma
ov al
Ġco ordinates
Ġnomin ated
ign ed
Ġpolit ical
Ġ# #
Ġm ultiple
vir onment
ni h
C ont
Ġmost ly
A J
Ġknow ing
Ġy et
Ġa ction
Ġstud y
ĠO f
ar ly
Ġrece ived
? &
Ġis n
p q
commons cat
v x
N D
c g
}} ;
I V
Ġun it
full name
D oc
16 3
Ġg ave
; }}}
ĠInd ian
N av
ĠB as
ord o
sign up
f q
; ]])&
ud a
ĠP opulation
g ar
ĠRet rieved
| -
P al
la ps
op en
st al
13 5
19 60
10 2
25 3
h ood
st ant
ĠH i
; }}&
v acy
Ġs it
ĠE ven
or ter
15 5
he ader
c anton
Ġ elevation
S u
COL OR
ĠS ong
ĠC ensus
= '
ĠC ourt
4 99
s i
Ġ| ''[[
Ġ19 89
Purpleback pack
Ġin v
ĠSt ation
gent ina
ou ch
Ġf re
Ġc ri
ir cu
Ġb reak
L o
ĠSpa in
ĠBG COLOR
an ley
S yn
ĠR em
ĠM ap
un ny
Ġm ass
Ġd ri
J an
ĠE ntertainment
| }}
. %
E mail
agery ears
ch art
13 4
ĠA cademy
pre d
G ood
tle ments
Ġ 47
An ge
Ġvi ol
add ed
ĠF l
Ġexplain ing
ash i
S a
ian o
at ab
S y
t ag
Ġe v
: '''
ir t
/ ?
s ource
ain ed
Ġn or
Ġbr other
p z
Ġte ach
MB laze
56 8
T E
u er
Ġex pl
s ing
Ar t
## ##
l v
E lect
Arch er
ynast y
Ġca use
Ġrail way
b log
ĠM artin
ĠE p
H am
56 9
Ġsh own
Ġteam s
Ġ 46
ent al
Ġnumber s
ĠKore a
iab ility
P en
Ġd er
Ġd am
Ġl im
Cl ub
c ore
edit er
j g
l ier
4 46
t elevision
le g
E mperor
gu itar
ilt on
met ro
5 46
Ġ Quick
Ġexperi ments
ik a
Ġy es
ab y
aa a
Ġca used
ĠC atholic
Ġra in
ich igan
ĠI owa
ĠP h
am bridge
Ġw ww
Ġ est
Ġfor med
s ad
ĠSt ar
2 18
ew is
aught er
m k
ĠT or
ag an
h ony
Ġs ing
A E
ĠL os
stat us
5 27
Ġbe havi
br own
Ġpa int
l it
FC FFF
p ers
c ell
Cur taintoad
ĠF rank
o ped
ist o
and ra
se ed
C or
arr ondissement
Ġgu itar
stit ut
try ing
in et
U t
ĠIt aly
Ġcomm une
C ast
M unicipalities
Ġ 57
Ġevery thing
| #
he ast
end o
Rep ublican
Ġment ion
j q
R h
) /
19 71
ĠH ol
Ã© n
ie go
O lymp
S et
ĠC ivil
Ġro ad
S al
Ġref erence
T itle
19 67
D P
Ser ie
re tt
ur g
Ġre vert
sort name
2 29
Ġl i
Ġin fo
= ''
Ġbecome s
imat ed
C ount
R ub
ĠS wedish
ure d
iz abeth
n x
Haz ard
24 7
n ative
il a
A pp
Ġseem s
ĠAs ia
ig ital
Ġd ensity
M el
ĠM us
| [
ru g
ĠE m
Ġis land
J ust
ex perimenting
23 1
2948 63
Ġhelp s
( [
Ġm oney
33 6
Ġâ ĨĴ
g overnment
di es
9 78
y t
lt o
k es
ad i
Ġcan cer
Ġpre served
w x
Ġnot ified
Ġ 49
;[ {{
b ase
Ġw ish
ris on
6 20
ob j
ib urn
hu i
Ġam ount
m ai
6 00
Ġop in
Ass ume
h al
est ival
F re
P opulation
lo v
19 2
ĠSt and
G ot
5 26
ĠW ind
qu ery
Act ors
ĠWill iams
l c
s d
os c
d fff
Ġtop ics
Ġ ill
Ġd u
T yp
ew ish
Ļ ¥
A t
ĠS pr
Ð° Ð
R a
it em
sy ch
Ġs ex
ot to
ĠCh inese
u q
arria ge
C la
à ¯
t arget
Ġd et
ĠC ountry
ĠL o
ĠL ist
ĠKent ucky
l ies
dfff df
Ġimmedi ately
F air
4 25
ĠJ ones
38 0
B ra
]] |[[
L u
Ġs w
Ġ2 50
O ne
od ern
u ed
itt ee
g f
ĠIn formation
az z
ĠS ince
J ean
S AND
Pro vince
h x
Ġqu ite
Cal iburn
M iss
ĠBr idge
}}}| {{{
Ġsimp ly
]] '''&
Ġan imals
17 2
aut o
Ġen ergy
3 11
el a
O k
S pr
Ġn etwork
I K
par ams
ag ed
j f
ĠT ech
ĠBrit ain
l x
ree ce
H urricane
re es
ĠM il
Ġh alf
Ġm ax
S at
ac he
West ern
ref erence
ig on
c ard
at ives
S asso
et ro
ren ce
vin ces
n avy
A lp
|}}} |&
| {{#
ale ndar
Ġadmin ship
w v
k ins
ES P
ĠB ecause
Ġcon stru
Y ear
Ġm o
ĠF r
ĠN ight
m q
ĠM al
]]- [[
g z
in gen
R ick
osop her
b q
in er
am i
M ailing
Ġra ce
Ġmed al
o sp
ĠT op
ar dian
inn er
Ġr oll
pe ople
d ia
r x
at re
Ġp ie
c p
Ġc amp
uc lear
D ate
M A
86 30
sha dow
ol i
Ġp ress
Ep isode
ĠD ef
Ġfr ont
ens ive
Ġf ile
Ġmay or
R O
18 2
ĠSp anish
es us
55 9
re quest
dis p
ed er
Ġc ounty
O f
L ea
Ġl ost
13 1
Ġ: &
E r
K ennedy
ĠL and
mag azine
ec ti
ce ed
4 47
22 2
Ġ: *
ut s
ay a
19 64
g ra
y y
Ġre lat
m u
man ce
ĠC reating
m ad
Ġ Â
Ġin tr
Ġpartic ular
Ġmin or
epend ence
Ġ ,
j k
ap t
c gi
Ġp oints
Ġme ant
ĠAtl antic
]] ]]
ĠA rab
ĠR obert
pop up
H ouse
ĠI D
Ġw ife
ist a
ĠRuss ian
2 15
4 48
ĠM exico
or f
ad ing
un ch
p ink
or se
38 7
ok o
J ian
R R
hamp ion
M ary
ĠO ver
ur der
ew s
Ġs cience
h ind
P TA
or i
n v
al ia
Ġt ill
or es
ay lor
Artic le
âĢ¢ }}
S he
f air
ĠA pp
Ġle d
Ġper fect
Ġref er
Book man
ĠC ongress
inn es
g ame
b ra
p ter
Artic les
SE E
B ans
ob ile
]], &
ĠW ork
Ġear lier
ig ious
j av
S A
Ġ8 0
Ġwhe ther
if iability
H ung
Ã¡ n
col umn
ĠL ake
Ġag ed
if ky
Å «
16 2
h d
ĠG ar
ĠIn stitute
ĠL ee
ĠTh omas
l on
national team
Edit or
Ġrepla ced
s f
pa ct
Ch ina
AAAA AAAA
n av
Ġt akes
ĠD E
ang er
ĠSup er
ircu it
aut hors
on ic
Un ion
ĠD uke
Ġd ep
Ġ19 86
ĠP arliament
enn es
il er
ĠP ublic
bur gh
sp eople
ĠRo ad
ĠA cc
Ġe ast
os ition
19 66
ĠWest ern
m ary
ann ed
3 06
F I
Ġa go
TA SER
atab ase
tiv ity
}} {{
web kit
ĠVal ley
manager clubs
TASER ING
sec ond
ĠG ame
int endo
ĠComm ons
25 5
Ä ĥ
Ġthe ory
italic title
Ġfin al
ĠRuss ia
Ġ( [
ĠI N
u ct
view s
ĠConf erence
Ġv oice
ĠG reek
Jian hui
o cc
15 1
p el
ow l
h v
Ġtow ns
K en
]] }}&
ĠA frican
ame nt
Ġdef ault
Page s
oc ol
808 080
}}} ]]}}.
os a
Ä ĩ
ut en
m istry
il s
F E
r b
ĠR ichard
I TA
Ġ[ {{{
N Y
f am
national years
man ageryears
à µ
ĠC anadian
m unicipality
Ġresult s
ys op
p f
z d
j m
Ġe conom
ha w
ro ken
rem ove
ph ys
innes ota
K ore
Ġ19 60
dd igon
p han
ĠW ay
Al an
f in
G ar
Ind ian
Ø§ ÙĦ
+ +
c ur
as y
88 4
W rit
un block
Ġam ong
Thank s
age s
if exist
H igh
A lt
Ġcontin ues
Ġ19 87
sad owski
Ġpl ant
Ä ±
. --[[
man n
ĠC ross
p up
ale nt
S P
div id
K at
Ġc riteria
w orth
youth clubs
1837 41
idd en
Ġmed ia
Ġn onsense
ĠPar is
Ġcla im
z n
âĢ ł
Bel inda
55 7
ĠL ocation
( ?
r or
b ai
Ġvand alis
Dru ddigon
ĠB ru
club number
O pen
do i
Ġ9 0
rat ing
Ġ ]]</
ĠG A
ĠChe ers
B i
ĠYou ng
ia c
ĠR oyal
ird s
ĠHead ed
g q
E le
current club
l ot
ad ata
ĠJ ohnson
Ver ifiability
' ;
rel ated
au x
ud ge
ĠS ol
ep hen
LLLLLLLL LLLLLLLL
Â ²
Chan ge
Ð¾ Ð
Ġb ureaucrat
55 8
Ġn um
ĠS ur
Ġwho le
M P
L in
iter ature
Ġh um
enn a
K e
ĠO s
Russ ian
ow ers
D ivision
Ġevent s
Ġcop ied
youth years
Ġvari ous
5 43
S PA
3 26
ro g
Ġpla ced
Ġ ?
d el
lat m
2 14
S onia
Ġshould n
long m
ny times
ĠO cean
Ġv on
gr rr
Ġtra in
m c
rag on
Ġgo es
O ld
Ġdiscuss ions
mai lto
Ġsp ouse
t rack
ĠComm unity
3 45
Russ ia
d eleted
s x
Ġvol ume
rest ler
Ġmove ment
v iv
ĠT own
Ġrecent ly
Â· '''
Ġ ver
4 07
ĠB ern
er ial
Al b
t x
V ector
Ġnotice board
an za
r am
st ic
ĠOlymp ic
Ġ 59
Ġ3 2
n on
Ġ| '''
ĠSh ow
Ġp ushpin
n ie
ĠO pen
Ġcon nect
Brown e
49 7
Ġ3 5
Ġplay ing
Ġhe l
ak u
ark s
ount ains
player name
b ull
olly wood
an ies
F red
M exico
ff ic
Ġp at
c ul
p k
is ion
Class ical
b k
Ġhapp en
Rob ot
z en
C ome
eg as
Ġfor ce
T otal
z k
B est
Ġs ound
ĠL ink
success or
hed ral
55 6
R en
Ġget ting
48 8
i ally
I MD
ĠD ou
) )
an ti
Ġedit ion
f ir
ĠH aw
ĠH enry
ĠF lag
loc al
ha ps
Ġan sw
pred ecessor
''' ]
M id
E astern
in son
Ġ 44
P h
Ġv an
âĢ İ
Ġ3 6
andid ate
it an
ut y
ĠM el
27 7
Ġcont ain
N ifky
Ġpost al
;| {{
GE R
( \
Ġl ove
th ology
Ġ''' Â·'''
Ġclub s
48 9
n k
Steven J
C AN
d v
48 6
Ġspe ak
Ġwat ched
D es
M ent
Ġc it
y er
wd t
N et
ĠO hio
i Ã³n
map size
L i
Ġdis cover
ĠU nder
B sadowski
N orm
b ul
H u
O V
5 06
ab s
ĠSub sequent
an cy
d one
Ġc ases
flo at
ach ine
lat NS
ĠPr ince
14 1
19 50
ist ration
ier re
ĠC la
Ġnot ability
long EW
m or
olog ist
asc ript
à §
Ġsuccess ful
6969 69
ap ore
n r
ra it
Ġ6 0
y x
irc raft
ĠPen nsylvania
sh ort
ĠDo ing
s html
S k
''' )
m al
b at
ĠRe volution
SE PTA
ur ity
G ra
19 65
Ġc er
ang ar
Ġspe edy
Ġdec ided
Ġp icture
II I
orpor ated
B ut
Ġ rank
4 01
ok a
new spaper
ell er
ĠN ations
ĠS k
DJ Sasso
Ġw in
16 1
Ã ł
Ġ19 84
Ġep isode
D utch
Ġh it
ĠN etwork
48 7
i q
Ġn ull
= {{#
Sort name
ir k
ĠC opy
Ġpract ice
pro ject
''' |
ĠJ o
ph ia
ĠOff ice
reg on
ac o
os hi
Ar r
w l
25 7
h ost
Ġru le
L aw
Ty grrr
l ife
w ick
4 45
Ġrel igion
ist ers
ww e
St ub
}} );
ĠSer vice
Ġan noun
off ice
y g
ant ons
T winkle
T en
T ax
od s
sky line
arch ivedate
; âĢĵ
Ġlist ed
ĠEd iting
Ġsimp ler
zer bai
vent ion
19 45
ampa ign
ĠM ic
ry stal
ile y
ran ch
pos ed
ke ep
admin istrat
ro ch
Ġit self
Ġn atural
ĠN avy
go als
ele br
Ġ} ,
00 6
ĠG i
ic ht
age ment
M ike
;'' [[
ĠA bout
on om
'''[[ :
19 58
ĠI nt
ĠV ictoria
M ass
bour ne
Ġsent ence
j b
con fig
24 4
ag a
2 23
c ons
ĠMass achusetts
lat s
Ġinterest ed
J oseph
Ġter ms
ĠAlbum s
se mb
Ġcont act
Ge ography
t z
R os
ĠT rans
ĠH onor
vil lage
ult ural
30 9
Ġproduc ed
c lear
s z
er ia
ĠCh arles
Ne therlands
Max im
Ġbo ard
ĠS at
vel y
ig ation
Ġcon c
benef its
ĠP remier
s g
ĠMed ia
ĠN ow
Ġcopy right
Ġhim self
ĠDis ney
C r
ĠV en
Ġin divid
30 5
h p
Arch iving
al len
ig ns
o i
Å ¡
Ġ( ''[[
43 6
c raft
A C
Ġ ]]
ee ks
Ġt reat
Ġa wards
Ste ve
M ap
f red
an ch
Ġde al
el ves
ser ies
43 7
j ab
as ia
H a
49 6
ĠL u
ord an
enwp based
on se
c hen
f u
ĠG overnment
Ġge ts
L iber
adel phia
Ġs ense
e u
Ġpolit icians
V ol
Ġ 58
ĠB ig
ĠL iga
Ġch urch
Ġstud ents
Ġp ref
ten ance
Ġ19 85
Ġa verage
Ġrom an
Ø ª
ĠM ig
J un
Ġ ~
f k
ĠS ant
B ur
Dan iel
19 56
53 8
Ġ3 4
od a
im db
ĠH ome
ef ef
Ġpur pose
p erson
Ġ' &
T im
19 63
L es
res ult
Ġpr ot
r z
un n
Ġun its
S R
ĠB arnstar
Ġ7 0
vent s
om er
Ġprom ot
Ġfor ces
ct a
ele ction
jav ascript
ed eration
IMD b
is ch
id ing
Ġ: {{
Ġ3 7
Ġresp ect
fl at
Ġ ice
Par is
nih ongo
Ġal ias
Ġ3 9
ĠWh ile
r ing
col n
Ġdevel opment
ĠSc otland
ond er
Ġb i
Ġv illage
w il
Ġ 88
g raph
r k
Ġ19 76
49 8
Ġp h
stit uen
h w
Ġs port
// //
nam ing
option al
op her
ut her
ĠA ctor
Ġgo als
as a
F in
|| {{
Bel gium
football er
and o
ard o
ub a
18 1
ro at
in ation
ug al
O l
Ange la
36 6
s b
ar g
ab les
ĠS cience
ct ures
Ġaut o
T ag
Ġloc ated
T eam
Ñ ĩ
me ssage
Ġ19 81
: ''
f unction
4 23
cel ona
ĠD emocratic
go al
olit an
h z
; $
g art
Ï Ģ
G reek
ateg or
orpor ation
b its
ord ers
ang lad
ru mp
A ng
in fobox
le ted
ĠW ood
19 59
ĠP an
AJ ona
B oston
Ġf iction
g rey
m j
Ġ19 75
Ġ3 8
ĠFor ce
Ġal t
Ġent ire
( /
Ġwrit ers
Ġth anks
Ġatt emp
ĠB al
ertain ment
en cy
Ġb us
Ex perimenting
Ġ 56
ĠB razil
pre sident
ĠThe ir
Ġst ub
is a
S ant
V AND
Ġnew est
l n
uk i
W arning
Ġany one
b ass
Ġs aw
t ur
h ard
etro it
ĠP o
ĠB ill
Ġme thod
Hyd riz
wik Ed
ĠJ ul
45 9
om s
Pr ince
ĠUS A
rou ght
c ounty
ĠB lue
ev in
00 8
Ġc ontributions
25 6
Ġt ri
;''' &
cap ital
ĠEd ward
os Ã©
53 7
Ġs oftware
Ġin side
ist ic
re z
Ġ19 50
Ï Ħ
V D
An cient
q g
Ġpr in
B F
ĠI V
24 2
ĠOn ce
ĠSt adium
ro ke
Ġd aughter
W eb
k er
24 5
Ġser if
iver se
S ir
Ġs ports
Ġ19 79
Ġcent ral
Ġh op
47 7
ĠLi brary
: (
19 62
S oviet
Ġa ircraft
S C
ĠSec retary
ite cture
Ġsup er
C amp
ĠS ing
Ġre naming
Ġco ast
N ick
ĠE nd
Ġnot hing
T op
Ġe ight
Ġcount ies
19 61
19 30
b es
c ensus
Ġc lock
ers hip
25 2
Ġapp ro
Ġep isodes
ĠI d
Ġar gu
Ġlink ed
24 1
s j
ir ls
ĠCh ile
Ġdevel oped
]]''' .
ti vis
G overnor
4 06
k ing
T ropical
F orm
Ġc ulture
An imal
ot te
ĠR h
ĠO xford
gl as
ĠSt udi
Ġexp and
re sp
N a
Ġc ivil
ÃŃ a
F lorida
Ġt en
00 7
Ġle g
Pe er
v ad
le nt
Ġm s
22 1
Ġb usiness
l arge
5 04
Ġh ot
25 1
ar o
ĠWh o
oc als
im b
G R
ĠC y
yd ney
Ġjoin ed
me ter
h q
n p
N obel
P as
Ġ19 83
B ru
ecut ive
c ss
f ree
00 3
re lease
long s
ar ily
O P
Ġw arn
Ġreg ular
w z
st ron
Pro vinces
As ia
Ġd raft
Ġgen us
mper ial
46 7
our age
ib ility
ify ing
rel igion
c ano
Atl antic
43 9
U s
Ġsay ing
Sc otland
str ing
ens ion
Nor thern
Typ o
n oc
st or
U T
ĠD ec
M TA
m id
F s
Ġs old
ĠS un
ĠGe orgia
i u
ra ine
ir it
enn y
R C
angar oo
ĠJ un
l ate
ul ly
Ġc ur
ĠFrancis co
3 59
b c
Ġ: '''[[:
19 1
27 9
ĠN ext
ĠThe n
Ġm outh
ĠC olor
Ar ctic
ĠSen ate
co a
B al
P et
le ep
R ace
T er
Ġadd ition
Ġout side
Ġt ried
L ittle
Ġ19 74
D ec
46 9
ĠT elevision
N HL
spa m
8 68
iv ely
Ġdest roy
ĠRec ord
Ġc ourse
ĠĠĠ Ċ
Ġe veryone
.. ..
) ''
ĠW inter
g us
S I
ĠPri me
w t
C UR
J er
Ġf oc
ĠF re
Ġp en
ĠO l
ĠDe ath
Ġcomm unes
W atch
ĠH istor
Ġnorm al
m oved
Ġen c
ĠB iography
Ġhe ader
8 235
v d
Ġlog o
ĠAn n
- [[
b us
Ar my
Ġdefe ated
q k
ĠD en
Ġm atter
ĠG overnor
Ġme asure
w are
Sn ake
ĠR ac
03 9
ick s
2 99
d em
\ }
me l
Ġf ail
ĠB ra
Ġg old
v ard
ha bit
UR L
ĠT om
Ġgr ound
Ġoption s
Got anda
R D
ĠChampionship s
Ø ¨
Ġallow s
Alex ander
Ġrec ogn
lat d
) ]]&
Ġd en
on i
F e
ĠI mg
CUR RE
ĠB a
long d
Set tlements
ĠM em
Ġn ecess
g j
r m
rop olitan
G i
IS O
u ate
st un
D B
ĠB undesliga
ĠSt orm
u u
r p
Ġear th
) ]
Å Ĥ
Ġn ight
ĠR ele
Ġcon cer
A F
}}} ]]&
he nd
Ġnot iced
Ġst orm
Pmlin editer
ĠInter net
us c
B ern
Ġse arch
Aust ria
Ġ à¤
4 04
ur ns
ys is
ill ars
iss ip
S en
Ġ vers
ĠSt art
Ġmin utes
ĠC ount
Ã© e
Ġsc reen
Ġcont ains
P o
Ġop ened
la in
YY N
R fD
ĠBr other
Ġatt ention
author ity
Ġdirect ly
with out
em an
Ġmusic ians
Ġs l
33 0
ĠF I
ri er
Ġ9 78
the w
C ras
e o
un ning
est s
M ovies
Ġp ump
ic ut
23 2
pre ci
ĠBook s
26 0
ĠSec ond
43 8
Ġmusic ian
s cience
ok en
arge ts
Ġthe ms
4 56
f p
et a
Ġparent s
Ġse a
ent e
Ġar my
Ġ 54
des cription
L T
En wp
v ia
Ġfootball ers
/ ~
Ġc irc
Ġr adio
iet nam
se a
on line
st ance
ĠQue en
iz z
Ġ[[ {{{
e lt
o ise
yst er
ĠHer itage
Ġl ives
Ġso ck
Ġun fair
ot ter
ĠC amp
ad s
R I
emp or
ĠK ennedy
Gold en
53 6
19 57
x v
H ak
el la
rib ute
Ġsol di
pa ss
S ar
E st
Ë Ī
Ġl ines
Cras stun
26 6
ĠNor thern
Ġlik ely
S ummary
Ġhe art
am il
Ġex act
Ġman ager
AT H
19 55
L atin
ĠMed al
Ġs outhern
ĠT re
00 33
Ġthems elves
Ġl ower
ĠC urrent
m aking
Ġask ed
cip itation
b ed
o id
47 9
at han
ĠP ictures
Ġopin ion
D onald
R et
ist ance
ar ger
ss on
Ġw oman
S imon
U C
19 54
á »
C zech
th let
ah o
w ide
Ġin c
ĠC are
in y
one page
ĠP hys
Ã¨ s
Ġc ustom
ĠW ars
ĠRe present
o ch
S M
Ã© rie
(? :
ĠV an
19 48
W il
h k
É Ļ
Ġp hil
stituen cy
Ġca uses
n j
l as
n w
anglad esh
LA CE
Ġv s
45 7
u le
ex ican
19 28
Ġto ld
ĠZ one
Ġconf ir
en ne
so ccer
t b
ri ef
Ġ5 00
Ġfield s
fra id
Ġsmall er
or ation
Ġup date
f m
Ġa fraid
Ġw eeks
4 08
Ġl ay
benef it
ĠC r
Ġc reat
Rep ublic
ind er
q p
b ach
v l
ab our
ĠM ess
ĠM ain
o es
D ou
S U
Ġ3 00
Ġtemp er
Ã¨ re
te ams
5 18
ne utral
ĠA re
ib a
5 30
um s
Ġcomp let
Ġb in
az i
46 6
v k
Ġnot es
Ġgen re
ble m
g k
sper anza
um i
wik is
;]] '''''
O rigin
ĠT itle
00 99
ĠE mperor
nect icut
os is
og s
ĠS a
P ok
Ġc alendar
Ġb attle
Ġe at
y ellow
semb ly
Ø ³
Ġf emale
47 6
ĠCh ild
Ġstudi ed
2 11
ĠH appy
ĠMiss ouri
g m
25 8
Ġ19 72
l an
M C
S ol
ĠC orn
f ound
R L
ĠH a
ĠOn line
ot ing
Ġb ands
Ġcome dy
DD DD
Ġ19 77
Ġappe ared
ĠS y
4 09
|}}}| ,
Ġc ast
df df
Ġf ac
k ansas
lat in
aw ards
S l
polit ician
r w
n c
ĠM ichigan
d l
T exas
19 46
S chool
\ &
And rew
ick er
â Ī
P an
ĠY ears
L uc
ĠMc C
ĠComm ittee
213 3
Ġ19 69
iz en
\ {
Ġm m
osc ow
Ġw ays
ĠBe ach
= ]]
f all
un jab
H T
Ġrequ ire
sc ript
in osaur
Ġf lo
sm an
T ri
Gr unny
Ġle ague
Ġpr ison
q f
we et
eral d
it ts
Ġn ovel
writ ing
Ġne igh
h ough
Ġbel ong
8 16
ĠA D
Ġtra vel
Rub bish
Ġhel ped
om ing
ĠA tt
hemat ics
5 13
ĠAust ria
'' }}
19 40
ĠS oviet
vis iÃ³n
27 6
ann ing
ĠW all
wr ite
Ġed ucation
ĠH ard
Ġdevel op
IR TH
ĠJ ournal
Ġde g
ar us
cap s
serv ative
T here
ĠR ome
I O
Ġ 53
19 44
c all
g c
guitar ist
ĠM ajor
ic ator
N ode
W ater
Ġ err
19 52
p at
Ġ[ //
Ġinter national
b ell
w ise
33 7
pl it
| *
Sc ottish
cta MTA
Ġtop ic
Ġnorm ally
e ign
pr otect
K im
4 05
d z
Ġ elected
Ġstru cture
Ġfollow ed
m outh
Ġp ers
ĠT im
or ig
ul ation
L ake
Ġsepar ate
v z
em ic
57 38
h ic
Ð¾ Ð²
ĠN A
Comp uter
ĠAct ress
ri el
d k
b p
ĠB IRTH
Ġ19 78
B oy
Û Į
Ġ19 71
ros oft
q e
go e
ale n
Ġb lood
ĠL abel
Ġap preci
act ress
Ġpl ants
f ix
er ick
Y es
Ġt ree
w k
Ġsign ature
5 15
ak ota
Ġb en
Ġd rop
ad es
Ġeas ier
est er
Ġmain ly
| âĢĶ
Ġs ymbol
ing u
K y
ar ing
age n
7 00
ol is
oh olic
document ation
Ġind ependent
ĠT ri
26 8
Ġask ing
R om
ivers al
SEPTA ctaMTA
al so
Ġe vil
oduc ed
n u
iv a
qu ake
min al
wh ich
lim it
88 0
v t
For mer
3 28
n itude
il ms
Ġcol our
se al
Ġperfor med
is k
C anton
]]|| {{
> +
H y
O rder
S S
Ġshow ing
member s
ĠDE ATH
d Ã©
ĠAmerican s
bo y
19 39
O ut
e er
Ã¦ ts
ri earch
ĠE gypt
riearch dale
x z
n ickname
B a
Ġcomp lete
og rap
ĠF our
Ġpre t
Dis cussion
zerbai jan
cont in
Ġreg ard
lap se
19 29
47 8
l ass
ia h
k ish
I C
Ġ19 68
ĠC ome
arr ing
Con fig
N intendo
Ġb oy
Ġser ious
ĠT oday
]]{{ Â·
as ion
Ġst ars
ĠArt ist
r c
or al
ĠA b
Ġso cial
Ġis bn
d t
Ã© s
ern al
D ave
Ġ6 4
Ġcon fl
Doc ument
16 05
19 36
at ar
Ġpo et
U E
ofess or
Ġbr ing
f oot
ĠL et
gu ay
O M
P ost
Ġc odes
ĠK ong
k ennedy
ar p
w anted
ĠCo ast
ac hes
Ġme m
Ġstudi o
Ñ ĭ
c us
Ġit em
ĠJ an
Ġsystem s
b m
reed om
19 49
Ġ er
roch ip
Ġc ou
19 47
v s
ser vation
I rish
ĠB ad
Har ry
Que en
ĠAut omatically
Ar gentina
L and
R iver
Ġ19 73
Ġ| âĢĵ
ĠRes earch
Ġ| ''
en c
O ct
19 53
ce p
}} ''',
ĠD ata
our ced
are n
wh at
is es
ĠU s
w ich
Ñ ı
ĠBe fore
r g
ch t
Ġch art
R ay
E arth
Ġst ep
ĠF ame
ci o
ĠAir lines
em on
append Child
Ġlist ing
Ġcol umn
ĠLin otype
ir man
Ġ19 67
ĠO ntario
ĠK e
ĠStand ard
ef t
r ik
arn er
Ġvot es
ul g
al ysis
F RA
ph il
Ġan ti
ĠL ong
cl usion
lo y
ĠEn cyclopedia
ennes see
c ut
ir s
Ä į
Bel gian
Ġwinn ers
mat er
init ely
or ing
ĠCon stitution
var o
Car riearchdale
v h
Ġpre cipitation
00 9
Tax obox
Ġ ran
q i
te en
55 0
m ove
or er
ĠBel ow
36 0
M u
Ġc ut
ur ation
ĠP art
co very
f ant
ol as
|â ľ
ĠH u
Ġ# &
Ġt aking
S ym
ĠS ax
Ġstru ctures
3 57
ha il
ĠR od
à¤ ¾
h igh
M en
Ġs af
ĠJ im
Ġgr ay
m ic
vi ation
gu y
Ġbuild ings
ĠF ixing
name s
ĠS pecial
Ġwe ight
ugu ese
in ition
A f
Ġb rought
Ġan n
Ġnor thern
on io
mp h
G ame
ar row
Ġc ost
pl ate
J ac
s ans
Ġcre ation
re tired
air s
K S
prec ated
ĠOk lahoma
ĠCol umbia
ie uten
und red
ĠC ambridge
ĠM ovie
ĠWeb site
K ent
N ov
pack et
Ġle tt
26 9
x ls
ur d
19 34
I ran
ĠĠĠĠĠĠĠĠ ĠĠĠĠĠĠĠĠĠĠĠĠ
osop hy
E speranza
Ġstart ing
L eg
ĠE ng
Ġaff ect
Ġre pe
Ġrem ain
riz ona
M ount
all as
}}} ]]|
27 0
T argets
ĠW ild
Ġc ourt
eb ec
Ġat h
, ''
il ities
n m
t ele
ro om
d eb
ĠN umber
7 68
gu es
4 03
oc a
Ġpa y
Ġfriend s
ĠWil son
46 8
ĠR ay
Ġcol lege
Jo han
ch arts
Ġad vert
ru it
omat ic
ĠM r
r ated
G AB
P ending
Cap ital
x l
ve t
t emplate
Ġf av
ĠW eek
28 0
Ġedit ed
]] ==
L ogin
ĠRep ort
T elevision
Ġfig ure
c la
Ġre ached
Ġ19 64
ut ers
A g
ĠT w
Ġdivision s
pa city
lo be
ort ant
Ġcons ensus
Th ird
Ñ Į
e ment
p oint
au g
]] /[[
Ġsh oot
Ġrel ation
Str ing
Ġinvol ved
t ab
Ġb all
Wikiped ian
d ing
Ġinstru ment
ĠW WE
C M
reate st
V E
Ġco ach
A cademy
ĠF amily
28 8
M iddle
Syn ergy
f ish
f act
Ġsh ip
S un
Ġeas ily
music ian
Sh ow
ĠSc ott
5 24
ri l
Mic rochip
h j
sc ribe
ĠL en
lov ak
ur len
c red
in ct
F ederal
Ġin it
Ðµ Ð
song writer
ang o
A p
Ġdes cription
G G
q m
ro vers
ĠW ik
29 6
; ||
ar on
Ġgener ally
Sign atures
g ers
ast e
Ġ 79
ci ences
N as
ĠB irth
ĠNA ME
30 7
Ġal ter
ĠP acific
Ġse asons
al og
Ġex cept
Ġpartic ip
Ġrecord ed
ha d
H aw
Ġcomp anies
19 51
Ġ** **
request s
R aven
Ø§ ÙĨ
ix on
ĠL atin
ex ual
o D
T ak
Ġ{{!}} -
5 20
q b
Ġf air
Ġbegin ning
an ia
b ill
28 9
v w
E nd
p j
ä ¸
ivers ities
ĠEst her
C ass
User Login
le m
la ke
Ġsuccess or
Ġdr ama
if er
ond e
Ġp illars
are t
M ah
N ic
wik idata
Ġ|---- -
ol o
V ictoria
ĠK han
ĠAlt hough
W ood
Ġhe alth
ie ve
ham mad
ĠC orporation
Ġb re
ĠT ower
Ġeff ect
n ik
ĠEp isode
urlen code
b les
5 14
au di
I mbox
Ġst ations
Ġsort able
d c
L abel
Ġg rad
ĠAr ts
Sport speople
ĠE le
Ch arl
ĠL ewis
dministrat ive
26 7
ĠG al
ĠEd ucation
z u
ak h
Ġlow est
q s
ra il
Ġf all
17 09
Ã¤ r
ĠT ag
y k
Ġl arger
ĠDi visiÃ³n
Y K
] }}
ha i
spe cies
P DF
ĠS and
D id
on ent
re ll
pa red
Ġcomplet ely
ĠL iber
omin ican
5 25
m ails
vad os
p ath
Ġme ets
polit ics
Ġw orry
ĠW at
Ġc lean
ĠL ittle
Ġelect ions
p b
os lav
I ON
og er
ĠL ive
oin ted
el son
han istan
Ġf eed
Ġ|| [[
ang ers
38 9
is lat
H ol
]]'' '''
ĠNe therlands
B R
gr ams
ang a
Ġupd ating
M us
Inter net
4 15
5 17
19 20
Ġtr ust
CURRE NT
ĠW alk
d w
Ġ Å
ĠSt one
ĠSpa ce
f riend
ĠC hampions
Net oholic
27 8
ĠMig rating
4 55
A frican
B re
3 88
m us
Ġg ra
Ġon line
Ġcap t
roadcast ing
V I
19 25
A rab
T owns
H uman
ĠS ingle
Fair field
Ġv ia
s he
A z
T rack
Ġspe ed
ud y
ĠAn other
ĠL anguage
comm on
) \
19 37
ale m
ĠLouis iana
in see
P a
Ġm id
Ġgrow s
ĠPro ject
ĠT est
Ġansw er
|âĢĶ }}
N C
Ġfin ished
Man chester
po ol
Ġle gal
T re
Ġf ootnotes
Ġbe hind
ĠL uc
Ġp ot
Sh ort
0066 00
Ġdiscover ed
ond ata
Ġ'' &
ĠSw iss
d ep
ĠP ug
Ġfor ms
Ġâ Ļ¥
U p
ov en
;[[ :{{{
F ort
n f
Ġs chools
ĠGen re
Ġri vers
os en
V irginia
Ġ19 66
Fran co
Ġm is
ĠG ri
for mer
l f
ĠL ike
Ġ4 2
Ġpr oduction
ite ct
Ġ Ã©
d am
f ile
ĠB and
Ġa dministrators
Ġorigin ally
Hak an
ost a
|| '''
sh ot
P S
B RA
U k
45 8
is ation
Av ic
u ence
is hes
Ġper form
g yp
28 6
19 27
ĠR om
M ovie
Is lam
Ġmiss ing
Sup port
ĠJ esus
I ce
Ġs at
Cal ais
let ter
for ms
ro me
Ġ4 1
I AN
issip pi
S anta
Ġan cient
l z
ob a
ĠS ar
sup er
ograp her
39 4
ĠH urricane
Yot tie
B at
ann ica
Ġs orry
ĠG h
196 884
j c
Ġor ange
Phil ip
Ġexplain ed
pre me
hold er
Ġd ates
p u
v ari
V iew
q c
Ġf ine
ĠKore an
ĠJ oseph
Le aving
Race packet
che stra
3 44
n omin
I mp
Ġaut omatically
Ġrel iable
uc ceed
Ġpol ice
orn ing
Ġsur v
Rick y
ce ff
Ġs al
ĠArtic le
on as
lo ss
und ay
19 26
ent y
oe ing
B arn
ĠT ele
ĠD ar
ĠSt ory
Ġsign ed
Ġscient ists
Ġev idence
de g
ĠD utch
Hakan IST
dis ambiguation
29 7
33 9
U r
00 1
Ġpolit ics
A c
ĠDe velopment
S ize
ĠW ater
ĠSt anley
Al varo
yn am
Inter state
09 0
ab e
l g
n om
ĠF ire
ou ra
19 43
J oe
n ovel
ĠS imp
ĠL ord
Ġup on
Def ender
ĠS ports
19 42
36 9
v ic
ĠD akota
ĠL ater
ĠOn ly
Ġwinn ing
i ers
es se
id o
Ġ @
ĠIs lam
Ġf ast
Ġreg num
ĠSo cial
ate ur
H I
P ap
Ġ7 5
ent ial
ĠB ell
ĠB et
ĠB on
Pers ondata
o iw
ic ide
Ġsur face
l w
m ilitary
ĠGu ide
C all
Ġappear ance
p ur
A Q
Ã Ĩ
Ġto ol
ent h
av al
ĠFI FA
Ġnomin ator
Ġmag azine
g or
x w
;]] '''&
midd le
: '
Ġ era
rit ics
ok u
Ġchan ce
Ġ: [[
cf m
ouri er
}}} ]]
web citation
ĠP op
Ġ[[ #
Ġde precated
t emp
Ð½ Ð¸
Ġun iversity
lies i
ĠK n
Ġrequ ired
; ]&
G reg
ĠF estival
Ġwh ose
Ġcontin ued
Ġdirect ed
y ya
Chan ges
Ġinfl uen
ieuten ant
ect ion
P acific
T okyo
an z
ah oo
ĠB orough
eter min
st orm
Ru y
d n
latin um
Ġ| }}
X T
ĠP as
Ġbox es
Sym onds
Ġit ems
ĠPug liesi
ĠO per
19 33
bour g
Ġrem oval
y v
C ore
Ġpresident ial
q a
Ġb ase
ipp ines
4 13
54 0
d p
il ot
Ġp un
k f
Ġal pha
3 58
= ]]&
t or
Ġth ank
r Ã©
Ġ19 65
v on
lin s
b aseball
y z
lege nd
h is
um a
C er
pp y
Ġannoun ced
34 03
ug gle
Ġreg ions
st ats
ĠT ype
Ġqu al
Ġs now
4 20
gen ce
ĠK elly
id ay
G al
Pol and
image size
h f
Ġc elebr
p ir
w er
Ġf if
;| '''
19 38
ĠA ng
om ial
X X
Ġacc ident
Ġhig her
r f
D i
5 44
Ġ+ =
Ġind ic
ĠA ge
N OT
Ġcy cl
ur b
k b
N um
Ġpol icies
ific ant
im um
J M
ĠAcc ording
Ġ8 9
ĠIs rael
m ax
ent ertainment
ian ce
pr ot
pa d
Ġ19 45
in th
co at
di ed
0000 80
19 24
ant e
ĠE lect
in put
M ON
T a
e j
pm id
ĠF ield
ĠStat istics
A sh
Comm on
Ġso ci
help me
Ġdesign ed
Rem oving
ĠC reek
56 0
v align
D own
Ġt ax
ĠR f
401 17
29 0
ĠComm ission
Ġ https
:: ::
egas us
D ay
ĠS ir
am my
sc b
D C
) }}&
pro vince
S outhern
ĠW ell
Ġex amples
5 12
able d
45 0
sh ield
4 17
l um
habit ants
name nt
ĠD ate
Ġprop os
Ġpred ecessor
) "
33 8
Ġdis c
haw ks
M OS
Ġĉĉĉĉ ĉĉ
ĠR oss
att les
ra c
B uild
Ġ7 6
__ __
w ah
et ic
ĠF ox
illa ges
imat ion
Ã© es
Man ual
Ġis lands
57 0
and om
Email user
Ġdam age
fl ower
m und
ut t
y al
lin gton
han g
Ar thur
Writ ers
t n
und a
K n
3 08
s id
Ġco ok
I an
ĠCl ark
g p
bu ild
St ation
Ġ5 1
Ġbelie ved
ĠT emp
Test article
io oiw
if isto
Ġp ark
ĠA T
ĠH or
4 14
h b
Ġbas ic
Arr ondissement
4 43
Ġ que
ann er
V an
Re al
ot ten
Ġ19 63
Ġ ordo
w m
th nic
| }}}}}}
em a
ĠF red
U nd
Ġ19 61
y u
Ġconcer ns
3 49
ry an
ĠH ay
co ach
H G
Ġben ef
ĠF ar
g if
ĠA dmin
Ġkill ing
ĠP ast
Ġclass is
B rit
Ġprotect ed
fir med
ra f
S ep
29 8
ci vil
ĠMad rid
ĠR ef
ver se
}}} ]]}}
Re gion
3 99
ĠT aylor
King Raven
Lea gue
Ġser vices
R ail
ĠChe ck
sol id
pre ad
comp uter
B ay
ĠH and
]]''' ,
! </
' </
a fter
Ġt rou
19 31
Ġ ox
A k
St ubs
rop hy
con stru
1605 17
ik er
ĠE astern
ÃŃ n
Ġmeet ing
i ens
Dis ney
w el
ar ry
ĠP olit
Ġcol laps
ĠâĢĶ [[
w ind
T ony
Ġs n
ĠH ung
Ġch arge
ĠBer ty
medi um
e us
f re
stand ing
pup pet
ĠK eep
= }}&
van ced
'' ]]
19 41
en glish
B rian
ĠBer lin
ĠA ff
c ourt
K ar
ĠJ ane
ĠWikiped ian
p attern
ung s
op ter
Ġf oot
ach er
D er
F inal
br icator
ondisse ments
erd an
ĠW olf
Ġ8 5
Ex p
Wik tionary
ly n
F ox
wit ter
ĠAd ams
Ġoffic er
L C
' &
Ment ifisto
Th ings
ol ph
l r
t c
Ã´ ne
d j
L ove
3 25
ti al
Ġex pect
D iv
ĠT okyo
Ch ile
us en
ĠB all
ĠK ar
Ġindivid ual
ven ue
Ġsu ff
ĠRel ated
O tt
ĠF ree
st ell
ĠB re
|||||||| ||
4 16
37 8
format num
L y
3 14
on na
uff olk
ĠRepresent atives
ĠW hy
qu oise
ĠO rder
Ġfour th
Ã¸ n
Ġdescrib ed
19 32
k p
O yster
Ġt ube
Ġ6 5
Ġvandalis e
st ad
F rom
S elena
3 47
Pr ofessional
98 1
in formation
ch ar
ĠL eg
ĠRe view
620 69
x p
Ġmention ed
Ġpo or
cat s
Ġcol ours
L ong
Ġnecess ary
3 48
ĠB attle
ĠĠĠĠĠĠĠĠĠĠĠĠĠĠĠĠ ĠĠĠĠĠĠĠĠĠĠĠĠĠĠĠĠ
ĠAnd rew
: {{#
Ġd epend
lat itude
an th
Ġwhen ever
Pri vate
Ġrun ning
;''' ]]
Ġtitle s
ra ce
;''' ]][[
re me
st ers
) ?
[ '
Wikiped ians
W erdan
Ġwe ap
west ern
ecti vely
w i
Ġlog s
Al bum
ĠPr oducer
h istor
ĠB ank
t u
ĠB ull
e en
St ephen
ĠMar ia
Ġ} ;
osp ital
55 55
Ġt ran
ĠP egasus
ĠK now
Ġreturn ed
44 0
im m
---------------- ----------------
P remier
Off icial
ren gth
p ubl
ti more
à¯ į
Ġmo ment
I T
Polit ical
5 23
o q
me i
gen er
T ype
ĠPol and
g ood
ĠA ss
pre v
28 7
w j
ĠS E
b ie
lic ations
3 20
Ġele ment
cha e
C ivil
× Ļ
]] ?
ĠE ach
Ġknow ledge
s ilver
ĠG reece
I con
rick et
ĠT owns
;{{ &
Ġp hy
ro gen
Ġlet ter
P rat
ĠM ur
Ġsh ot
I reland
{{ !}}
Ġ'' (
z b
Ġpass ed
but ton
ĠOr gan
az on
ĠS ingles
Pr incess
E v
Ġh onor
comm un
z m
lin ton
ĠP unk
Ġmov ing
aly mp
b uc
Ã¥ n
Ñģ ÑĤ
ef ined
ĠB ush
Ġold est
; Â·
ri x
ĠV i
Ġdiv ided
v n
/ #
Tor onto
D S
ba um
mat ic
x h
we gian
He ad
og g
Ġg rand
Ġcou ple
vent ure
C rystal
l ied
pr of
ĠE conom
Ch ar
cor rect
Ġfail ure
ĠP LACE
Ġan imal
Col umbia
ĠDe ad
ĠP ubl
?? ??
ĠB os
Ġ! =
. ]
Ġ19 62
ime d
ĠM ir
r ical
á º
Ġent ry
r q
| }}}}
r j
19 35
orm al
ĠR adio
f ire
bor ough
ĠM id
long itude
n ext
L ife
R oll
St and
Ġfam ilia
mer cial
Min or
Ġl ack
County row
ffff ff
| }}}}}
ich i
Ġ|} &
ĠBe at
Ġprodu ce
Maxim illion
ee th
00 4
avy weight
]]'' )
en ced
pha bricator
b ia
em in
Î ±
Ġp ick
ĠC D
og o
ĠL ady
Ġar ri
d at
in ite
M ir
Ġocc ur
19 12
Ġin vent
á ŀ
Ī â
P ref
Ġa ssociated
ĠD ATE
Ġadmin s
art e
49 0
t k
ov i
Stat us
Ġneigh bor
Ġtemp or
V i
F ar
ĠF ort
J u
Ġs ingles
is ti
ho en
Ġ7 7
ll i
err ari
Ġend s
Ã¥ m
C FCFFF
à ¶
'' :
Ġinter view
or o
Ġs quad
19 23
Ġd ash
Ġwest ern
ĠDa vis
Ġroll back
l h
Ġe volution
itts burgh
b ird
ĠStart ed
is is
Re c
Ġcent re
Ġmed ical
Ġd ark
ĠR oute
rest le
aw are
ĠMed icine
up date
Ġs ister
uf act
Ġp attern
ĠM innesota
ĠQue ens
re view
urr ay
Ã¦ts Ã¸n
an on
we alth
ĠI rish
d h
z q
Th at
Me gan
ĠB ob
Le on
4 18
out heast
ĠF Ã¦tsÃ¸n
3403 66
Ġf it
L et
Ġn eg
à ¹
Ġto wards
ele n
lin d
ou ver
S ax
Ġc andidate
Ġre ach
4 12
z j
W W
Ġs ch
Ġs low
ĠHe alth
ĠA p
Nat aly
pl an
M usical
Ġn ice
idel ine
Ġs quare
w all
Ġin line
ann y
pre t
comp oser
Ġorgan ization
O regon
T ransport
F R
ob it
Ġnew spaper
Ġadd itional
Ġimp ro
Ġbr idge
19 02
Ġm ountain
Ġen wiki
Ġsimpl ified
3 56
19 04
Ġ QD
is ne
380 105
My th
48 0
i ia
bot h
qu art
ash ion
v q
ren a
Liber al
Document ation
ÃĨ Ã¥m
z f
ag on
E mp
Ġ19 40
Ġresp ons
oD enn
W anted
Ġh on
;]]) -&
Ġche mical
à¦ ¾
49 5
Ġlaw s
u oka
as is
Ġt ransport
ĠH uman
Ġbehavi our
Ġg as
ĠDan iel
19 18
ĠS av
ĠG et
Ġdo i
Ġre tired
ĠH art
ĠL abor
Fran cis
row ser
E B
Ġn ation
Ġbut ton
p an
C arl
us ive
N O
Ġf ish
Ġdis rup
ac re
Ġexperi ence
ist ant
ograph ics
ar di
light s
ĠB aseball
ank a
z s
O range
S ong
of ur
Ġ9 5
ĠCor ps
l m
ear th
Ġn ickname
Ġm ale
; âĢł
B on
Ġreport s
El izabeth
pa g
ĠD am
ĠCl ick
37 9
Mar io
Ġacc ording
j amin
it als
Ġsol o
Is rael
Ġmer ging
So cial
nt ry
gu ide
Mil oDenn
E arly
Ġ1 79
ĠCast le
r ound
Ġbureaucrat s
13 04
P la
ĠMem orial
Ġen glish
Ġdiff erence
x j
B ox
Ġ Ùħ
y b
H ans
op per
M ember
Ġ{{ !
ai wan
P ierre
Ġtime zone
il ome
pr oducer
Ġf oss
ĠU RL
Ġatt ribution
F ive
ĠL y
ĠRe agan
Ġcell s
an ces
D ark
H or
ĠE N
Ġ archive
br ia
09 3
so ck
Ġst ories
ĠD own
An n
De velopment
as ing
f ind
ak ers
des ign
u ctor
C itation
39 6
46 0
n ation
ĠM u
Ġind ef
tif ication
aract er
il k
á Ģ
w b
us an
Ġra ised
Ã¨ res
get Element
ĠI mp
d et
T oo
Al bert
Ġgo al
D etroit
F our
Origin al
'' .&
st m
d m
if ul
I ns
O per
Phil adelphia
tur quoise
Ġold er
or is
ĠC H
Ġh ar
ind u
CC CC
4 10
A BC
- }}
47 0
w q
07 7
l ation
) ]].
n or
H ome
ĠC re
ĠU se
il ing
ĠRep ublican
Ġart ists
ĠB ureau
M onth
à ·
Ġ utc
ĠS quare
Ġre v
ĠM ax
Main tenance
Ġrelation ship
99 0
c urs
ru z
ĠA lp
ĠG ard
gart l
1709 17
816 82
om i
Ġre ign
57 2
Ġident ified
V oting
Ġres ol
By Id
m od
ol in
ĠCent re
at uring
E N
getElement ById
Ġc ritic
Ġrel igious
àµ į
Ty gartl
Ð¾ ÑĢ
sh all
P arty
Ġ Ù
Se goe
ĠI mperial
w en
S N
omin ated
ã Ģ
ĠJ eff
Ġpa in
Ġfe et
i ge
K ey
b lo
Ġb roadcast
3 13
A SE
T able
mat ion
? |&
^ \
le ges
n q
x e
k c
ag ree
Ġt ro
Ġ8 6
w arn
ust er
ĠA ND
col our
K eep
contribut ions
h g
Ġw ood
rad io
GB T
A G
Ġcons ist
he el
Ġ5 2
ĠSome times
Ġsoldi ers
lo yd
sc ar
Ġd ie
L ight
]], }}
Ġ19 30
in f
ric ity
D iego
Ġcomm un
O ntario
Ġb al
Ġl oss
Ġper cent
19 22
Ġs us
ĠH it
ĠG irl
ps y
ĠE v
l j
Ġ19 48
Ġd river
Ġown er
z g
ia mi
ograph ical
Ġ* '''[[
il ies
B lo
arch y
ĠGu idelines
Ġ== [[
H F
c ury
un i
Ġlead ers
s ig
is er
S eg
King dom
ed s
odu le
v r
Ġbegin s
SPA CE
cy cl
empor ary
00 28
W ork
ra q
Ġprotect ion
ĠChan nel
in stru
Ad am
James ofur
37 7
ser vice
ĠP ower
A M
H ex
ĠI ran
Mat iia
3 50
Ġb ug
v ance
pr ofessional
hol m
r ice
M as
ĠP a
_ (
ou x
uer to
Ġpret ty
Ġ6 9
Com Nas
Spr Ven
ComNas SprVen
a ac
len n
Polit icians
Olymp ic
ĠK angaroo
am ing
S L
Ġ6 6
c as
x n
qu id
19 21
e on
li brary
E NG
Ġcri me
our n
H ip
ĠD ies
el se
ti g
Ġfound er
ĠHOCK IAN
C her
N ote
Ġ Ú
Cl ark
ĠTH E
ame d
ĠA ccess
|||| ||
Ġele ments
Ġlett ers
co authors
Ġun less
ĠInd iana
ĠLe gend
Y E
qu el
iz ations
odd ess
ĠCon necticut
ĠNot es
buc het
3 43
Add ed
IN SEE
Ġaward ed
ĠI ns
Ġper haps
ĠArtic les
L ast
' .
ry n
lt a
ĠF lying
Ġ19 51
h uman
ĠSc ottish
v p
le e
sp ir
U ns
á ¹
ĠS et
ast ers
Ã© mon
ot ic
P s
ĠM iddle
Tele ComNasSprVen
78 9
ond a
ĠMon ster
'' ]
Ġter ritory
nt on
Ġth ous
An on
Ġrequ ires
het ti
39 8
ĠN obel
ild a
Ġbig gest
W hen
06 9
ĠMar io
ĠRail way
Ġappreci ate
Ġalpha bet
52 99
ober ts
v io
Ġs en
ĠW y
Ġcom b
Ġ6 7
Ġcol on
sq mi
Ġ Î
33 3
O t
Ġs la
ig o
Ġcomm only
ess ion
ass oci
ĠD ynasty
Ġ8 2
gyp tian
ab inet
ĠC ons
Ġhe ard
oll ar
Ġcol lect
x g
be an
Ġrequest ing
M att
Ġ19 58
gr and
Che ck
st a
x i
I llinois
ĠM art
Ġl ic
ĠH o
osaur us
h ockey
ud ent
ors hip
ĠR ights
Ġdec ision
. {{
set tlement
Sc ott
v j
cc cc
ig i
Ġmet adata
å ¤
Ġc ard
C antons
Ġw id
Ġac id
ap pe
ra cy
Ġm urder
Ġsh ift
3 27
Ġin vest
ĠS ite
Ġ19 00
ĠAs sembly
ĠChrist mas
k an
ort on
Ġcol lection
ew art
My talk
Spa ce
ĠMary land
Ġp ictures
ĠB rook
end s
Ġn ature
Ġl on
ĠF riend
Ġac tivis
Ġs plit
t ons
um in
G OR
sup port
ĠRac ing
ĠD ictionary
Ġimage size
3 10
H all
ĠM un
Wanted pages
19 07
oc he
Ġw alk
ĠB owl
w f
Ġthrough out
ĠWhen ever
Ġin put
Ġr at
viv or
3 55
F amily
Mont real
Ġf iled
38 6
ous es
oth ic
ĠBo ard
w eek
ĠN OT
inn ers
sh ows
ĠW P
Ġr ul
Ġter rit
ell ite
field er
O xford
t xt
he art
pr int
Kore an
mat ch
Ġ6 8
Ġro yal
us band
ot es
H ere
J ewish
Ġc ensus
Ch ord
3 29
;] ,
C ons
ĠF C
part ement
O ver
ĠE arly
ĠAl aska
h ist
or tion
at ic
ĠG adget
uss ia
l uc
Ġme chan
Ġex ists
Ġ7 8
Ġsp elling
x a
ment al
Ġ4 00
34 0
Ø§ Ø
ĠV is
ish op
D ar
ĠB i
Ġvers ions
re v
ak ed
Ġblank ing
ĠLin coln
ia go
p ub
Se at
ĠH ir
o ol
Ġact ions
Ġab br
ci pi
ĠN ote
ATE GOR
l ers
E L
Ġcon cept
ĠCat hedral
Ġw ear
Ġd etermin
Ġ19 47
Ġread y
ti m
Ġb ass
Ġbe coming
ou ston
Ġb iography
99 00
bo iler
ax y
Ġwant s
b urn
ĠJ ac
C am
Ġw ide
ĠTech nology
t lt
ai i
Ġtrad itional
G overnment
Franco GG
ĠG eek
Myth don
48 2
z r
Ġsupport ed
i gen
S ilver
Ġh undred
Ġ8 7
Ġru ns
DDDD FF
Ġ19 59
; ~
e ur
p ower
Ġ1 50
author link
TI ON
st ars
k ept
au f
Ġup load
m cc
t j
A US
Ġg un
direct or
ER I
Ġ19 56
Not es
Ġhum ans
G od
EV ula
im s
im in
cel and
Ġt arget
A dmin
G er
ilt er
z p
A ug
E FCFFF
ĠV ers
yr Ã©n
uff alo
Aut o
ĠOrigin al
os es
Ġh or
ĠAlex ander
Ġs urr
Ġconc ern
Ġturn ed
ome stic
Ġf ill
gr ad
ct r
Tur key
ort heast
Ġst ubs
K evin
anc ouver
Ġin s
Ġdeb ut
Ġtemper ature
L ang
;]] ''&
Ġhapp ens
w ig
ĠMag azine
Ġsing ers
; âĢĶ
... </
Ġis o
uz z
yrÃ©n Ã©es
66 0066
ĠR angers
ĠInd ustry
level and
37 6
99 8
Ð¸ Ð
Ġs un
Ġed uc
ĠDirect or
me nia
Ġperfor mance
FD A
P hys
Ġkind s
v b
M unicipality
Ġs ites
ore ign
ĠGo ogle
Ġt xt
Brazil ian
hoen ix
13 132
et he
ĠJ ean
ĠEng ine
C ode
H ir
Ġqu ality
ost er
57 9
ĠE very
wh o
Ġra re
hend erson
r in
ĠB uild
ĠF light
N P
ĠB ack
F ilm
v f
art oon
U su
Ġ*[[ :
s chool
Ġcom ing
Ġc anton
i pe
Ġop pos
Ð¾ Ð½
per t
ac ional
ug ar
Ġtell s
Ġpers ons
ĠA thlet
ĠPal ace
Ġdescrib es
boiler plate
Ġchan nel
Ġ19 49
ĠL im
Ġreport ed
Is is
H ard
{{ âĢ¢}}
]] {{#
ĠC er
gu ardian
A le
M ilitary
O b
Ġsign ificant
an na
M olina
O p
mag nitude
Ġmark et
Watch list
Ġf lood
Re cent
aut iful
Ġpa per
======== ========
ĠBr as
res ults
ust rial
ĠK ansas
Ġpro gress
Roman ia
Ġe astern
yr ics
Kans as
m unicipalities
ri o
d g
s or
H o
L ee
ĠJust ice
3 24
b ara
in ces
ep al
V is
L iver
el and
ĠB ros
Ġhe avy
q o
Ġw orth
Ġstart s
Mic rosoft
AA J
b usiness
pr odu
ru ck
Ġt ropical
ĠF ederation
Ġsimpl ify
ĠSe ason
uc he
Ġb an
Ġs ucceed
Ġhas n
Ġve hic
Build ings
5 05
g ate
] )&
ph one
n ode
Ġg irl
Ġv ic
Ġgu ideline
36 8
Ġob vious
ĠTH IS
L ith
Ġthere fore
z c
Wiki media
ĠS il
Ġact ual
à¥ į
Ġintr oduced
gen eral
uck s
osh ima
2222 22
E cho
it ted
ï ¼
ib ly
Ġen emy
create Element
pro gram
Ġst uff
ĠComm on
x r
ĠM odern
S V
19 17
Ġm achine
ĠPubl ishing
g hetti
I ES
l ia
}}}} .
Ġ Ø§ÙĦ
t ax
R ich
Ġmist akes
f ly
Ġrepla cing
S in
S ingles
Ġ}} {{#
u ments
be gin
Ġcolor s
ĠâĢ ĺ
Ġstate ment
W alter
ĠFr ont
School IP
;âĢł &
]]. </
br it
Ġc ampaign
Ġcomm unic
cis ion
m otto
Ġc hampionship
ature d
sc reen
L ol
pri vacy
Ġexact ly
er k
ĠE arl
iz es
t g
ĠGh osh
E RE
Ġ19 20
Ġin f
ĠN on
Ġmy self
ones ia
ĠF er
Ġv ocals
Pri vacy
57 7
b ow
Pol ish
t ildes
w c
om ated
W A
iz ard
us a
ik o
ĠS uch
clud ing
Ġconfl ict
Ġg overn
aut e
39 7
M G
W in
Ġ''' {{{
Ġpar am
Ġrequest ed
ĠAnd erson
l q
r ot
} ;
Ġd istricts
ĠD ark
Ġ19 55
ĠPla ce
Ġpie ce
l ie
w iooiw
av aria
ub er
L ive
Ġd raw
y i
C are
O ber
e ven
ĠW el
Ġcar ry
Ġpress ure
\ \
ure n
for mance
s ystem
s ysop
t f
Rep ort
> {{
il is
P L
3 15
9 00
r gb
as per
ff e
lt ip
aw ard
Ġlead ing
;â Ļ
Ġtalk ing
E rn
ĠFe el
36 5
ug oslav
ĠMus lim
Ġdestroy ed
{ |
re vert
ex p
Ġ| {{#
06 6
Ġproper ty
j sp
S Ã£o
Ġt ouch
B D
M ore
Ġphot o
lovak ia
ke it
K rett
Ġin habitants
ron ze
ĠB roadcasting
Count ies
ic he
am ar
Ġind ustry
s un
S cience
ĠL es
s cale
x d
ĠA c
ĠO p
v m
lo ok
Alvaro Molina
L ine
ict ory
x f
Ġcomm ander
ĠEl izabeth
W H
Ġnear ly
ab a
Form ula
n obel
es a
ha b
ĠBot h
Ġd ou
ĠPet ers
Prat yya
H istor
O h
Ġd ance
ass ic
Ġm iles
net ic
od ies
M IN
N i
Ġ19 52
ĠK im
ĠColor ado
p ix
ig ue
Nor way
Ġwinn er
Ġcover ed
ap i
ĠR ich
Ġ19 54
19 00
x b
F lor
Ġpl anet
Not ice
x k
x is
z es
ham a
] }}}}.
D AR
Football ers
Ġpla in
Ġcon stituency
be fore
Norm andy
3 18
en o
ob e
V andal
Ġ _
links here
sych ology
if a
IS M
h c
ux em
Ġac tivity
s ome
s af
F ree
S D
Ġl ands
ic i
ro c
}} /
ograph ies
administrat or
l iament
w u
W el
am an
Ġc up
ĠA dding
List s
sp ot
ind ef
e q
Se ason
Ġmat ches
a el
ov o
ĠC all
Ġ19 57
3 12
3 53
Â §
ĠSup port
35 1
Ġg rew
act eria
A ns
S H
W ell
Ġext reme
What linkshere
Pl ant
3 46
A pr
C ategories
Ġ|} </
c ourier
ĨĴ [[
M aur
Jim my
ĠPar alymp
ĠPol ish
he ns
Ġd ynasty
ĠP ass
ĠH on
App le
G roup
is en
am mar
eng ine
M M
R od
Ġwas n
Mat thew
ip er
ĠT ennessee
Sing apore
t es
ĠC ard
peri od
ĠS om
ĠV I
Mic hel
868 02
05 0
reat y
Ġse ats
ĠTer ritory
Ġpref er
ĠDou glas
66 0
h ire
D al
ĠT a
ĠT ake
ĠJ on
Ġle aves
}}} '''
ĠAr kansas
is che
ri m
Ġdeb ate
Ġs cale
Ġdeg ree
og a
VAND AL
Ã¼ ck
Ġfight ing
ister ed
ĠFor est
P ublic
K al
Ġst arring
;]] {{âĢ¢}}
ĠSt r
ÏĢ r
Ġ- ([[
Christ opher
V e
Ġin ch
Ġare n
Ġsk in
t ropical
ĠE vents
ul pt
su la
ĠH y
Ġde ep
Ġfeature d
t m
K L
St ates
Ġtro ops
and rew
C orn
Tele s
f ac
ad ors
Ġcap s
F ord
N E
ĠC ATEGOR
ĠG ot
LLLLLLLLLLLLLLLL LLLLLLLLLLLLLLLL
ob le
Ġb rain
ĠAr thur
Ġprodu cts
F eb
Ġ( '''
ĠT en
Ġspe nt
Ant hony
Ġ::::: :
Den mark
t q
ĠR u
Ġwind ow
Ġ1 49
|}}}| {{#
Ġmin ister
Ġresp ectively
ĠHar ris
19 10
19 14
36 7
ph y
Ġle gend
n old
ĠD iego
Ġdo ctor
Ġprodu ct
Ġill ust
ĠM ove
pref ix
box es
E ric
F item
ĠF ord
Ġstr ing
Ġresp onse
P ic
Ġst adium
ĠN ames
ĠHe avyweight
Ġevent ually
me ns
cc a
di um
pl anet
Ġpar ties
Ġem ail
V ideo
ĠRele ased
28 4
C atholic
19 11
man ia
min ster
ĠD atabase
L ou
l ich
ric o
ĠF air
dis ambig
Ġsy nt
f ast
Ġp hr
ĠR ose
ĠF a
Un block
Ġcomp leted
Pat rick
ĠS EV
Ġ19 44
ĠPr incess
Ġtrou ble
ac ore
ov es
fr ont
L en
ĠI NT
Ġqu ery
A qu
ĠC ategory
ĠRoman ia
b as
'' ]]&
Ġb asketball
Ch urch
ĠM ountain
6 58
to ols
!! !!
Ä «
Ġ ok
Phil on
le et
ĠH amp
Ġsent ences
quart ers
Ġent er
A h
ib bean
Ġphy lum
ra ig
M ath
ĠSh ort
ĠSEV ERI
ra eli
da ily
ut o
Pr otect
' ).
ĠL or
30 3
on ge
wiki base
A I
gent ine
77 7
ÃŃ o
Hung ary
as aki
X q
Ġ zone
ĠB rad
oot h
Ġrespect ing
37 0
id ad
un gen
d an
x s
B ir
ĠS outhern
eb e
C W
ĠHe art
Wind ows
ĠId aho
19 19
ir us
w rap
Ð½ Ð°
}} [[
ĠM ember
ĠSo ccer
ĠAf g
Ġ 99
Ġse ctions
rec ord
W IK
AAAAAAAA AAAAAAAA
b ank
ant um
td x
ct ors
ag ing
P I
Ġb omb
ant asy
ĠN ixon
ĠK ey
DAR IO
E ng
par a
c os
M T
h all
v ide
po et
ĠU I
Ġ7 2
ak s
)| ''
Ġun known
hail and
m aster
W alt
Ġstop ped
alle st
thod ox
Ġpromot ed
S ignpost
EhJ Bot
27 5
y j
F a
N U
ĠP rop
ĠH ills
Ġ/ *
ĠĠĠĠĠĠĠĠĠĠĠĠĠĠĠĠ ĠĠĠĠĠ
ĠBlack hawks
child ren
57 6
Ġpro grams
I l
ĠJ ose
ĠC ur
miss ion
Ġw or
iv an
ĠV ideo
er or
ed ro
Ġb irds
Ġuns ourced
H an
Ġdist ribut
Ġstudi es
f ather
n ov
ise ase
K az
Ġ7 4
******** ********
ĠG reg
Ġun iversities
ymb ols
ĠCATEGOR IES
57 8
f olk
u ous
y ing
up iter
P NG
a us
y w
ĠSt ock
it is
ru gs
ĠA untof
ĠLe on
ra ight
Ġw ins
VANDAL ISM
gen us
Con f
ex bot
vo ice
Ġviol ation
ash mir
ink er
C urrent
P art
len ce
× ¨
ph ot
D irect
L at
Pr ot
Ġtransl ation
Just in
58 9
imp l
Ġdis agree
Peter Symonds
Ġexist ing
Cent er
G DP
P ark
Al fred
su ff
Ġth r
uss baum
elli gence
K arl
comp lex
x m
et e
at om
ut il
ĠB oston
Ġpri mary
b ian
ĠS her
ays ia
Ġim m
ch arge
ĠR ight
Ġo il
omb ia
ĠStudi os
87 79
ri ve
che m
ĠB udd
;!-- -
ĠF lor
Ġ8 4
Ġlevel s
S ky
ĠG lobe
r od
M ult
Ġcomp ounds
N ik
Ġc itation
Ġg ods
Ġgu ess
3 17
c ond
Î ¿
06 7
lat form
66 7
in di
N ap
ĠM ah
ĠM iller
Ã¶ r
ĠIN SEE
pr oduction
ot hes
Ġmay be
Ġstud ent
ocol ate
Ġm unicipalities
ĠP icture
ĠPro gram
rank ed
Ġdec la
ud es
R andy
ĠV GA
ĠCh oice
ag raph
D ream
Ġw ikidata
Ġdis order
v c
ing h
Ġst ated
Alb acore
Ġath let
ud get
S om
T wo
Ġdef inition
Ġcond uct
Ġproper ties
lo an
ĠP ers
az ette
Sw iss
os ing
ĠH unt
Ãª te
r un
ee ee
Cl ick
fr ame
J a
Ġ à¦
ĠD un
Ġfix up
r ate
ace ous
Ġro les
30 1
Ġc hampion
Ġr ate
Ġsha pe
ĠBl ues
fra c
ĠN ov
Too ltip
: -
re is
che ss
Ġth reat
Ġab use
le ague
Ð ´
Ġ19 46
ĠGold en
il lo
ĠT y
ĠWind ows
ĠG allery
Ġcl imate
Ġar m
Port ugal
5 11
5 88
r us
tlt t
Ġar rest
Ġtr ade
GB R
ĠWikiped ias
it able
for est
ĠAut hor
3 16
ber ry
08 9
mer ged
Play Station
S now
ĠR ap
kes pe
Y e
Ġlearn ing
Ġbin omial
Ã± a
per cent
Port uguese
U pper
h att
ĠJ ewish
e qu
| ''[[
uel a
ĠW rit
ĠL ou
Ġun ion
Fin land
che ll
arm ing
en ger
P E
inn ing
uk a
A merica
ss ex
G ill
cu les
Ã¶ n
Ten mei
Ġlook ed
T erry
E gypt
O sh
}} }}|
ĠB BC
ĠBel gium
Ġf ederal
Ġhistor ical
t rain
Ġm ic
06 8
Ġpr ofile
hy th
ans ion
N BA
ĠB ackground
Ġmer ged
ĠBrother s
p ite
v u
B rad
ĠCh ief
us alem
il o
Ġp ath
Ġne utral
) '''
ap olis
cl ar
B rand
t ennis
av i
ĠB at
m ovies
t hen
Ġin j
ip l
Episode Number
387 11
p ush
H is
Ġd ele
Gu y
ic ated
Ġb anned
Ġval id
s it
ĠL ook
call back
39 0
g un
ri f
od o
ren cy
ec onom
]]. ]]
B rook
ĉ Ċ
ĠH an
ĠHe y
P R
Ġa ch
Ġst e
Ġ19 53
eb rew
ĠQu est
Ġarch itecture
212 981
ĠOb ama
en burg
ĠK ings
out ube
N ag
cep tie
D A
T our
Ġb aseball
ĠY es
- )
f ood
Ġb illion
Ġm ole
ĠM ilitary
Ġg od
Tur kish
uxem bourg
u ated
E F
Ġg oddess
Ġen vironment
tdx iang
ym n
O K
ach i
aw n
ĠK at
Ġapp rox
Ġconstru ction
s at
ĠINT ER
26 5
ck er
-|| -||
ĠRf A
W ith
Ð ļ
ĠI ce
-- -&
Ġex press
cap t
Ġread ers
Ġclear ly
ince nt
R oger
27 3
ick et
ĠW al
Cap tain
Email User
R ome
ä º
rop ped
C ri
work s
popup s
men ian
An ne
Ġmy thology
el lo
Car ol
30 4
Ġb roken
ĠA gency
06 0
ĠG l
Mar ie
mend ment
f ixed
Ġ19 39
aq ib
Ø§ Ø±
or ce
id en
Or gan
Ġpl ane
th at
ok i
sp ouse
R onald
Ġgen eration
Ġ*** [[
ĠPaul o
Bra vo
Ġthink ing
58 7
om o
lo ven
Ġlot s
y f
ĠN ic
ĠAs ian
Ber lin
Ġlim ited
kespe are
play ers
ĠG il
Jack son
x c
ad vert
6 05
g lobal
y h
st ates
Y i
iss a
f are
style s
Ġw g
= -
ur ches
F an
Ġs pread
ĠR oll
Ġact ing
878 90
HT ML
ale st
ĠV iew
ĠMay or
polit ical
Ġ' {{
eed s
66 6
g aret
ĠH oly
ĠAff airs
B aseball
ĠB usiness
Ġsup posed
o book
ea ff
;{{ !}}
Par am
Ġ ^
ĠR ey
Ġpower ful
ĠPe ace
P ur
Ġm useum
Cal vados
Ġnav ig
ĠMess age
St anley
Phil osopher
Ġpaint ing
en ri
R on
roat ia
b ug
p al
ast ron
ĠS ciences
ĠD ep
Ġmajor ity
y q
D isc
S earch
Ġm ix
ĠM ountains
ĠV ietnam
yr ia
ĠM and
n ormal
Ġ ign
Ġs ave
ĠB ible
Ġop era
39 3
ĠT otal
Ġ19 41
ci ous
Ġp al
Ġcont rovers
Ġprop osed
bi ography
I owa
Ġb ul
Ġany way
Ġover all
UE FA
at omy
Ġm arriage
ofess ion
sp lit
J osÃ©
Ġs pr
St ock
on omy
ay ne
ĠB our
Ġupd ated
fl ow
vent h
B udd
Ġh our
ĠU r
s ymbol
D istricts
ĠS on
Ġl ake
;| âĢĶ
Ġdr ink
curs ive
B ah
ĠD isc
R i
ĠH ave
Ġal one
iss ance
Ġf ought
ris is
Ġsh all
Ġcomm and
yr us
associ ation
W olf
Ġ effects
ĠS ound
ĠS ign
ĠM oon
Ġset t
Ġwarn ings
10 5299
ush ima
cy an
ĠJ oe
36 3
Ġl iterature
ij i
ĠLen gth
; --[[
Ġd anger
Ġfor ced
ES CO
] [
p es
com mend
cu ador
Lol cats
m il
t Ãªte
Ġw ave
u is
ic ia
D ra
ĠF ederal
Ġrepe ated
row s
Ġd an
ĠRob inson
g ot
tic o
ru guay
Ġp an
ĠDa ily
WIK IS
k ar
Ġb ank
Ġd om
ĠT rophy
Ġfor ward
Sh in
99 7
an cial
ed a
Ġrecord ing
26 3
k id
B arnstar
G l
Ġro om
G a
ĠMed iaWiki
Ġdown load
Ok lahoma
F ire
Ġrem oving
ribut ary
Kore a
ud o
;''' [
Ġ8 3
Ġ19 42
Ġtrain ing
, _
D istrict
ĠS ab
arch ives
Ġpos itive
EE EE
Ġg raph
ĠJ ews
ĠINTER WIKIS
e urope
re p
W all
Ġre action
Tr ue
tiv ities
Bas ic
u art
ed eaff
G reece
Ġ6 39
Ġca ref
min ation
gra ve
ĠS anta
ĠC ook
w on
aw ay
Ġh usband
Ġv o
ĠN Y
ĠAl i
ĠP oint
image s
You ng
; âĢ¢
F i
R GB
S and
09 7
Ġ::::: ::
Ġstrong ly
Ġ ..
ĠS port
ur is
ace ae
oy a
Ġpie ces
v ac
y c
le tt
ci Ã³n
B an
ĠC anad
ĠL anka
Ġd og
ĠF ly
ic ist
M O
inn ish
ur u
cha pter
writ ers
u ce
T ube
Ġown ed
Ã¼ n
Ġref ers
Ñģ Ðº
× ķ
An na
Ġattemp t
28 1
ĠF inal
Ġredirect s
ar c
Will iams
) {
Ġcheck ed
Ġpe ace
Come t
ĠJun ior
i ant
m oon
ĠD id
ĠEd ition
Af rica
B Ã¤
quent ly
Ġbehavi or
Ġus age
ĠMar ine
b asketball
g om
in z
in ary
che mical
Ġg lobal
27 2
ele y
ĠCap ital
Aust rian
B io
Ġdist ance
ine a
Ġk n
olog ists
36 2
ĠT el
ĠR oberts
Ġacc ur
Ġj ump
Ġval ues
ate ver
26 4
P ress
Ġ ]
Ġ= {{
Ġbel ief
g as
co hol
ĠSen ator
ĠM oscow
Ġrec ords
ĠTowns hip
b ies
x u
F W
ĠB ou
BE L
21 1304
70 336
ir ty
ĠP hot
unic ations
hand led
t ree
}} ||[[
omp son
Bad ges
dx iang
com ot
L or
A labama
Ġ7 1
Ġru led
Ġreview s
28 3
ro e
M exican
;]] /[[
99 66
i op
Ġ= &
ĠB uck
off s
13 88
s uch
D exbot
S ummer
Ġf light
ĠN i
watch list
B et
ĠSquad ron
D eb
Ex ample
ĠHam ilton
Ġre ve
ĠD ream
Ġha ven
edit ion
Ġ8 1
Ġsoci ety
st aff
Ġ7 3
}}}} }}}}
Bar celona
ĠMo ore
Ġs ounds
Ġd Ã©
Ġpr int
Ġhand writing
ot hy
mp tom
Ġ6 3
enn ifer
Mar ia
233 259
ĠC reate
arn e
allen ge
am oto
V ers
Ġn ine
Ġk it
Ġpa inter
ĠL ind
Ġdis ambiguation
Ġteach er
Ġb urn
05 7
Ġdis cre
Ġrem ains
mcc arty
58 6
eren ced
Ġcont ract
irc le
Ġ19 01
bish op
hy d
ĠSing apore
ight er
U P
ĠT able
ĠG ab
Ġnorth west
Ġwind s
vari ant
h um
ĠB lock
ĠR at
Ġ6 2
I L
Ġt ele
s ix
s ex
u als
ig gy
R ivers
'' ),
19 16
mo sp
ah l
ĠA zerbaijan
han a
Ġha ir
ĠEd it
in sula
45 2
] '''&
st ream
ber ta
block quote
dead url
99 6
ion e
P unjab
Ġc ats
{{ Â·}}
Ġ|| {{
Ġfe aturing
BL P
19 08
ab ad
YE AR
x o
Ġfor eign
ĠB rand
ĠEx press
ĠSpa ghetti
ĠB anks
lay er
Ġp opul
ĠG ordon
ĠPr ot
just ify
ra ction
li est
ev a
R ac
ĠC ode
check ed
I onas
ĠS ky
Ġspe ech
an ne
or ph
ĠS ydney
ĠM as
alt a
ĠEx amples
Alp es
}} !
ĠA z
ĠN ap
im ir
s yn
C old
ĠK en
G il
ĠM it
ow ell
ĠA rizona
Ġdef ined
Ġdirect ion
K an
Ġw all
Ġ1 07
vent ures
Ġequ al
Ġoffic ially
26 1
] .&
Ge ographic
Ġsp oken
Ġengine er
und efined
ĠD ominican
Ser ge
Ġm otor
Ġe yes
Ġâ ĸ
Ġopen ing
Xq bot
| ]]
st adium
29 4
u ality
C rom
19 13
Ã¤ t
Ġfootball er
Ġgener ated
M art
Ġh o
UL L
ced es
800 080
ĠP ap
Ġform al
768 00
= }}
ur st
Ã© g
0028 68
30 2
y ahoo
re di
A aqib
O hio
R y
ĠW right
Ġoper ating
Ro ad
ce le
Ġ9 2
Val ue
luc ida
ĠF alls
ĠFor mer
Ġshow ed
% |
58 0
ul u
ath lete
lic ation
E conom
Ġuser page
Att ribute
Ġdri ve
78 7
Ï ģ
Ġra cing
CR IP
Ġobject s
29 2
f an
al ing
Ġw restler
Air Date
Osh wah
s and
eg a
|| &
ĠJ ordan
Cy cl
oc on
M is
ĠCh arl
sign ature
ĠP A
Ġ[ &
Bill y
st all
Ġ([ {{
LT ER
; +
ane ous
Ġ u
Ġc old
Ġc ars
p ets
es ar
um ns
ob s
Ġs ummer
ĠG all
Co at
tif ic
uc le
S on
Ġ ~~~~
Ġemp ty
ĠC arter
ĠCh arts
pri ze
Ġac ad
er ic
ĠA v
down load
ĠA DD
ĠC over
Ġtech nology
ĠChild ren
and A
P ull
Sm ith
indef inite
S han
Stat istics
Ġengine ering
ti re
Megan mccarty
ur er
Mid fielder
ĠLaw rence
Ġcomposer s
Ġfl u
ĠHigh way
) #
ĠD ES
w right
ge on
Ġy ellow
ret aceous
Ġneighbor ing
26 2
ti ans
Ã ĸ
Music ians
Ġscient ific
| @
ĠF all
oss ible
66 66
n an
M innesota
;[[: {{
ĠOb last
Ġvandal ize
//// ////
Ġh idden
t our
cast le
Ġ-- --------
eb ast
Ġ| {{{
aj a
s al
N ord
ĠAl len
ich olas
onym ous
Ġexpl an
33 4
A dministrator
ĠPen gu
y outube
ĠC arl
Ġaccept ed
Ġcop ies
K o
rib une
Ġfix ing
et ics
Ġ| #
ĠR fD
Ġfl ow
#### ####
ir onde
umb us
Do ctor
spa pers
ĠC lear
gu a
m ill
Page Name
19 15
emoc racy
28 5
on z
Ġh uge
Ġ19 38
Ġsit uation
al an
ming ham
Ġc atch
Ġ1 20
Ġother wise
NA TI
Ġw ait
ĠT rack
03 7
ĠAr gentina
cient ific
ah n
ĠR a
u ries
ain ts
for med
ĠF uk
ĠBar celona
± Ð»
ĠC ould
ĠU t
ĠMar ie
phys ics
commun ality
3 23
est ant
O ption
P k
ĠC arr
ĠC hampion
08 8
Ref erence
ĠØ ¬
t wo
J uan
S emi
T R
Ġcompet ition
, ,
m ass
v nb
I m
ĠR en
">== [[
Ġmov es
Ġent ries
Ġtech nical
Arch ives
g ary
pr ofile
ign y
ĠV oice
bill board
ĠW as
RR RR
ve ctor
P ittsburgh
Ġb rief
Ġd ra
ĠD ra
le ans
og raf
ĠA k
FF E
05 9
Ġaut om
Ġdesc ribe
' ]
46 82
Ġf ully
Ġ# {{
ĠAfg hanistan
w restler
at en
G raph
Ġin fect
ĠT ransport
Ġwould n
ul s
ĠT ropical
Ġpart ner
ĠMel bourne
Å ¾
Ġfoss il
29 5
ik on
Ġe arn
Ġfam ilies
Ġinfluen ced
Ġ9 1
Ġtw ice
ulg aria
B ou
à ³
ĠMed ical
Ġfig ures
t ran
Ġphys ical
W inter
08 7
H ay
L ewis
al ty
we ather
Ġin te
ĠA rena
Ġop pose
Be ef
Con servative
oura ged
h in
as i
ĠC zech
ĠFin als
ch or
ens on
Ġcal cul
w ing
|}}}| {{
Î ¹
ĠB arn
j apan
st op
ond o
Und id
ap s
P ont
V ictor
Ġpost ed
ĠCare y
o ing
T w
ĠR ural
Ġwe ak
Ġmon arch
77 5
it i
ĠM ount
G S
Ġsh ips
Ġr ing
Ġup per
Christian ity
un o
Ġsha re
Ġcond itions
40 158
pa xt
con f
sp el
iam ond
E nt
Ġ19 43
bor ig
ick en
88 9
Ī Ĵ
Ġst or
aur us
28 2
68 224
St aff
ĠAr m
Ġcon cent
Ġformat ting
v as
ut ing
Un iversal
hel m
ol ia
eng ers
ĠR os
Ġfont size
Ġfif th
ĠR ow
ĠJ osÃ©
Color ado
ĠF ern
eon ato
T dxiang
ĠI RC
Ġpropos al
in sert
O cc
Ġ quot
oko hama
d id
au gh
S ydney
ĠO cc
Ġ3 166
Ġo ch
he astern
ĠAccess ed
ot us
Ġh unt
ĠE uro
ĠW in
;| -
Stat ist
dd y
ç Ķ
Ġcontribut ing
I r
Ġs ilver
are s
Ġn om
Ġh its
Wh o
207 01
Ġtempor arily
Ġt rees
Ex t
ĠAust rian
or row
US S
Polit ics
Fre sh
l ive
app en
L GBT
P M
04 7
De ad
P ersonal
ĠC ircuit
ap ple
. /
c ulture
H al
S il
ĠS ix
Ġth us
refect ures
Ġcontain ing
h on
em ony
W I
ĠC her
TC N
ĠU nd
umb le
;] ;
Ġcreat or
1 000
et ta
ĠB art
Ġad op
Ġoffice holder
ĠBras ile
BÃ¤ rl
a ud
ing ham
or ney
L im
â ľ
ĠP ut
A j
07 9
overn ors
27 4
ĠM otor
ĠSt ars
Co ord
ugoslav ia
F oot
ĠS n
ĉĉ ĉĉ
eren ka
Rep la
Ġlate st
46 5
ce st
Ġ19 33
t lp
ub scribe
Ġwh om
Pen nsylvania
Ġtreat ment
Ġfoc us
fant ry
or ite
min ister
N atural
O O
ĠR ound
ĠG lobal
Al ice
Ġem er
YY Y
88 8
c opy
m illion
F ix
Ġd ig
ĠThe atre
yl er
ĠAnt onio
ĠMiss issippi
Ġmem ory
Seg unda
T oy
Re ceptie
cred its
| $
Ġe thnic
0 10
E P
Ġap art
ĠSte ve
Ï Ĥ
ĠF act
John ny
Ġdem ographics
am o
19 05
99 93
th ers
land ers
H and
Ð ¼
ĠP in
Ġcont ext
Ġpar ams
C F
H S
T ar
ĠT urn
Ã© tico
ic er
ĠS ever
ĠP otter
ĠInd ependence
ethe gus
la ir
ant o
G ary
Ġb ranch
ĠM ot
ĠHow ard
ie u
Ġe ye
ĠSc ot
Ġrefer red
CRIP TION
Ñ ħ
ĠC linton
Cast le
Pull To
al ic
B undesliga
ĠS unday
ĠPhil ip
it el
di er
Ġc ult
Ġch osen
Ġprov inces
Oregon ian
Ġex ecutive
Ġatt ract
19 06
Ġr id
ci ation
ĠN av
Ġ9 3
Hung arian
Ù Ĥ
Ġ19 36
Re ad
Ġc m
Ã¨ che
ĠRecord ed
to olt
ctor al
R adio
Ġpa ck
Ġpar agraph
ĠDES CRIPTION
J asper
N FL
Mag n
MON TH
Go ogle
Mass achusetts
ĠB u
M ur
ib ri
re ply
Ġd up
Ġm aint
t witter
in ge
"> {|
]]{{ âĢ¢}}
Ġs emi
Ġh yd
ĠB old
09 8
blo x
um ar
Ġf und
ĠN a
ĠAl b
ĠCent ury
Ren ault
Ġyou th
Ġin stance
is ms
Ġt all
qu ence
ĠMan chester
Oyster guitarist
g gs
Ġage nt
Ġext ernal
Ġwid ely
B ack
R am
ĠR un
Ġclass ification
ĠArch ive
ag awa
Man ia
b lp
s ons
×Ļ ×
23 97
toolt ip
48 5
re nd
Q n
Ġ ×
00 40
ĠD al
59 8
end ance
U B
ĠG er
e ast
o ic
ra i
D em
T ed
ĠC e
à¤ °
meter y
D allas
ĠCha mber
Ġcertain ly
n atural
K h
Ġhigh ly
33 99
ha le
Ġ onto
03 6
stell ation
57 4
in blox
ra pper
ĠN ag
Ġs light
00 80
Ġg reatest
ĠO ur
imat ely
the ns
M ik
Ġre act
stan ces
21 17
at ur
Sam uel
) ]&
z burg
L ower
Ġs ens
In fo
Ġ9 6
col laps
Ġbu ried
305 880
8 35
Ġr oute
Mar c
Ġfa iled
Ros ary
Ġ{{! }}}}
pa ste
ĠEx ample
Ġerr ors
ur day
Ġcom mercial
av ier
ab ul
}} :
ĠB angladesh
03 4
ĠAn ne
55 4
am era
Ġa dministrative
Ġan g
ĠSt ewart
08 6
up right
ud son
C ethegus
L ady
;{{ {{
sv ille
ĠAl bert
ĠWalk er
33 5
ut zer
user s
ĠR and
Ġincre ase
Gr ammy
Ġdiscre tion
ĠS H
c gs
ĠW ings
Jeff erson
Ġc k
ĠI ll
ĠH op
09 6
A bd
Ġw a
Ġpr on
Cass andra
59 0
B or
D FFF
ild e
comp lete
oth ing
66 9
ic ts
ver dana
op hy
qu a
Ã© r
ĠPat rick
ĠHit ler
37 2
69 6
d ist
re nder
del ire
Ġ6 1
Th olly
Ġch ar
ĠRegion al
) ''',
77 6
al ma
att rib
ĠCanad iens
12 34
land mark
art a
yl an
ĠBuild ing
Ġ Ä
Ġal ma
ried rich
Ġhead ing
ĠSax ony
47 5
J ay
P C
ï ¿
iz ens
Ġin clusion
'' }},
Ġs um
b est
and ro
L abor
ĠG arden
Ġrel ations
Ġsec ret
ãĥ ¼
Ġtech ni
ob i
ĠH ope
Ġch ief
pe at
F ind
ĠB ul
LE ASE
ĠPlay er
S i
k ov
ĠT rump
|| âĢĵ
ĠĠĠĠĠĠĠĠĠĠĠĠĠĠĠĠ ĠĠĠĠĠĠĠ
Ġparticular ly
St an
ĠNAME S
) ==
r idge
]] âĢĵ
In c
inter communality
ĠSc ript
79 8
ch urch
se lect
Ġw ild
ĠR oy
In stitut
Ġpos itions
c ular
Ðµ ÑĢ
Ġweek ly
Ġcy cle
Ġlim it
27 1
g ang
Ġst ore
ĠD eb
Ġp up
Ġg al
ĠPar ish
Fred erick
; )&
em ail
B Y
Ġa ware
NATI VE
ĠN BA
Ġ19 34
07 6
Ġind ependence
wik tionary
ab use
æ ľ
Ġ| +
ĠG P
^ &
Ø ¹
Ġ1 000
Ñ Ī
Ġprevious ly
Ã´ te
T ang
ĠP rad
d raw
ad ed
ĠA sk
ĠU k
ĠBrasile iro
ip ment
sc ri
ĠR ain
Ġ19 26
rat or
ĠWiki Project
ĠWh it
in stein
index Of
ĠPr odu
11 132
}} .&
Ġm ig
Ġ1 10
ĠN az
ĠÃ ī
gom ery
Beef ball
ed i
ĠB ang
ib li
aut y
ebr aska
ont ext
Ġprogram ming
33 1
l Ã©
ic as
ez uela
Ġh yp
Ġan alysis
Ġj udge
Ġ** ''[[
dfdf df
. '
is o
Ġb rowser
ĠF ixed
Ġk ilome
04 9
Ch ief
Ġair port
. [
48 3
} &
op les
Ġ9 4
pix el
Ã© dÃ©
ĠAn cient
r ons
t ransport
may ors
Ġref lect
Camp eonato
Ġenc ourage
wel lt
) (
26 02
b ro
ab c
Ġ'' {{
Ġposs ibly
Ġocc up
on c
ĠT rain
ĠD or
ĠN FL
B all
iv ity
rit ical
ĠGu ardian
:( -
dy k
Ġre commend
ĠM ike
uche ss
at al
ĠD YK
Ch Ã¢
E A
;# {{#
07 8
Book s
Ġscient ist
ĠTemp le
ry pt
Ġf iles
ĠV illage
Ġj ud
May or
45 4
in cip
B I
ĠA mb
Cent re
ĠB ear
ĠG rez
DFFF DF
n ear
Ù ģ
ĠY am
04 8
build ing
69 7
y gen
]]'' .&
ĠHamp shire
in os
as ks
ag i
ea h
Ġv io
Ġde vice
Ġres idence
Ġ19 29
ĠHar ry
78 4
; ),
R oy
n ell
x ml
in cluding
its ingh
G ab
Ġin correct
ĠA bd
b roken
nd rome
ath y
Ġimage path
ĠEd wards
ĠPort ugal
ĠWik tionary
m other
É ª
ĠM odel
ĠD er
ĠSpr ings
78 0
L ib
Atl anti
ï¿ ½
66 8
f iction
C ard
Î µ
Ġpersonal ity
Ġterrit ories
Ġnavig ational
h ill
s fn
Ġf lat
04 0
Ġla un
oly mp
Ġvot ing
\} \}
ch s
G P
M ess
ĠB ow
f iles
Ġcon stant
78 6
f eld
cl c
R unning
Ġapp ly
Se an
ĠStudi es
59 6
ph o
W M
Î ½
Ġt winkle
Ġd ed
ĠI ssue
Ġl yrics
Th ar
ĠGr ay
ĠSu preme
i est
T emp
Ð ³
eder ate
Ġclaim s
d ed
E ST
Ġr ich
Ġ9 8
ĠOr thodox
hemat ician
Ġcontribut e
Ġbenef its
c ise
E s
Ġa udi
ĠV o
ĠS Ã©rie
Ġdem onym
SU B
49 3
B angladesh
O pp
Ġm ission
ĠC henzw
Ġinfl uence
hatt an
19 09
st ation
C ensus
qu ired
ĠS imon
Ġcome dian
44 4
Ðµ Ð»
ĠĠĠĠĠĠĠĠ ĠĠĠĠĠĠĠĠĠĠĠĠĠĠ
Ġman agement
Ġdist ribution
186 43
meta wiki
rill er
det ail
Echo Bravo
J am
ĠK y
Kat erenka
ĠS elena
ĠC ole
J ordan
59 7
id i
sol ute
H C
V ietnam
ĠC ontribut
âĢĶ||âĢĶ|| âĢĶ||âĢĶ||
ĠArab ia
le nd
oc ene
B abel
H appy
large st
ĠDen mark
Ġinit ial
68 9
Ġg overnor
Ġ å
ĠM exican
Ġcond ition
op es
Ġlearn ed
ĠGu y
n hl
Ġm ixed
ĠB ox
ĠR ub
Ġart s
Alp ha
e es
w ords
ra k
Ġent ered
ĠHistor ical
Ġd ry
ĠB or
Ġattack ed
ĠQueens land
c nn
ter nal
L P
Ġ ens
Ġ9 7
Ġsuggest ed
c ities
iz a
ib et
03 8
Nav box
Ð° ÑĢ
U l
restle Mania
f inal
J ournal
08 10
ĠV ery
ĠSec urity
noc ontext
ĠAdmin istration
Crom wellt
et ition
L igue
F riend
Ġs leep
ĠR ace
m is
en ing
ag ger
Ġbig ger
ĠFin ally
f acts
m ountain
Ar sen
K ings
Z E
Ġh all
ĠO tt
Ġadvert ising
33 2
Ġh ouses
Ġg lass
Qu ebec
Ġtransl ated
Ġ ut
at us
it ness
ann i
omm y
Ġsp an
Ġpri or
Jon athan
ent o
ile n
ban ia
iger ia
im mer
K a
ĠFin land
ub i
R ele
Ġst one
ĠH as
ĠMore bits
h ism
ff cc
Ġd rugs
ĠG re
Ġfin ally
amm al
ad u
Ġpri v
Ġunderstand ing
TE NT
B os
P ath
ĠOs aka
. [[
p ole
our ney
Y ellow
ĠT ak
ars on
ime ns
F ull
N azi
sub mit
v or
od ium
J ason
ĠS l
ĠA bb
ĠN ation
imp erial
ĠR yan
Ġ|| &
ĠSt ep
ied er
Ġtyp os
Se attle
Ġsubject s
Ġearth quake
d Ã¨che
ang le
av ed
zer o
Ġr adi
inc orporated
ĠMove ment
han na
Ġproper ly
a led
Ð° Ð½
Ġindef initely
Ġk new
wh ile
Ind ependent
Ġwik t
ĠTwinkle Config
55 3
Ben utzer
scri ption
. ]],
sk a
aract ers
Ġconfir m
le ts
C ambridge
Ð ¨
Ġre cipi
Ġuser space
Ġconnect ed
st ract
pa re
U nder
Bal timore
ill on
Ġ arr
ĠL at
}}} ]],}}
gue z
ĠG irls
Ġcommun ities
ĠA ssociated
Ġh ook
Ġag reed
45 220
O ak
w arning
Ġb rand
ĠU sing
ĠComm un
hyth m
Ġ1 05
Ġpl us
= [
ct uation
res ol
ĠD em
Ġname space
Block inblox
ĠCo oper
suff ix
10 16
he alth
I ron
Ġ( !
Ġhe at
Ãī rico
B oeing
E th
ĠCh ar
Ġdirect ors
F ace
Y okohama
Ġa stron
ĠC ass
ĠR aw
erd in
Ã Ĺ
Ġfl ows
Ġarch ival
bw cgs
Ġâĸ ª
z an
L ord
'' |
Ġb iology
Ġweap ons
38 5
ay e
F ei
ĠL abour
29 1
so ci
ik ing
ĠD VD
CURRENT YEAR
43 4
le w
E agle
10 10
g on
my thology
ell s
18 79
od or
H A
Ġh ol
u aries
pl ied
ĠM ik
ĠUnder ground
Ġv en
Arab ic
n ers
est yle
pl ant
P hot
ĠVol ume
h of
as of
pr ise
Ġc orn
NA L
ĠDe pression
Ġrece ive
ĠPeters burg
me ind
co ck
ĠE ver
in ing
Ġst raight
Ġdem on
ĠSpr ing
l sea
me m
St ryn
ĠU N
ot ed
ou red
R ap
Ġw rest
ĠV II
V illages
W y
Ġ1 03
Ġ19 32
ĠPro cess
umm it
) }}|
ub st
ov ich
Ø Ń
ĠN ar
F er
ĠN C
Que ens
Min ister
F ULL
S ie
ĠJ uan
ac on
B ey
Ġgrow th
deb ut
al ph
st own
02 1
ĠAust in
Bob by
8 42
h at
is ha
ock ing
az e
ĠReg ards
ĠSong s
p ersonal
talk page
talk header
B O
T O
W restling
ĠD eng
hamp ton
Ġorgan izations
or ced
ffff bf
gener ated
ĠTh ird
Ġbr own
att ack
49 89
s burg
im ming
M ars
imp ortant
Ġstat s
à§ į
dÃ© partement
Pk bwcgs
26 01
45 3
56 5
se nter
C lean
79 6
ro id
ou v
oj o
mont on
m useum
Ġc rew
ĠC ri
ĠL yn
Ġco vers
ced ed
Ex ert
r um
R ain
S af
ĠD C
04 6
47 4
ed ucation
il ip
S uffolk
W B
unes co
Ġfact s
Ġpot ential
Ġm ult
ĠN ick
ne um
ut ton
ĠB an
ĠK ashmir
}}}}} &
irl Boy
Ġexpand ed
W ales
ĠEx pl
amer ican
e in
l ib
Ġf ly
ĠO range
ĠDo es
68 7
Ġb reed
ĠF oreign
ĠE gyptian
ĠN orm
Ġsp irit
w ald
ay er
ow der
C as
M iami
ĠM organ
ĠL td
omin ation
Ġfe lt
Eur o
46 4
Ġac tivities
Ġlat d
Ġcapt ured
43 2
v oc
H ill
K rist
T emplates
Ġs yn
Bat man
um bria
R ose
Ġh orse
Ġ19 31
comm unes
Ġlang links
Mat ilda
T her
Ġm ode
}}|| {{
borig inal
d elivery
l ime
use Rosary
N ED
'' ).
ĠL am
Th ree
79 7
cl ick
comp any
Ġflo or
n as
ine mat
up load
rain ian
I g
à °
qu i
ĠP i
ĠN atural
IN E
Ġneg ative
Ġob j
Ġint ended
ĠMun ich
Ġwe ather
erm ont
Ġwik Ed
w omen
S ix
Ġ19 35
Ġ19 37
Ġinterest ing
link ed
Ġtrad ition
hib ition
efef ef
j oin
if ier
ign e
ĠF ive
ĠD ick
ĠD og
Ã¡ s
9 15
St ep
ĠApp le
Fei Bot
53 1
88 7
ti er
ff df
M i
la ma
bin ation
C P
D u
Ġ19 28
unt ime
err ing
ĠBrit annica
in us
ar ial
Pok Ã©mon
. ]]&
E vent
Ġt rib
ĠM ars
ĠL uther
Ġapp ointed
administrat ive
up s
gen re
vis ed
ĠC ant
Ġhold s
p rom
man ent
ha usen
A fter
Ġc ultural
07 0
clo se
Ġsepar ated
ch at
W ild
Ġf ilms
Ġp le
ĠO regon
ĠBoy s
394 147
mptom s
B and
H art
Ġs election
D ick
Ġlong d
KL Bot
Yi FeiBot
46 3
j un
ĠC ulture
ĠRe cent
ĠSec ret
2397 10
47 1
it ty
int owns
}} |&
ĠM aster
__ |
g ment
en cyclopedia
B u
W omen
St orm
8 13
M od
T X
Ġsp ot
ole on
ĠNor way
hemat ical
ĠBeat les
se m
A sk
Ġt rial
Ġtw intowns
Ġprin cip
37 5
Ġb right
roll er
et o
name space
Ġl iter
ĠF eb
]]''' )
567 10
z ep
um er
ap h
tw inkle
ĠS ites
iv ia
w alk
4 22
47 3
al con
00 5
Ġ19 18
Ġtour nament
ĠBru ins
Ġpass es
Ġprom otion
h ig
D ub
D isease
M W
Ġb at
ĠM oving
Gr ind
Ġtrans fer
Ġjournal ist
uda ism
en z
ar in
Ġs ides
ĠP LEASE
ĠE ner
ĠD u
ĠIn stru
ĠPol ice
Sw irlBoy
id al
T Y
V ar
Ġbe at
Frank lin
c lean
Ġm ountains
Ġse al
cient ist
Sha ppy
Mon aco
b one
re ams
pa c
stat istics
lad imir
Ġpaint ings
ley ball
ou ce
Atlanti ques
man uel
ons o
Ġm otto
Ġco ol
oca ust
Thar nton
= %
ie v
H ong
cele br
ed ia
no aa
ind ependent
Ã© t
18 64
gin s
Ġb ra
Ġinstru ments
g re
th y
ro ot
K u
K os
ĠBar on
; ?
ili ar
n ut
ĠA st
ĠR i
Ġcar ried
57 5
an ing
ber to
C ook
R aw
S O
mat hematics
Ġmaterial s
Pers ian
ĠOrgan ization
28 66
R ight
Ġme ss
Album s
j ack
ack Down
Ġ serve
Ġhigh light
LA M
N avy
ĠM os
Wind ow
Ð°Ð ±Ð»
id ges
om on
ure en
Ġt ask
Ġc ouncil
Ġproduc ers
Ġupd ates
P D
ĺ İ
06 2
Ġad ult
48 4
en berg
Ġt aught
gr ic
Ġnow rap
c ert
ed e
R ad
Ġb ird
Ġ([[ :
Ġout put
37 3
ish i
06 3
en cer
N L
V ice
06 5
05 6
Le ad
UN ESCO
Ġcla imed
Ġnum er
19 03
qu al
ĠS im
ĠSt ephen
Ġview s
Ġauthor ity
pect ed
s ites
sp ect
G am
ĠH ans
ĠF errari
Ġ19 25
lo ve
ĠW riter
uss ex
Ind iana
ĠTr ust
es ch
ob y
A Y
S ea
V ille
ãģ ®
Barn ick
a iled
c ategor
v it
M os
ĠM RT
ĠL ands
Ġsouth west
Ġsex ual
i ques
s ci
ve lt
ress ion
Î ·
Ñ ĸ
t el
ink i
P ul
Ġman ufact
Ġbas is
agen cy
Charl ie
ch aracter
he at
L eft
Ġst ick
Ġrele vant
AR G
ĠTur key
} );
r ant
I F
ĠS ri
ĠI m
00 01
Ġor g
Ġaut omatic
Sm all
Sat urn
Ġrespons ible
e ce
m ultiple
ĠP unjab
ĠR ica
Ġdo c
heim er
Ġcollaps ed
v oy
ĠN ev
Ġch arts
George Barnick
ĠRuss ell
le ad
ĠD ays
ĠSha kespeare
Care er
ent on
dd dd
Ġh ospital
ĠF A
Spe edy
in fl
sc ha
blog s
ound ing
Ġcom pared
Atl anta
16 17
cent ral
ĠF ull
Ġcomb ined
Ø ©
Ã¨ ge
ĠPh ill
Ġ~ &
r oute
ĠH ig
ĠMay be
alle l
/ }}
m ac
p ic
Ġt on
|| âĢĶ||âĢĶ||âĢĶ||âĢĶ||
ĠPr ofile
38 3
on ian
sm ith
S hip
ines sman
CE T
cient ists
Ġarch itect
flat list
ama ica
'' )&
Ġill ness
Ġeconom ic
( (
* &
69 8
st ock
de vel
ex ample
che l
C it
ti ms
O ur
ĠL iving
col lege
Ġop p
Ky oto
on el
re search
A fg
K ir
Ġd rug
ĠA mendment
olog ies
Rh Ã´ne
Ġactivis t
49 4
l ar
inter national
19 01
R US
ĠD ub
az a
NAME SPACE
ish ment
h it
es c
ger ia
Ġrem ained
All music
amer on
05 8
Ġhand s
Ġworld wide
Ġput ting
Ġresp ond
W arner
C leveland
Ġb roke
br and
Ġco at
43 1
ud ents
so cial
ob iles
own ed
ĠV irgin
Ġtra ins
m usical
he it
Ġ19 19
ind ia
Ġb ound
Ġspe aking
Ġcr ash
ri ors
ab b
P ij
Ġc ircuit
ĠJ ay
Med ia
Ġdocument ation
phan t
Miss ouri
resp ond
s um
in ction
ra ham
I celand
ĵ ]]&
Ġcomp osed
Ġĉ Ċ
road way
;â ĨĴ[[
h list
ain te
Ġr ot
uns igned
|âľ ĵ]]&
67 6
03 5
stat ic
g ie
x fd
bor o
Q andA
Ġ ì
ĠS ilver
ĠE r
rol led
06 1
05 1
ib l
Ben jamin
ĠWikiped ians
l Ã¨s
N BC
Ġ19 22
ĠPer formance
ric tion
M ichigan
ĠJ am
occ o
d og
uc ed
G re
J ane
ĠP ok
And re
ge ne
pa st
A zerbaijan
ĠR ico
ĠTh ompson
Month ly
; -&
= ''[[
A ction
L abour
R ic
Ġ ÙĪ
Ġm ill
ĠJ ava
Ġfun ctions
r ine
mp hony
N ussbaum
Ġ Ùĩ
Ġst aff
ĠO K
0000 8
Nor man
Res ult
(?: \
Ġsaf e
ĠAthlet ic
Ġextreme ly
ood y
Ġappro ach
p ark
A Em
L ost
P y
Ġprom ote
ĠMer it
ear l
ĠDo ctor
cell or
Bru ce
Ġcycl one
f ounded
page obj
;â ľ
Sing ers
68 6
qu ir
Phil ippines
ĠParalymp ics
å ħ
ĠW here
ĠN elson
Ġr out
Nor wegian
ĠLo ire
77 0
; --&
h our
mi ere
D VD
E ntertainment
V ari
Ġcount er
Ġcorrect ly
Lo ire
PullTo Open
log s
ena issance
H ollywood
K umi
ĠH ollywood
ĠWay ne
cl usive
tl x
J e
J esus
Uk raine
j ohn
Ġc ategor
56 3
; _
time line
Ġre name
Block ed
Met ropolitan
Ġport rait
Ġargu ment
elt ic
ĠCome dy
Qn Pij
AEm EC
QnPij AEmEC
d ra
ab in
D am
con firmed
ame ters
ug hes
Ġvandalis ing
n ature
ere e
S her
ĠV III
Ġr isk
Ġfollow s
Mer cedes
ĠSe ven
Ġeconom y
Ġthous ands
ull ivan
A bb
Ġc e
He ader
apt ist
ap y
P ra
Ġ ~~~~&
Ġgrow ing
18 99
m aker
in ch
vi er
P ower
for mes
;]] '''[[
Con stitution
ĠGra ham
37 49
Å £
Ġwh atever
Ġpro of
Ġcomp uters
Te gel
ĠV ice
Ġinter wikis
53 5
L W
SI G
A U
A wards
I useRosary
Y ork
Ġcl ar
aut omated
ĠChan ges
ĠTor onto
à ¨
Ġst reet
ĠSt ev
cale ndar
Ġexplan ation
For mat
Ġ1 08
ĠG othic
trans parent
in burgh
im o
Ġ à´
ĠO ct
g io
B ol
M oscow
N ow
S ex
ĠIn stead
cu le
Ġrevert ing
pa s
T s
ĠPer cy
clar ation
Ð¨ Ð°Ð±Ð»
55 1
au er
Ġfor est
Ġsh ield
Ca pe
un is
N ominated
P ad
Ġa head
ĠW alt
Ġcover age
ĠOper a
46 2
us ch
es ubst
ac le
A u
ĠD ance
ĠĠĠĠĠĠĠĠĠĠĠĠĠĠĠĠ ĠĠĠĠĠĠĠĠ
Ġpo em
KS K
ĠWy oming
Kumi oko
58 5
ĠB lo
Ġkeep ing
ho sp
ern ative
el ve
ina e
of year
E vents
J et
Ġ1 09
M aster
Ð ¡
urrican es
? ]]
l ower
m arriage
s am
hs il
Ġca using
Ġbrother s
id ers
cc i
pro xy
vg release
Ġd inosaur
Ġmer ge
Ġemp eror
ford shire
ĠW onder
ĠG ib
ĠFor ces
ĠQu ebec
Spr ing
ĠDef ense
m isc
| /
net work
Ġb odies
Ge org
Ġyoung er
13 75
R io
Ġt ot
ĠRe al
ĠYork shire
à¦ °
38 4
h idden
T ran
ĠT ar
ĠPhil adelphia
Ġspecific ally
|* ]]
ĠC ruz
ĠInd ependent
Ġpar ish
ĠTr ade
Can cer
âĪ ŀ
Ġalter native
56 4
F all
R ound
ĠW ing
BA J
erdin and
45 00
Ġc ricket
Ġcheck user
Ġnear by
ecut ed
ist ed
W here
Ġth inks
ĠCh ronic
s ound
z eg
ne ur
ub an
lic ated
B ell
]] ]&
ĠM ill
ĠAnge l
Stand ard
Ġ{{ -}}
ĠP latinum
ĠR ole
ĠD ur
Sc reen
Ġagree ment
pir os
1388 47
Ġslight ly
46 1
it us
ay ing
ist ical
Ġact s
Ġset s
88 6
n ail
R ank
44 2
47 2
ĠØ ¨
48 1
fo x
L ud
Ġ Âł
Ġatt ended
44 1
ud an
est ar
Ġd ollar
Ġpa id
ĠMet ro
Jon ny
Ġ{{ *
ĠB aker
ĠR FD
Br idge
ĠAd am
l ik
el led
H P
Ġt ennis
Ġw ond
Ġp owers
ĠC am
Ġperform ing
se ct
ly r
Ġt ries
ĠV ictor
Ġpl ate
ĠPr otect
Ġelect ric
S Ã©rie
ĠL ate
ĠL av
ĠL eft
49 2
P ass
ĠL iterature
ĠK o
07 2
Or phan
ĠPl an
cent ury
in cre
pa ir
au k
ĠPer ry
But ton
ĠSupport ing
hu a
Ñ Ĩ
Ġb ought
Ġstate ments
pol lo
Ġm aster
ĠC O
Ġcomp ound
ne u
st ories
J ud
ĠJ ud
Ut ilis
Kent ucky
Clark cj
Ġc rat
58 4
m ut
w ashington
og an
Ġn uclear
Ġ' $
ĠDes ign
39 5
e val
oc us
Ġa dvice
ĠL ost
bour hood
oc ese
ose velt
IP S
ĠØ ³
Del inker
2117 34
t al
lin ed
im i
S id
ĠB asketball
06 4
Ġun iverse
}}}| {{#
g ow
ran ger
Ġ1 04
Ġent ertain
Liver pool
99 4
H O
Ġan imated
p ie
ather ine
C BS
E U
G all
N am
V ancouver
ĠCar los
ait i
Lin coln
it ol
av ia
br ow
Ġ19 24
Ġ19 27
wh c
roll ing
Ġking dom
ĠL ow
ãĥ ³
ĠBrazil ian
le in
chi at
å ®
Al aska
Car los
UC N
Īâ ĸ
h ide
N uclear
Ú ©
Ġ ess
Ġst ands
ident s
Ġvol unt
Chord ata
×ķ ×
18 98
count er
ĠR ad
Ġex ception
Ġpop ofyear
Ġdecla red
N ar
S oci
ĠSh ould
w mf
D un
Ġf arm
Off ice
56 2
pro vide
pl ane
W al
ĠB ir
ĠSm all
Ur ban
ĠRef erence
ĠEner gy
59 3
v ador
it ter
mon obook
I w
K i
ib or
36 4
l ish
w restling
'' ;
ĠC as
stru ct
Aut hor
ĠBas ic
ĠRh ine
38 2
Ġw ounded
Ġauthor link
45 1
p ot
Ġ ;)
ĠC ultural
ĠO t
yr am
ĠPhil ippines
Ġvari ety
arg au
7 79
is land
ies ans
mer a
C ase
H R
J ose
M odern
ĠK an
ind h
Ind o
Ġcar bon
Ġorder ed
ĠPage s
iesans delire
D T
H indu
O cean
Ġret urns
ĠOr chestra
37 4
b lood
V P
Ġ à®
ĠM otion
And y
occ upation
57 3
ub ble
D ragon
18 89
all music
C ham
J ess
M odel
ĠInter view
ened ict
ef an
Ġt end
alen cia
76 0
h ref
set Attribute
sm ission
ĠR aj
Ġimpro ved
S oul
Man iesansdelire
andid ates
in v
V irgin
ĠAnt i
ĠMic hel
ĠP ic
( {
im g
D or
J os
M ill
Mar it
Ġli brary
ha k
C LE
Ġs ky
Ġm otion
Ġmark ed
ch ris
ĠR E
ĠD igital
Ã¼ ber
ĠAnt hony
Ġth er
ĠA ges
ĠF am
anch or
11 11
O rd
V Ã¤
gr ade
enn asis
izen ship
ier ra
Ġb road
Ġp iano
br on
Ġfriend ly
ebast ian
ĠW alter
gr atul
]]''' [[
ĠHar rison
ĠWork s
en zo
land o
mit ted
H UN
M and
Ġstand ards
_ ^
pr oper
E sc
ĠM urray
Ġh at
ĠD emocrat
ĠCon vention
Ġphr ase
un ciation
L B
Ġcred it
Ġpresent ed
Ġphys ics
67 0
en er
ust av
Ġh y
ĠB enn
bl ader
Ġdisplay ed
us k
ĠE th
Qu ery
ST R
ĠThere fore
ch in
Louis iana
Ġph one
ope z
K on
Ġt icker
ĠA isne
ĠF urther
c reated
ult an
Ġ19 23
Ġwork ers
Ġco authors
Ġpl ans
Ġpri me
d igital
Ð° ÑĤ
in ent
P lat
Ġf aster
Ġte en
Ġdefe at
Ġconc ert
ut ter
ston ia
C up
Ã¤ ng
L as
qu is
Ġche mistry
54 2
v ity
em blem
Ġcent uries
Ġwrest lers
ro se
pe nt
Õ ¡
Ġw inter
Ġm orning
ĠC E
Ch art
Ġread er
CE ST
Ġvot ed
7 08
? }}
Ġ %
Ġp references
ĠS hip
Ġ19 17
amm als
in ity
od ore
ome try
ric t
qu ire
Ġb attles
Ġ{{ [[
Le gend
Commons Delinker
Ġmod ify
Ġwhe el
fam ilia
t ri
it zer
ur assic
top ic
C ond
M es
Ġf an
Ġacc omp
Avic ennasis
H it
W F
Ï ĥ
ĠC retaceous
Ġapp lied
ĠMar shall
og ers
O ri
Ġn avy
ĠB ah
Ġam bass
Ġsport speople
18 21
ĠInc orporated
Ġregard ing
ÙĪ Ø±
ic ode
ers elf
ha g
ĠH end
? )
cal led
S ony
wiki quote
Ġacc ord
Ġprov ides
Ġcit izens
d est
k eley
ci ple
Ð £
Ġc ite
Ġbe autiful
elect ric
ĠEn vironment
: [[
un link
un ranked
S WE
ĠM aine
Ġ3 60
Ġdiscuss ed
Ġpl anned
Ġmethod s
58 1
F ern
Ġ19 21
Ġab bre
Ġo vers
ĠM usical
Col lege
ust rated
S lam
Ġ les
Ġn ov
Ġpro xy
ĠComm and
s outh
t emplates
ew ard
â Ļ
Ġd l
Ġd ictionary
ĠM att
Ġstyle s
Ġr andom
n ate
dr ama
Ġche ss
5 21
69 0
F el
S olar
ĠR ounded
79 0
m ier
v re
or ia
M TV
ateg y
ĠG ate
]]: &
áĥ ĺ
Ġcit ations
Ġoppos ite
18 65
an imal
as ures
Ġm oon
yl um
Ð¨Ð°Ð±Ð» Ð¾Ð½
ĠW ed
Col leges
Ġconf used
ĠSte el
Ġ^ _^
gric ulture
C B
F ont
ĠC osta
ĠRem oval
j er
re ck
L eb
ele ment
hes is
Ġpass engers
Christ mas
ĠJo han
Ġconfir med
anth rop
M it
Ġt a
ĠM ans
!-- [[
ĠRe member
ĠPl ot
Ġrelat ive
9 66
d ab
U ruguay
Ġ ur
ĠP res
Ġe ggs
ĠComm ander
A rizona
Ã¤ n
clo s
PP P
ile nt
Ġf ir
Charl otte
Avic Bot
pr on
ĠP ersonal
ĠD raft
auto generated
c up
c ross
red ir
ag ner
qu in
''' ||
Sar ah
ĠPhys iology
ĠSH ORT
b org
ĠS af
Ġex c
omb ard
Dou glas
dyk talk
68 572
og ram
Ġf ruit
ĠCol lins
68 0
c are
s impl
ap on
Ġl iber
ĠR ick
Ġsee ing
ge ns
ven ce
eg ro
Ġbe ar
Ġpol y
Ġef fort
o il
le z
B lood
P arliament
Ġre sc
ĠL ang
Ġr untime
Ġprogram me
lor ide
D one
T aiwan
rat ings
ĠPhys ics
35 2
Ġth read
ĠE s
ĠOr leans
stitut ions
Ġhappen ing
Ġlon gest
= \&
Ġund one
ĠGr ant
ĠFrank lin
ele ss
03 1
ll is
ol an
ran ean
ĠT an
ĠC L
Ġdis covery
col lapse
Ġvis ible
h arm
ang ed
od ia
J erry
ĠC op
ĠD iff
ĠD onald
Is aac
Ġexperi enced
58 2
n orth
de ep
P ot
Am anda
Ġloc ations
President s
38 1
r ub
le gal
I E
pos es
áĥ Ĳ
a ire
n is
ri or
he y
M ick
ĠT al
ĠC A
ĠĠĠĠĠĠĠĠ ĠĠĠĠĠĠĠĠĠĠĠĠĠĠĠĠĠ
ĠN epal
Ġso ver
Ġdis p
\{ \{
iz ont
Ġphil osopher
Ð½Ð¸ Ðº
55 2
ual Editor
ĠA LTER
ĠF ather
0000 88
99 3
Ã ¯
user box
}}| {{
Co ol
Ġinvent ed
H ey
Ġs oft
ĠW oman
ĠDeath s
neum onia
. ;
59 4
Ġn a
ĠJ a
pri me
Ġ== =[[
ĠD oc
Ġun i
ĠDe vil
529 5
ĠALTER NATIVE
Ġ archiveurl
iz er
ĠK ir
Fran ces
SPA N
soccer way
49 1
W isconsin
Ġh urt
ĠH al
Che m
Ġdou bt
? </
A y
}} ''
ij ing
Ser bia
journal ist
au ge
N ext
ĠG ro
Ġshe ll
ĠCom ic
ĠBru ce
36 1
58 3
h im
s ince
å ¹
Ġst rip
pe st
ĠE nt
Ġpri mar
ĠMin isters
57 1
; ]].
ge ology
od ed
ast ic
ab i
T u
ĠC uba
Ġremain ing
islat ive
CURRENT MONTH
Ã©dÃ© ric
il g
D O
P hoenix
T ell
à¤ ¸
ĠB eng
Ant onio
53 4
ach t
B usiness
ĠA gu
Ġv irus
Ġr ad
Ġind ex
Ab raham
it oba
J ennifer
M un
Ġf ans
Ġst rength
Ġocc urs
B ul
Ġm odule
Ġk ills
aj i
ĠChe mistry
Ġes cape
ĠChristian ity
qu ency
Ġthe me
ĠO S
in ian
Ġhe ar
Bel le
Ġentire ly
Jac ques
C our
H D
P uerto
Ġt ab
]] --&
ĠF arm
Ġca pacity
Ġgr ammar
ack er
B uffalo
F K
I M
Ġf alls
Ġre p
ĠU su
Ġdesign er
116 449
Ġ---------- ----
59 1
ti le
mer ce
Ġn ob
53 2
s an
at ers
Ġ quote
Laur a
ĠUt ah
> #
A in
Ġc antons
as ha
P u
Ġthe atre
ĠCont rol
c id
ĠE ight
Ġdrop ped
ion ale
ash ville
04 1
Ġap parent
Ġset ting
an u
ult y
T ok
ĠH ong
Ġcons ists
off ee
tele graph
Ġaccur ate
er ate
ian ist
ĠS ad
ĠR est
ĠN ova
Ġgu y
z on
na eus
Ġs ales
ĠB ird
ĠY ank
Ġcont est
Mar iah
Ġknow s
Ġmet res
To ols
18 96
54 1
ĠE rn
uff y
Brown E
59 2
f el
s is
]] ===
Ġthe or
ĠD ist
Fresh start
g ames
am us
ort able
ig ions
B our
ĠC ou
ivers ary
Ġaffect ed
psy ch
Ġb udget
ĠS in
ĠPr ofessor
asc ular
ĠMa ureen
ĠUr ban
ful ly
ail les
Ġrequire ments
28 77
D ia
S im
nb urg
Ġ}} </
Ġfin ish
Ġ:: *
Ġval ley
Ã§ ois
la u
Ġ2 20
ĠO h
Ġfind s
imat es
Ġconf ig
mark et
ul i
last ic
ĠL ieutenant
ote in
gress ive
âĪŀ '''&
che z
M ountain
;''' âĪŀ'''&
ĠLe ad
|- |&
estar Fan
ag ers
F ast
Ë Ĳ
Ġneed ing
99 2
T aylor
U lt
Ġ æ
Ġt un
Ġl if
|}}} #
Ã¼ rich
1 1980
89 6
g ne
Ð Ł
Ġme dium
Qu antum
ov anni
Ġpol l
j ud
um ing
sh op
ee q
ut a
D uns
ĠS now
ĠF rid
writ ten
ĠHistor ic
board s
Sec retary
Ġdet ail
g iven
Ġb orough
ĠG a
Ġcontrol led
Ġoption al
ĠC ors
Ġrecogn ized
Cycl ing
18 61
D L
P ara
]]) .&
;}} {{#
Ġfeed back
69 3
p ip
ro v
ob ject
N Q
Ġper manent
ĠFor mat
Ġover view
ĠPl anet
Ġopin ions
ovi Äĩ
ran e
Ġt reated
Ġb rack
ĠSen ators
Ġbre aking
56 1
n asa
N ature
Ø ´
FF CC
Ġear liest
raz y
ĠPre vious
ĠMap le
er i
uk k
D uke
:| '''
Ġoff er
ange l
Ġdanger ous
ond ay
S weet
Ġv ictory
rele ased
b iz
es is
Ġ'''[[ :
Ġreg istered
c lock
H ouston
Ġreview ed
||âĢĶ||âĢĶ||âĢĶ||âĢĶ|| âĢĶ||
ort e
Ġ{{ Â·}}
ĠN as
uns ortable
Sur vivor
Mu hammad
46 47
al pha
ass in
K A
T BC
}} }}&
Ġbe y
ĠC ow
Ġat om
05 3
Ġpriv ile
C L
ĠB rian
ĠL ib
ĠN AS
ĠN acional
ĠSever al
s ence
z ig
Ð° Ð»
08 3
Ġsec urity
izz ard
ymn ast
18 90
pp ing
Ġp g
Ġg irls
onom ous
Sant iago
Johan n
ĠPrad esh
v ote
st rength
ep per
med icine
ĠD NA
ĠO il
Ġpre pared
Har vard
Mel bourne
ron ology
S em
Ġ2 24
545 4
m are
Ġb aby
Ġwill ing
Ġmodel s
ĠScot ia
5 22
ris e
ĠK id
Ġlaun ched
od ge
ere k
Ġ-- ----------------
ĠIn fantry
Ġdis establishments
ĠAr menia
]]{{Â·}} [[
islat ure
g ery
ar an
han tom
right s
S W
ĠP ra
05 2
ĠNev ada
or ti
la f
A UT
W on
Ġ establish
protect ed
Ġcook ies
d ance
C ON
N ight
T amil
ĠI ch
Da vis
ĠAuthor ity
78 1
av el
E X
V or
Ġc alls
ĠM onth
ord e
ordin ary
Rh in
Mus lim
Original AirDate
ac a
I mperial
Å Ħ
ĠAir ways
Ġpermiss ion
Gr ay
ĠRes ults
Ġdescription s
37 1
as co
J V
Ġt error
ĠP ope
ĠChe ss
FI FA
contin ental
obit uaries
Ans ei
Ġl ock
ĠB oeing
Comm une
Ġform ula
Ġexpect ed
Ġ1 25
Ġincre ased
Imp ortant
Uns ubscribe
kit ty
lab or
A thlet
L it
Ġst ock
ĠN ik
b rook
F O
S ock
S ainte
Ġt urns
ĠM i
ĠF ace
;!-- [[
iv ore
Ġsecond s
Ġdesign ation
Ġsy ndrome
34 2
Ġs ac
Ġflag s
Ġequ ipment
Ġdiv orced
Ġsimpl ifying
K am
09 1
Ļ¥ &
Common wealth
44 18
ok ing
R oss
ĠW ould
366 48
ĠRele ase
ĠEv ans
is cher
ro b
ov ic
H uggle
I am
Ã ½
qu er
ĠSt range
Ġfind ing
Ġfr ame
editer ranean
99 5
ari us
ug by
L aren
ĠD etroit
Ġ19 10
07 1
Ġmap s
Ġmed icine
peat Vandal
on ents
S out
Ġ imple
Ġc ore
ĠP ont
Ġle gs
Ġmain tenance
Good vac
Ġadop ted
18 63
ug a
ĠS i
Ge obox
Ã¼ ss
met ric
Ġwat ers
at che
N elson
ī Īâ
Ġs ons
Ġbu y
Ġâ ĪĴ
Rob in
orig inal
Ġbey ond
in als
re ne
it ial
co le
form ers
C roatia
User box
Ġk id
07 3
um ni
H oly
Ġb atter
ĠH aute
ĠK al
CO M
ille gal
Ġconf erence
cal ibri
X box
ĠI r
ĠN ak
rank s
ĠPen insula
ĠSand ers
ĠWat son
Duns ie
S ac
Ġd ress
ĠM ind
ĠP ot
ĠE vent
Ġnot ed
Ġtw enty
lo b
fe atures
Ġm ine
Ġprodu ces
ĠChrist opher
f urt
ig s
ĠĠĠĠ Ċ
]]. ''
ĠHol land
59 5
ly mouth
ir ates
Ġs ulf
Ġs igns
Ġdele ting
89 8
G F
Ġpe oples
Ġrelat ives
stad t
c amp
st ed
at su
ĠV illa
Sp ider
ĠVers ion
True CR
d etails
ous ing
ĠF u
ĠK h
ĠK az
04 5
Ar gentine
Ġ:: {{
IK E
Utilis ateur
gratul ations
43 1902
89 7
ay ama
art he
bel ow
ĠB ach
Ġsha ding
Em my
39 2
T urn
Ġm ot
ref erenced
Ġg ain
ĠJ u
Ġreplace ment
= _
ar my
ik h
Ġp sych
ĠGu inea
lect ions
Ġtrans lat
Ġ('' '''[[
m os
ti vely
B ass
Col ombia
Ġlik ed
pup pets
; --
v ens
un ion
op t
uk as
R W
ĠB ed
03 2
ember g
Del aware
lenn ium
Usu ario
P os
Ġin sp
Ġ1 30
not able
AN G
DF DF
Ġcustom ize
form ing
L lama
Ġt ributary
Ġc hampions
war f
;]]''''' )
Ġprison ers
ocon firmed
te al
la ve
vis or
ĠW atch
Ġ18 0
Ġdiff erences
ĠSer vices
Go als
ra ch
em ia
m otor
v id
us ual
04 3
ĠNot able
Ġhead ings
Ġvehic le
Ġgoddess es
Comet styles
18 00
ow nt
nes day
08 1
Ġra ces
Med ical
ĠMan agement
en es
ph alia
ĠL ion
Ġlic ense
98 7
new bies
L arry
tre buchet
lo o
B us
D NA
igh bourhood
ĠAd ventures
! ]]''
se ud
lo se
uan ia
ĠT her
Ġtrack s
ĠGi ant
Ġ^_^ ]]
ai red
H on
U z
Ġ1 13
Ġrevision s
f le
F lat
å ı
Ġre volution
3749 81
TrueCR ays
at l
ina cc
B ri
Ġphil osophy
Opp ose
n ar
un iversity
D et
S ri
iv id
ch ief
or b
ill ing
Ġc ited
Ġf ell
ĠT ree
ĠC ritics
Īâĸ Īâĸ
78 5
re ach
Ġsc ene
|â ĺİ
en ergy
el ine
M em
R aj
ped ition
Ġ19 14
iam onds
mosp here
ĠPA GE
18 95
Ġ/ **
ĠV ic
78 3
el n
ers et
ath on
ĠSt udio
Wel sh
onge Bob
Ġach ieve
Ðµ Ð²
st age
ov ina
C ell
G allery
į ]]''')
ĠPl ant
Pok estarFan
|âľ į]]''')
ĠProcess ing
us age
C NN
08 5
ĠAr ms
Great er
; ^&
gin es
can cer
M eg
U sing
Ġt ribe
ĠAn na
re views
it aine
ok es
pr us
D igital
Ġcon version
Sc ore
ĠGra ce
ĠRevolution ary
Ġpref ix
Ġaudi ence
th ree
ot i
ant ine
D epartment
Y o
Ġc rop
Ġl ose
Ed ucation
Le vel
As ian
Ġsk ills
inc inn
Ġsing ing
7 093
g reat
op in
uck er
A isne
Ġw arm
Ġact ed
Ġconnect ion
âĪ Ĵ
Maur ice
Ġded icated
B ible
C uba
T UR
Ġs ick
Ġf ashion
ĠM oody
ĠK a
Ed die
stru ction
ĠUsu ally
! ''
l if
st able
L au
Ġl abor
ĠIn fobox
GN IS
ÅŁ ti
Stock holm
d epartments
ld er
Ø ¬
andrew rice
re b
Ġc oll
Ġ( '
Ġ: '''
ĠSing h
li ef
K ay
P red
04 4
07 5
Ġr ough
Ġr ating
|||||||| ||||||
18 62
sh irt
ul k
Ġn et
Ġfam iliar
ĠBar ry
LE CT
ĠMont real
at j
ier ce
F uk
Ġ urban
Ġpr ofession
Fr Ã©dÃ©ric
Ġlead s
ck le
ot ton
ome s
fl u
8 15
c hamp
in ema
oc o
ĠB us
Ġres ources
ist le
C ouncil
E volution
L ate
ĠI van
ĠC ase
07 4
;'' '''&
instru ments
39 1
c en
W ayne
ĠP erson
ĠV ari
Ġcomp ar
ĠEx t
Com ment
m ade
D ep
ĠBe ck
ih ara
chan ging
ache lor
ĠCamp bell
ĠUs age
Ġpun ctuation
saf esubst
ster dam
ess ions
W ii
reat or
Ã¤ nd
Ġdef initely
Ele ments
n os
og ne
Ġr ural
Ġpr ofessor
Ġgr anted
Ġcontrovers ial
te au
ud eria
C Ã´te
H ig
Wiki project
ĠN ature
Ġcomp lications
Ã§ Ã£o
w al
be k
A st
Ġ ãĥ
Ġf uel
ĠR ou
Ge o
Miss issippi
TrueCRays ball
m ajor
t ure
Ðµ Ð½
en vironment
ight y
Ġn ations
Ġ{{ ?}}
ĠF i
Che mbox
AT OR
cover ed
B ow
}} }}}|
ĠSt an
ĠMet adata
Ġrepresent ed
Randy kitty
inacc ier
m ate
ir on
M J
N Z
N ative
ĠS C
ĠA venue
Ġstat isti
ĠHaw aii
wind ow
67 4
n ob
ex ec
our ts
ick ed
P in
Ġg l
ĠV ar
thumb nail
national ity
produ ct
ĠC old
ĠJer usalem
Ġdemon str
G ran
I raq
Med icine
Ġnomin ations
asc ar
Ġtow er
|@ ]]
V it
ĠB aby
Ġset tlements
Ġsup ports
Gar onne
Ke ith
____ ____
Ġrock s
à¥ ĩ
ĠMit chell
o clc
tt emberg
C ru
D ylan
W a
Ġor bit
idd les
Mer cury
cf cf
stand ard
ĠCha p
h urricane
ro st
H ook
S el
iz uoka
orn ado
Ġsol ution
ctic ons
Ġearn ed
t udes
W Ã¼r
ĠG Ã¶
ĠTh ose
ĠGe ography
Ġgreat er
float left
Dave y
vet ica
]]âĢĵ [[
unic ation
Jon as
ĠMap s
Ham ilton
j azz
em ales
B iography
Ġn arrow
Ben z
P yrÃ©nÃ©es
ĠF reedom
ĠD uchess
St one
Ð¾ Ð»
alk eep
NA SA
(' &
ĠÐ ¿
TENT ION
di ans
ac ad
ear ly
ĠS uffolk
ĠM end
Ġpar liament
Ġsu icide
rug by
ĠLands cape
in j
in ental
ic ted
ul ate
con stellation
I B
Ġf estival
Ġ6 00
ĠSt ra
doc s
835 11
Ġaccord ance
f ar
} {
od ing
ep pe
Ġradi ation
B ulgaria
F EC
ĠR ing
FF BF
dis cussion
loven ia
h alt
con stituency
T el
ĠCol lection
Ġcha in
Ġthr one
34 4989
g it
am bi
ven ge
S ig
Ġan cest
Ġ7 37
Ġnumer ous
ala is
M oon
05 4
ĠCa pe
T own
Re peatVandal
]]'' }}
ĠRo osevelt
ĠAT TENTION
ĠFred erick
u it
he w
D ominican
P refectures
Ġfor get
09 5
ĠV in
Che ss
Sy um
h onor
B undes
C le
Ġt eeth
ĠTh or
Ġch ose
Ġser ving
IS BN
Ġteach ing
18 86
78 2
H DI
R B
Ar menian
Ġarch ivedate
oz oic
S ymbol
Ne il
s quare
other s
}} ...
stru cture
à¤ ¿
Ġass ume
Ġcr ashes
phil osopher
???? ????
incinn ati
el ode
ann es
ush ing
O NAL
Ġp ul
Ġpa ir
ĠPer haps
Sin bad
m oney
Ġser ver
Ġop posed
irt ual
Ġox ide
59 5454
s oft
ere z
Ġd atabase
ĠC le
ĠB ass
ĠR eb
spa ces
Ġpur poses
success ion
p lat
ic z
ic us
ĠB avaria
ĠK ind
ĠK ids
Nav igation
Ġimple ment
. }}|
d orf
z illa
D omin
K in
Ĥ ¬
ĠP yrÃ©nÃ©es
Member s
Llama Al
al in
as ant
min e
K ur
T ree
W eek
ĠB ab
eral s
Ġspa m
ĠSpe ed
Ġsucceed ed
1375 00
an es
ri vers
ight ing
ten By
Ġs witch
Ġth row
Mal inaccier
pre vious
emp ty
08 2
Ġir on
; }}}|
l ondon
Ġpast ed
p ig
ut orial
A ssociated
C arn
C los
W inn
Ġs ched
ĠS chools
ĠRe views
Mad ison
ĠFrid ay
ich o
F IPS
Ġ| '''[[
ĠR onald
Ġpro ve
Ġsc ored
Log s
dem onym
constru ctive
a ec
ct ed
F ood
Ġp ilot
ĠS han
04 2
Sc uderia
Ġpass ing
Ġfl ower
War ren
Clean er
th ere
D ur
W at
Ġp it
ĠU nt
Ġclass es
Ġo cean
ĠEd itor
Ġsch olar
ch ter
em er
ĠH T
az ing
enn on
Ġconf using
Da ily
18 68
ha ve
ip per
ĠUn iverse
Ind onesia
Ġ8 00
Sha piros
Ġformat ion
ĠChan ge
ĠDar win
Ġdistribut or
18 97
bo s
Ġs ell
Ġ19 09
add ing
Ġass istant
Mil an
g overnor
n az
Ġa u
Ġst ress
Ġ19 12
Ġsh ark
Bel arus
Ġmove ments
;] .
an ion
an che
ide a
Ġt ail
Ġh ref
ĠDr ama
Ġdia gram
ĠSimp sons
up d
09 4
ĠAny thing
Ġtemp le
UN E
Bir mingham
is ions
ch ann
me ll
ci e
sp ective
Ġcap tain
Ġmedal ists
Ol iver
2866 37
m ode
}} ),
Ġweap on
Ð ·
ĠW ard
Ġad just
Ġgr own
Ġim pact
Ġsix th
Ġlo comot
Ġmax imum
88 2
ft en
R un
Ġ1 12
ĠM aur
Ġexp los
f ruit
H enri
ĠE ntry
Ġhead quarters
Ġbelong s
ĠEngine ering
incre ase
elode on
h alf
G iggy
L ook
V o
W ars
ĠF isher
Ġg ross
âĢ ľ
Ġher o
Iam andrewrice
79 5
= '''[[
ut sch
Ġd omestic
ĠA ction
Ġcol lapse
Ġperson ally
language s
Ġvandal izing
k now
ell aneous
con fl
A ub
M ong
Ġ1 24
ĠH ell
ĠSt uart
Ġpost s
Ġjoin ing
à§ ĩ
ĠT ro
Qu est
col m
ole cular
On line
ĠQu ery
Ġhundred s
G erm
H onda
L D
O cticons
eth nic
Afg hanistan
Ġsc ulpt
Ġdel iver
Ð¸ Ð½
ide os
ate nt
A ID
N ts
× Ĳ
ilt y
Mal aysia
ĠBern ard
; ...&
m un
vis ible
public ations
T reaty
Che lsea
Pri mera
>[[ :
pel in
ĠBirth s
5 02
is p
ion eer
il les
ung le
ens is
D og
P O
Ð ¿
ĠA y
FF D
tif icial
77 4
c orn
ir an
A label
F ish
L Ã©
T ampa
Ġman aged
Ġsuccess ion
serv atory
Ern est
; !
out s
ran ches
B OL
M Ã©
V ic
Ġb ill
ĠM A
ober to
Ġarri ved
d ir
fo o
Ġt ur
Ġdis put
prot otype
ĠPolit ical
ĠAp pe
Running blader
ad m
pa y
A w
B ed
C art
M U
ĠM od
ĠD iv
Ġsaf ety
io x
}} :{{
Ġoff ensive
eur odyne
Brook lyn
69 1
H ockey
ĠA way
Ġde pression
Ġhand le
Recent Changes
j ay
mar ine
N y
P edro
ĠH ospital
ĠPort uguese
Ġstar red
Ġautom obiles
f ixing
P ays
clud ed
tre me
ĠProdu ctions
4 02
et eeq
ber s
ĠL LC
Ad olf
Prop osed
;â ĺ
Sub scribe
ĠMat thew
344 1
Ġwear ing
Ġmic ro
pho iac
] \
i os
ble ms
ap pro
Ġs elect
Ġl it
ĠM P
à¤ ¯
ham as
D ie
ĠA qu
ĠB lood
09 2
Ġinter net
Am azon
Ġimport ance
Ġqu arter
Ġdia lect
18 93
oper a
W restleMania
Ġa udio
Ġf t
ĠL IKE
Ġv illages
ĠLea fs
Ġhold er
te enth
ic ino
ous ly
ach ing
L ind
ĠM ust
ĠD J
Ġclick ing
! |
ap ps
im er
urt is
ann ah
J upiter
L ocal
ref s
uen os
Ġhistor ian
ĠA ug
;( ''
Ġvis ual
Ġorgan ized
Per u
Per iod
all ow
H ebrew
iss ues
Ar kansas
Ġpain ted
m odern
ic her
ut ype
ĠS ection
ĠR io
Ġtech n
Ġathlet ics
k el
ry s
P osition
å Ľ
ĠR us
ĠN ebraska
In f
Ġaut hors
Ġindic ate
Â· &
in rich
S ame
V ill
ĠT ob
;, &
Ġ18 00
lat imes
Ġthought s
ĠSil va
n ull
A xis
ĠM ake
ĠE ric
ĠL ad
iv alent
Ġpr of
Ġen WP
rop ic
ĠPer iod
ump tion
ĠIS O
Ġinstru ctions
ĠDel aware
Ġrank ed
Ġprivile ges
c ustom
ul us
Ġc aught
Ġw onder
ĠM ale
Ġ2 40
ept une
Ġop eration
66 3
lp g
O U
How ard
Ġmet ers
ĠNor wegian
We ather
Ġhost ed
Ġjob s
f en
h uggle
ma us
cel lent
Ġ( '''[[
Ġm ir
Ġda ily
ĠHard y
ms on
ab bre
F errari
Ġ* :
ĠC av
Ġcom ic
ĠSh ar
in ia
ra st
ki ing
sp erson
N onsense
Ġc ritics
}} ;&
ĠF itz
oun ced
Ġend ing
Ġdef end
ĠComp uter
à® ¿
Ġest imated
89 0
\ .
ol ith
Ġa ssociation
ĠH erald
ĠF ut
ĠL ane
Ġor chestra
Wik is
IST R
in ja
op ing
ĠG ironde
ĠÂ £
M urray
ĠT aiwan
ĠI raq
ĠV el
ĠAD MIN
ĠBet ween
us hed
ed onia
ra h
be z
sent ial
L am
Ġ1 28
ĠI TC
Ġuser box
Ġro ot
En cyclopedia
ra per
car bon
L ion
ĠA stron
00 000
ĠK on
Ne paxt
ĠGrand e
Ġoffic ers
sock puppet
! )
ar at
ov sky
Ġm ac
It em
Int force
ĠNor man
is f
pe cies
Ä Ł
Ġc andidates
Ġhead s
ĠEpisode Number
7 167
bo b
D anish
L uxembourg
Ġ( .
ĠA le
Ġ'' '''&
met al
ot ango
ag h
D eleted
Ġb orders
ĠD ia
Ġsuggest s
Ġargu ments
T XT
á Ł
Ġn er
Ġus ual
ĠCap tain
ci mal
mer icas
D j
G iven
å į
ĠN et
Ġen gines
Ã¼ nd
lt er
E very
ĠT O
Ġdis sol
roat ian
Ġath lete
26 00
z ap
re ts
ge ts
ar ms
con stitution
N ish
Z o
Ð ±
ĠH ad
Ġaccess ed
Ġel ig
ĠMur phy
ter fly
come dy
K elly
qu et
ref ox
ĠK arl
Ġsh orter
ĠCh iba
re ase
st ood
et ch
ha z
B ang
O m
V G
Ġ Ø§
cyclo ped
OS ING
Ġstay ed
ĠPost al
ĠCa esar
Cla ude
ĠÃ© tudes
ownt own
15 149
88 5
er ies
ol ished
DE R
ĠChris tians
Ġsuggest ions
ĠSur vey
Arr ondissements
ĠSar ah
ĠSimp son
ĠPolit ics
Cri me
alest ine
ĠADMIN ISTR
n uclear
Ġstatisti que
% )
88 3
ert on
P G
Ġ1 15
ĠA h
eb b
ĠNew ton
ĠAl an
FFFF E
ĠIslam ic
ĠCommon wealth
Ġopp onent
Ġwond ering
m and
in en
as se
ver ter
od on
'' ):
ĠWar ren
Bar ry
Ġintr oduction
ĠADMINISTR ATOR
al us
at ican
G ulf
R ou
Å Ľ
OT T
Ġpublic ation
Child ren
Ġsy mptoms
ĠCL OSING
c andidate
h orn
r ss
ge nder
sy chiat
F iction
H op
V A
Ġli quid
Ott awa
20 77
; Â
s ay
ald win
Ġ zero
ĠB ol
Ġan onymous
Ġad ults
Ġcha pter
c able
f un
la us
ut tle
air craft
fl m
ph oto
B art
C ircuit
ĠF uture
vent us
Gu est
Ant i
Me et
Alex and
Ġcaref ul
l is
The y
Ġcon stitution
ĠGu ard
Ġspec ified
ĠMet ropolitan
aval ry
' |
I X
K el
ĠP ack
Ġsp end
oph one
Ġdise ases
imin ated
f ur
j Ã¶
P od
Ġb ond
Ġg rey
Ġdis charge
Ġsupport ing
; }
lin t
Ġw ing
ĠP ublisher
ĠH old
ĠD S
Ġ19 11
St yle
Ġcopy ing
ĠMor ris
79 2
n pa
ig ration
ĠC lay
Ġr ise
Ant on
ĠImage s
Ġclos ely
ĠOcc upation
n ap
ed ge
B ryan
K ate
S ound
Ġa ster
Ġf illed
ĠK it
unt u
Ġconstru ctive
ĠVi enna
screen writer
ĠPengu ins
ron ics
C u
He art
ĠTur kish
Ġsoldi er
on ed
ame l
C ars
G arden
vol ved
Song s
Ġspr ing
79 4
t res
;''' âľ
Ġj azz
Rich mond
zeg ovina
8 56
67 1
ĠR az
Un incorporated
ĠTh rough
Ġcap itals
orpor ate
AE w
ĠQuest ions
_ -
ĠMe an
Law rence
15 99
86 0
c op
Ġ ).
ĠC ongo
ĠDe an
Ġtyp ically
Ġstand ing
Str iker
gor ith
77 3
ff cfcf
Ġc as
77 2
h op
u um
at ha
he a
V ladimir
Ġa gency
Ġs and
mat es
ĠM ouse
ĠCo at
Ġvic tims
em ies
che mistry
ous in
F un
ĠR ange
Ġv ocal
Ġsh op
Mar oon
Ġsup ply
cyclo pa
Ġslow ly
Ġcommunic ation
onc Ã©
ne ed
oz a
F ixed
V GA
Ġs ymbols
ĠN ord
ĠCar ibbean
Ġcor respond
Ġinvol ving
sp ec
B ody
S us
W alk
ĠT ext
ĠS el
ĠO ak
Ġch urches
omat oes
Mar garet
Bi ographies
six th
b rain
ol ol
av ens
aa aa
S orry
ĠH ughes
ĠG w
WP Cleaner
Ġbirth day
program ming
] |
g reg
vo lt
Ġg iant
ĠG un
Ch uck
Ġcomp licated
Ġspeak ers
ca pacity
E T
O d
ĠT on
Ġin her
Ġex er
ĠRe ading
cap tain
off rey
Ġexp ansion
Ġrelat ively
t ilde
ĠL ic
AN ER
bad os
Ġshoot ing
Foot er
val id
I van
Y onne
Ġcon vert
Ġext ended
West phalia
Ġexist ence
D ist
ĠM UNE
)]] :
Res ults
ĠCal vados
ĠHot el
Ġcollaps ible
Ġrul er
tire ment
18 87
18 88
A grave
ĠM rs
ĠL uke
Ġg ather
Ġ19 06
Ġun used
Ġoper ations
Ġcer emony
CLE ANER
ĠMUNE HI
k al
n en
ig g
An gel
Ġclos ing
Flor ence
O H
S yl
Ġin come
ĠI ron
Ġth ick
title s
ĠF ood
;â Ļ¥&
eeth oven
Ġoccur red
C ustom
Ġl ies
ĠP ur
Ġg ained
ib e
Ġres istance
class is
Ġemp loy
uge ne
Ġlay er
ĠÃ© conom
Ġarrest ed
u ing
x ic
ne z
ĠA ires
]]''' !
fd ffe
Ġident ity
Ġdet ect
iop ia
4 11
66 5
h ou
B ea
C anad
G rey
I mm
ĠT rad
Ġre ject
ĠRe gi
ĠAl berta
Le o
Ġtell ing
Ġcast le
Õ¡ Õ
18 92
c ropped
the m
C raig
E FA
Ø ²
Ġn ortheast
ĠP urple
Ġv ice
ĠK er
ĠCar ol
Ġvol cano
Ġsum mar
ĠJava Script
ip h
ĠS uz
ĠI l
Mar ine
ĠWe ather
ç ļ
Ġh ole
Ġla unch
Ġne ck
Te en
Ġdeg rees
Haw aii
Four th
washington post
K Åį
S ection
ĠH em
ĠL ev
Ġ'' ([[
dis c
comm unications
Har old
118 605
Ġcopyright ed
Tre buchet
[ &
ul la
ep isodes
uc n
L on
P res
« &
Ġb arnstar
Ġfor t
dis abled
Ġvand als
Simon KSK
77 1
g ay
if th
B ab
C op
ĠP uerto
ĠF landers
rele ases
ĠHer o
Name space
Ġbus inessman
F ield
Ġ2 30
ĠBar bara
Ġdem and
net o
ien ne
Ġst able
ĠV egas
Ġdis aster
Pro vence
ĠAll iance
Ġissu ed
open proxy
Bern ard
. ]&
18 80
w oman
ia d
es pn
ess a
S quad
AA AI
inter pret
b ib
in idad
be at
ber ger
ant ity
type of
G ay
M oz
M ove
Ġspa ces
rock er
ĠSet tlement
79 1
b ay
ut ies
G ro
S F
ĠM orning
dx i
Ġste el
Ġconcent ration
67 2
las gow
ach ines
Ġa ired
ĠS ak
ĠS earch
ĠL arge
vent ions
Ġoff ered
Ġbl ues
ĠTest ament
ha y
ip o
Ġ1 02
not ability
ĠMin or
Ġdep th
Islam ic
Ġpercent age
10 57
id ays
option s
ĠÂ ±
ĠVen us
Ġdisrup tive
c ategories
d ou
l io
ous y
ink ing
F innish
Ġ Ñģ
Ġ1 40
]]'' ||
Ġinter act
ĠHel vetica
Ġvis ited
Ġprocess es
Ġhard er
Ġindivid uals
ĠSant os
er ne
T am
ĠF ish
ĠJ e
Ġadmin istration
++ ++
Ġcapt ure
am ond
he tic
D ance
ĠT hailand
ĠW arner
Ġ2 55
Ġra pid
ĠTre k
. _
vin cial
J ona
T al
Å ł
Ġf olk
Ġfl owers
ĠMil an
Blo em
66 1
no cent
B avaria
Is land
ĠBer g
stant in
Ġcri minal
Ġappro ved
ĠCy cl
W idth
mat hematician
ĠM oz
br anch
Ġany more
Ġro bot
Ġlink ing
ĠBel gian
ĠFl ames
is i
if ies
T unes
ĠW inners
ĠO ber
gu in
ĠV G
hor se
An y
ĠZ oo
ĠHir oshima
nobel prize
95 129
h art
ex pl
all a
D ennis
Ġn ode
ĠDe sert
Ġpl anning
North west
ĠBel arus
ĠElect ric
u il
ier o
dd en
A K
Ġ1 14
Ġgu ns
Bad en
f gov
t ell
Ã¦ dia
la c
IN D
Ġvehic les
ĠCe metery
[ //
ne th
se as
res idence
Ã ®
Ġd ipl
Ġdis appe
erman n
ĠCal cio
Ġdia gn
Jer sey
Ġsock puppet
Ġflo at
ĠMu hammad
ĠÃ©conom iques
ul ated
sp ects
T P
T hor
ĠO pp
Ġcomm itted
aur ant
Ġcirc le
um ont
tr ad
N R
Ġf ol
Ġp article
Ġ19 16
Ġfound ation
Ġ// &
Ray mond
WW F
i ot
os lovakia
ha us
C ob
ĠG rove
Ġout er
arr us
Ã¶ m
gram mar
Len gth
Tang otango
67 3
ed By
ar f
at as
P lain
R ow
Z e
]] =
ĠAl ice
Ġref erring
ĠBen jamin
ĠPublic ations
Ġdisrup tion
ng o
st udent
pe i
sc hen
ab lo
ĠA thens
ĠC OL
ĠC ampaign
gr ou
St ru
}}}} }}|
Ġge me
ĠMag ic
Come dy
ourn als
igen ous
18 76
it Ã©
pe g
A ge
Ġp latform
stat bel
ĠPresident s
Ġviol ations
Admin s
ĠLim ited
69 4
[ \
g irl
op hil
ru ction
ari um
}} {{#
ĠH orn
Ġde vices
ĠHe ights
">{{ #
ĠÃ ł
ĠTe hsil
Ġok ay
7 45
Ġc amera
ĠP it
Ed monton
;'' (
Ġdes pite
Gu itar
ĠOut standing
100 1
nd a
ship s
Ġar gs
sec ut
rel iable
Ment i
Ġdepend ing
Ġinte gr
inemat ography
; ==
f isto
er ature
st en
ar u
at on
op old
ec a
merged row
Ġdisp ute
ay an
pro cess
ens es
G C
Ġpar ishes
Ġtyp ical
ĠMc G
326 36
ĠFour th
LLLLLLLLLLLLLLLLLLLLLLLLLLLLLLLL LLLLLLLLLLLLLLLLLLLLLLLLLLLLLLLL
Ġapprox imately
L Y
Ã ¬
Ġp mid
Ġdam aged
ĠEconom ic
: }}}
ent ry
cat or
af a
Ġ19 13
Ġout come
ĠPresident ial
ipe g
brit annica
b is
nd ez
ock et
ors es
H s
Ġclass ical
] *
om ical
ap o
Ġf at
ĠF und
ĠK aw
amb ia
Ġmaint ain
f ran
m ake
| '''[[
''' ;
Ġmin imum
Ġent ertainment
ĠFriend s
ĠTurn er
Ġnov els
get Pref
T ennessee
ĠC u
ĠC ro
ĠM ath
ĠM iy
ĠW ol
ĠL eb
Ġun able
Ġtra ffic
Ġfair ly
Call back
rr or
cr icket
M useum
N J
69 2
ge orgia
ns wick
sc raper
D anny
R adi
Ġc ru
ĠR ic
Ġal ive
add y
ĠPark er
Ġprin ted
ĠHung ary
5555 55
ur as
blog spot
ĠT oy
ĠW a
Ã¶ ping
Ġdec ade
Ġgrad uated
: '''&
ing ly
om os
B ank
E cuador
ĠC ru
ĠM ine
ĠF le
phys icist
Ġresol ve
18 60
ur ich
and ie
Ġ orders
Ġc risis
Ġb on
Ġn ucle
ĠC ath
Ġco ordin
ĠU EFA
par liament
uri ous
ĠBill board
Ġer up
Mis za
k not
on ius
sp ring
F TA
Ġm obile
ĠK r
Ġtr uth
ĠX X
Ġtransl ate
Ġcall ing
Alt ernative
Serge ant
ouce ster
ĠÂł ĠÂł
or ian
et z
sy nt
P OR
Ġb rian
Ġlast ed
Is raeli
ĠCharl otte
A stron
ĠF ollow
ĠE lli
ĠZ el
Ġad vance
ĠÐ ²
ĠWeek ly
áĥĲ áĥ
18 94
ĠA ch
ĠTele graph
Ġque en
cycl op
OTT OM
67 5
k reis
ok ka
Ã °
Î »
ĠD ish
arch itect
ĠCh i
Ġcontin ent
class icon
La uren
Ġhold ing
Roll ing
ĠUk raine
d avid
n fl
re hens
il ation
min us
ik es
A last
''' ]]!
ĠB OTTOM
ĠH ack
ĠG onz
ĠMar ino
Ġred uce
ĠHu nter
Ġens ure
t ar
ic up
op ard
aw i
Ġin complete
ĠC it
Ġsc re
Id aho
166 47
Ġfre quently
ĠOs iris
c opyright
O scar
ĠH yd
ro zen
H z
Ġ à²
ĠL loyd
Ġdec or
class ical
Bar ack
J ones
Ġp unk
ĠC art
ĠB att
ĠL ock
iz u
FA Q
ĠGu ild
Ġca pa
Ġob tain
ĠSer ge
114 482
à¯ ģ
b attle
ug g
E qu
S chools
S outheast
Å Ļ
Ġso ap
alle ng
ĠBal timore
; ...
K it
Ġd ogs
ĠS ie
ĠPh on
ĠExpl orer
h us
post code
B ird
ĠC ond
Ġpro ced
ĠSam uel
G K
H ell
ĠP rom
ĠF ra
Ġor ient
Con necticut
Fran z
Olymp ics
ge bra
count ries
J ew
S audi
V ery
Ġw alls
Ġp arks
Ġd ated
ĠC ities
Ġhe sit
Ġexist ed
Ġfre sh
Ġsynt ax
6 25
s ul
ll er
ĠA WB
ĠRe quest
Ġref used
c aster
p unk
| Â§
Ð¸ Ðº
sh i
E ssex
T itan
ext ra
ĠH um
Ġdo or
Ġsome where
Ġpri ze
g am
ie ux
id ity
abl on
rec ords
Fe atured
Ġcirc um
ingu ished
Bloem ink
c ott
R ud
ĠN one
Ġres ource
Ġad vanced
Ġf ilter
ĠS or
ĠM other
ĠSt ore
ÃŃ s
ĠØ ª
|||||||| ||||||||
ffic ient
Elements By
est y
ob ot
Ġtalk s
ĠF ig
Ġop port
ĠÃ ĸ
Gar amond
es ides
rent e
Ġ: -)
He avy
ĠComp lete
mp t
ust y
L ow
å ·
Ġlaw yer
Dal ibor
atom ic
âĢĶ [[
k ok
ne k
Ġs aved
ĠP hoenix
Ġlabel s
UR I
Ġmon itor
Ġthous and
j ani
ad t
N icholas
T an
T Bloemink
ĠR ank
ĠN ever
Car ibbean
Ġlo ad
Dou g
Ġsett led
Ġbelief s
lÃ© ans
G len
Ġc le
ĠS ter
ĠC row
ĠC arn
Ġtype of
ĠSpe cies
ĠBos its
Ġbroadcast ers
68 4
E G
Ġcomm ons
For ce
ĠJeff erson
3 19
68 5
v ro
mp hib
T ommy
Y as
Ġpl ot
Ġpartic les
ve z
C osta
E u
E nter
P it
Ð Ĳ
ĠS oftware
ĠB orn
nb c
att endance
Ġstep s
Rail way
izont al
ad al
ul lah
ag ain
Ġp et
ĠK evin
Ġex ecuted
Gen e
Ġword ing
TI ONAL
Ġann ual
opter a
ce ae
S arrus
à ¬
ĠT ig
ĠD ragon
gr ass
Ġde v
ĠAn a
Ġregion al
ãĤ ĭ
Ġtechni ques
WM DE
66 4
88 1
ic ient
ran o
B ronze
ĠS r
ĠF ilms
ĠY e
ĠInd onesia
ament al
ĠSat urn
18 82
an ese
oc hem
ern er
Ġf ear
ĠE mer
ĠN azi
Post al
r of
Ðµ ÑĤ
ne cess
S usan
orth y
Ġpo ison
Ġcond uctor
ĠPre sent
ĠSal zburg
o ct
in te
ic it
ran us
å ľ
Ġs che
rom ag
single chart
Ġrepresent s
ĠLu is
;Â· &
spir acy
L U
M ou
S K
ĠS ex
ĠA dministrators
ĠP ink
ĠV incent
ĠMac donald
su it
P references
ĠB EL
Ġ2 46
nh c
ĠArch ives
Ġacad emic
Friend ly
+ &
b ol
est e
F ra
ĠF oster
Ġtime stamp
rop h
Ġser vant
ĠMember s
er os
ĠS id
Ġha bit
Ġ- &
Ġrest ored
Uk rainian
constru ction
Rec ord
49 28
51 00
s in
un ge
ber bul
est iv
can ic
P t
S ter
Ġre min
ĠB urn
Al i
Ġgu est
ĠMin istry
Region al
) ||
re ns
H K
N igeria
ĠF acts
ĠG azette
Mar cus
Lu is
Line Color
c am
z antine
re ets
de en
as o
od ont
im an
M other
Ø ®
ĠE spa
ĠW ins
ĠW agner
ĠG ang
tific ations
WÃ¼r ttemberg
at u
Ġm il
ĠT dxi
oll s
nomin al
Ġinfect ion
imens ions
Ġprimar ily
CURRENTMONTH NAME
18 91
d raft
ass ination
Ġt y
pla ced
243 06
Ġboy s
ynam ic
Ġobvious ly
2877 23
ch anged
vis io
C ZE
Ġt re
ĠA tom
ĠF izz
ĠD ie
Ġpri est
simpl ify
co or
ab ot
Ġf ellow
ĠE ssex
ĠRe ad
You Tube
à´ ¿
cl us
oot ing
Ġm ort
Def ense
v ik
it ors
son ia
oc ide
C I
V alencia
St ory
Ġcont r
Ind ex
ĠHer zegovina
.'' </
ĠLiber al
publ ish
11 10
D R
K angaroo
Ġin ner
Ġh ide
ĠR on
ĠL INE
prof it
76 3
d ays
st reet
ar ians
it iba
ax e
ĠR idge
Ch ip
ĠRec ording
Ġim ag
ĠTra ffic
ĠTH AN
Ġphot os
;' ;
ĠI ng
ĠD anish
ĠLe ader
And rÃ©
Ġrest ing
ĠGreg ory
18 77
b ef
ar gs
hm ad
G or
S oup
Ĩ Ĳ
ĠH indu
ĠR ogers
sub ject
Ġmain space
pol ice
s oftware
ph oon
Ġf emales
ĠM ack
wit z
Mad onna
le a
rd u
ian e
lo cator
ah ara
ste el
ĠT ony
ĠH im
ĠH ouston
gu chi
Ġse quence
AAAAAAAAAAAAAAAA AAAAAAAAAAAAAAAA
68 3
ac tivity
int ensity
A ctor
Ġ om
Ġed ge
News letter
trans l
Ġvo ices
chs eld
p it
il ica
led on
S alt
Ġ Û
ĠA ld
ĠL ac
ĠAl ias
fin als
Ġtrib es
ĠHT ML
5 01
ch y
ub ert
Ġm ales
amp ire
ĠD omin
{{{ |
ĠAl fred
ĠØ ¹
amer oon
|Â§ ]]
14 06
d my
n ick
ill ery
ag ar
Ġ )&
vert ebr
Ġad ap
Ã± o
he i
Ġm ultip
ĠSt ill
ĠYou th
ipp ine
7700 99
Ju ventus
__| __|
66 00
z heimer
gl ass
B uck
M ak
Ġ1 17
ĠC ob
ĠL opez
eb ula
ĠIs raeli
prof iles
Ġreve aled
. *
ay ette
ĠS inger
St ev
Wh it
Ġmark s
Mary land
Ġpoet ry
SN OW
Ġang ry
3 21
15 00
U F
ĠT yp
ĠR FA
Ġment al
ĠMark et
enc opy
Ot to
28 500
er ties
ic le
lo ye
tech news
ĠT s
ĠA cad
ech an
ĠInd ians
inter view
Ġext ension
More bits
ol and
que z
ale y
af ael
E ntertain
æ ĸ
ĠA viation
erm ail
ĠCol umbus
Cal gary
Ġhome page
Ġconsist ent
76 5
th on
ĠS ay
Ġaddress es
BA FTA
ĠCl ube
Ġcer tification
d ictionary
l iving
in vent
G ebr
à ª
â ĨĴ
Ġan t
Ġdes k
att ers
Ġmin ute
Ut ente
Alast or
A ber
P ut
X ML
Ø µ
Ġd ome
ĠT ran
ĠS aints
ĠC ameron
Ġg arden
Ġcl imb
Bar bara
Port let
18 69
A a
E c
F act
M oh
S inger
Ġt rip
Ġb ur
ĠM all
ĠY a
ĠMon aco
roy al
lin gen
A dministrative
B aby
ĠS ep
ĠS ource
add er
ĠMil ano
Jac ob
ff ith
di al
ru its
A sc
E M
Y a
Ð ĵ
æ Ĺ
Ġb acteria
Ġf lying
ĠD av
Ġ! ==
]]''' :
Mar cel
ĠEd ge
Su ccess
Ġcri mes
ĠHaw ks
ser ted
let te
T hailand
Ġ+ +
Ġ! [[
aj m
Al so
vant age
b atch
air port
H as
I G
R ating
Ġdeletion s
inn ed
Language s
Ġpersonal ities
Jo an
ĠPers ian
! ==
z el
st udio
up t
ale x
M ind
T OC
Ä Ľ
ĠG ill
Ġbo at
Ġfiction al
ĠContribut er
se cts
vic ted
T ab
Ġ __
Ġsecond ary
meind e
ĠInstru ment
e enth
la very
light grey
L ock
eb ot
}}} .
vert on
]]'' |
Ġpre senter
ĠSc reen
rec ogn
resp onse
NC AA
Canad ians
loye es
51 1617
est imate
M urder
P ink
Å Į
Ġp ure
ĠD ave
Man hattan
aught ers
amm ers
277 15
Ġsurr ounded
Ġrare ly
p ul
it te
co ok
ome t
A aron
E ins
Ñ į
Ġdec isions
Ġelse where
ĠMont ana
ĠWall ace
p her
u able
ct x
ush i
I ng
ĠF el
Ġcon vers
ret ty
oul ouse
Ġdeal ing
n us
el er
F M
K urt
K aw
R andom
ĠI an
ĠM ak
ĠD O
Ar menia
ĠAr ound
Ġgood s
à´ ķ
Ġve get
Ang lo
Ian P
Aqu itaine
encopy paste
ess ex
L yn
P le
ħ &
Ġto ward
ĠS olar
Ser vice
Ġfeel ing
Ġperiod s
Ġox ygen
0 30
18 85
h ra
;/ /
ĠH ERE
Ġsign al
ĠSte ven
ĠAgain st
Ġcamp us
Ott oman
Oper ation
Ġsover eign
ong a
ð Ł
ĠM ail
Ġ19 03
ÃŃ k
Ġstand ings
FULL PAGENAME
;âĺ ħ&
80 231
c ourse
ro bot
ual ties
ass au
A my
U A
ĠS ide
ĠF un
ĠL ocal
ĠG ran
Ġcl othing
Ġstru gg
Ven ezuela
rig ger
18 81
66 2
68 1
her ine
ou f
head ing
Ġc row
ĠR oger
Ġund oing
Ġdeb uts
ibli ography
z ed
ic ons
ate m
M m
N ancy
ì Ŀ
Ġb ed
ĠM uch
ĠIn vest
Ġun usual
ĠRe v
Ġwrit es
wg PageName
OP TIONAL
Ġsurv ive
Ġdom ain
ĠCors iva
ent in
ting ham
ph r
A re
E FE
N OR
ĠE ither
ĠN adu
;]] |[[
ĠV ancouver
Ġex pert
George s
Ġcre ates
|}} }}}|
ĠNumber s
ĠSocial ist
Ġupload ed
link name
Ġ ËĪ
Ġ( +
Ġ1 06
Ġth in
Ġex change
spe aker
ĠSp irit
Rel igion
ĠFuk uoka
34 234
; :|
e or
as mania
di ov
ast ery
C K
F ly
ĠT amil
ĠPl ate
Ġemp ire
ait ama
Ġcompet ed
Arsen al
b ender
by r
men u
ann on
C hen
E maus
N az
P oint
× ŀ
Ġp lat
ĠS oon
ĠF emale
ĠN eed
Ġsome what
ĠâĢ İ
ĠInd ex
ĠAny way
rup tion
mir al
wikis ource
915 21
n ed
Ġs outheast
ĠF antasy
ĠD allas
Na Sp
ĠTel Co
1234 56
76 4
u ction
pe ace
ir as
ff ield
ag les
V incent
æ Ŀ
ĠP OV
Ġdis k
ĠSha h
Ġdri vers
z ie
it ting
M ig
Y u
ĠM ovies
Ġ: |&
Ġconcern ed
ĠMuslim s
ust ries
L il
Ġw orse
Ġp ra
ĠU lt
ĠAr nold
Is le
à´ ¤
Russ ell
Ġfav our
Show card
clos ed
18 70
e ers
m ot
p icture
th rop
list ed
comm unity
CH N
;' +
f old
g ae
ing o
ti r
ac ion
W C
ĠD iet
ĠY onne
Ġe ating
chann el
diov ascular
10 38
j on
id y
C amb
S imp
An a
à¦ ¿
AAAA I
Ġbas ically
Ġhistor ic
ry ing
Ġh erself
|| -
ges ch
amm u
Ġbreak s
ha ir
F ixing
ĠL aur
Re y
uss els
Ġ16 0
Ġsong writer
ĠCr own
ĠWel sh
, '
d ig
ade us
Ġw aste
Ġh i
Ġch loride
ĠDe ep
Ġpla cing
Cleanup Cat
Ġguitar ist
w ins
ure ates
ric ia
uch y
oot s
Ġs ysop
Ġm ut
ĠB ag
Ġde ck
Mar co
Pol y
Se ven
Pre view
ĠRem oving
Ġinvest ig
Monthly CleanupCat
pa per
Ġm ilk
ĠP le
ĠP ierre
Ġdis orders
pri zes
Am and
Ġsort ing
Ġpromot ional
yram id
Ġambass adors
light blue
Ġl os
Tech man
ĠGet ty
bo at
Ġ UTC
ĠF o
Ġallow ing
|}}}} }}|
callback s
/ {{{
18 83
n it
ĠK ur
Ġind eed
ĠJac ob
7 57
ar as
force ment
B enn
K ath
å Ī
ĠC os
ele ton
ĠJ oy
ĠÂ· [[
Ham neto
inner HTML
ĠBEL OW
? )\
bit ration
Y ears
ĠS cale
Ġst range
ĠJ upiter
Ġcould n
Ġinv asion
68 2
u med
cl ip
Ġ1 11
ĠC ircle
New castle
Ġspe ct
Ġsuggest ion
pip ermail
f la
at ra
J ohnson
ĠE volution
arn a
eful ly
dep uty
b ound
p refecture
w ild
T ER
ĠB ron
ĠW ant
Ġcol ony
Ġgu ard
Lin ux
NP OV
f ol
map s
A Z
ĠM aj
ĠV ista
Hu gh
ĠGard ens
Ġinj ured
! '''
3 22
i Äĩ
Ø§ Ùħ
B la
ĠB ranch
ĠE sc
br id
Com pact
MB ER
Vi enna
ĠAbb ey
Ġrecipi ents
s im
re quired
to o
ri et
lo ver
ut ions
he ld
T et
Ġa id
Ġb ow
ĠH orse
Ġ'' [
Ġe c
ĠPark s
Par ameters
atche wan
w inning
an cient
re lat
cl ient
ath let
C oc
H ik
ĠT ed
Ġfin ancial
ask atchewan
Ġred uced
ĠHar bor
cre te
Pal m
j et
u ccess
v ous
Ġf reedom
ĠA argau
pre view
}}} ;
Ġind ustrial
Ġamount s
ĠJul ian
Ġsuff ered
Ġmechan ics
Krist en
18 78
B orn
H unt
Y ugoslavia
Ġb ronze
Ġpre view
Ġen wp
ĠMar sh
Roman ian
Work s
ĠCOL SPAN
Emaus Bot
17 20
h wa
l ip
J udaism
ĠS oul
ĠA BC
ĠTh under
az ines
ĠNew spaper
Ġcom bination
ĠCont est
_- _
ze k
C eltic
ĠG rey
Ġimp ossible
Ġne ither
Ep ic
Ġeff ective
stor min
Ġhesit ate
- %
39 66
g od
| Â°
ok er
oc ity
ef n
hy dr
all o
ub b
ĠA pr
ĠSt udy
Cat herine
Ġbu ff
ela ide
Ġinfluen ces
' ),
6 16
z ing
Ð¸ ÑĤ
an Ã¡
lab s
S uz
ĠB ryan
storm name
stormin itial
76 2
R alph
ĠB ond
ĠE ptalon
ĠL an
ib n
Ġsu itable
Fr ont
ĠÃ Ĺ
ĠWith out
ckle nburg
b ee
c ertain
f efef
t ail
is ka
os se
lt s
end ai
H aut
U G
Ġp sychology
Ġd ot
rib utes
Ġnew com
Ġpa ste
Is lands
Sax on
ĠRegi ment
& #
Ġ stamp
Ġd igital
ĠT han
ĠB ishop
ĠK ill
Ġso ccer
Ex ternal
Ġprin ciple
Bah rain
y ard
op us
ac ha
U g
Ġp ull
ĠE cuador
Ġsu dden
ĠGen eration
Min istry
rup t
å¹ ´
get ElementsBy
M all
T ibet
Ã »
Ġt ruck
ĠB la
Ġg ang
u ations
ha gen
do or
cha irman
C ou
Ð ĺ
Ġt allest
ĠT am
Ġl ousy
Ġappear ances
Trans l
ĠFly ers
ĠP oints
ĠN arrow
Ġ# '''
iv i
St ew
Ġatt ached
trans late
ĠCom ics
Ġrom antic
Ġfoc using
Philip pe
eg g
end e
Ġc ongress
Ġm anner
ĠUn iversal
Ġpe ak
friend ly
Francis co
ĠBrook s
J anet
ĠD et
Ġpr ice
Ri hanna
iox ide
Misza Bot
0 13
j ar
ÙĨ Ø¯
le en
ir ca
im f
K ash
ĠE instein
flag country
à® ķ
Ġentertain ers
Entertain ers
es ley
E g
G LAM
ĠP edro
Ġ19 15
iss n
NA AAAI
Ġab solute
create Text
Ġgot ten
ĠAtl anta
Ġplan ets
found er
ĠMot ors
ivid ual
M obile
Ġw aves
Ġp ortion
uns ourced
Pet e
Sen ate
Tri ple
Ġpup pet
k ill
ik k
Ġ19 08
umber s
Ġsouth western
Ġpop up
Ġbal let
9 64
be ck
gen cies
bor ne
G ang
L uke
ĠH olly
ĠH ebrew
Ġar ial
Ġinvol ve
c ord
r ina
mar oon
T ro
T ha
Ġs ad
Ġf il
-- -
Ġtitle d
Ġbu rial
Fran Ã§ois
Ġtw elve
Ġequ ivalent
alkeep er
Portlet Link
er bury
her o
Z IP
Ġ1 23
Ġst roke
ĠB uffalo
ĠO d
Ġincre asing
stitut ing
Mah on
18 58
h ine
q C
r ite
cl imate
C lay
M N
M organ
T ul
Ġinter nal
Ġspe aker
ĠAnd re
Ġgr ass
Den is
p opular
ci an
Ġw ars
Ġb ranches
User boxes
ĠL ennon
iz on
à® °
ĠAnn ual
20 20
t te
and i
ist ol
vis ie
O ra
Ġ1 16
ĠArab ic
Brit ain
89 5
im ar
are z
des c
M ister
Ġbe i
Ġg lad
ĠG ulf
Ġinter pret
ĠEm my
Roll back
å¤ ©
d ouble
B ag
F uture
Ġc ards
Ġm us
ĠT u
ĠF ind
Ġex pression
ĠAr gentine
ĠSat urday
abul ary
Lud wig
ĠDoc ument
w heel
ef e
V a
ĠM Ã©
ĠR ab
Ġyears active
He alth
Pic ar
cyclop Ã¦dia
6 42
un its
S ab
Ġh ip
ĠF oot
ĠV alent
met ry
Ġhon est
ut m
D ATE
ĠL anc
Re view
Ġplay offs
Ġsurr ounding
RRRR RRRR
T l
W as
ĠM achine
ĠThe ory
eb y
Ġ# :
;| ''
De ep
High light
Des cription
4 147
Ġs elling
ĠI w
ĠP ad
Ġpre y
ĠIs aac
115 351
C ulture
I ll
Ì ģ
Ġth erm
ĠE P
Ġent rance
Ġkeep s
âĢİ ]]
ĠLou ise
at z
oc ardi
em oral
ju ries
ĠL as
ĠN ative
ĠSt ru
Ã© ra
Aust in
ĠJane iro
Ġsett ings
18 50
b omb
pa k
com ics
bu ilt
P OL
}} +
Ġd ioxide
rib le
ĠL uxembourg
gr id
Ġch allenge
ĠEx ecutive
Har vnb
ĠAm ong
amb ass
ĠFe atured
tivis t
Ġsen ior
å¤ §
Ġpopul ations
o os
Ã ²
Ġc ritical
ĠA ra
Ġ19 05
CC FFCC
Elect ric
813 77
sixth staff
ne g
sp r
DE N
ĠAd venture
cri me
ĠTra il
Ġbus y
Ġinc ident
6 39
@ [[
c ritic
ĠD iamonds
ĠG ren
ĠQu arter
Ġdetermin e
r ike
ic ate
ar ct
S G
Ġm ouse
ĠTh ings
à¤ ¤
ĠQu int
Ġequ ation
Ġphot ograph
18 66
86 3
Ð¾ ÑĤ
ic ing
st ery
di pl
H aute
ĠT itan
ĠH en
ĠH udson
In sert
Ġser ves
ump h
Ġpo ems
ĠMet a
Ġbrack ets
8 30
j ac
| _
ÉĻ n
mer ge
;''' (
Ġ18 99
|}}} |[[
Ġhome s
76 1
; {
re k
A bu
E ss
Ġnomin ate
Elect ronic
k ir
me ister
ha ge
A tom
F alcon
L oc
Ġs ail
Ġv ess
Ġe gg
Ġany where
ues day
ops is
Ġcamp s
Ġconfl icts
Ġimpro ving
roc od
ĠPok Ã©mon
ĠUnt il
[ ^\
el lect
ĠM unicipal
ĠD uck
ĠL ar
The sixthstaff
nl m
Ni gel
ĠProtect ion
cyclopa edia
7 50
ci er
A pollo
G erald
U b
Ġ1 43
Ġbut tons
Ġmy th
ĠOb ento
Ġinsp ired
t oc
or st
S elf
Ġt ea
Ġh p
ĠH aven
ĠIP s
Ġge nder
ĠCha irman
Ġgreat ly
Ġfact ors
Ġprot est
Ġexpand ing
g ard
o ons
v at
up id
C ro
C Ã©
I GN
Ġm ile
Ġre ality
Not ability
Ġcha irman
ĠStat istical
f aq
Ø³ Øª
ast yle
U pd
ĠM olina
ĠB reak
ĠO thers
Ġwith draw
vert y
Ġsur vey
Dis play
Ġdepend s
Ġpan el
olith ic
in to
name se
L av
Ġst ores
Ġpass enger
Ġcontribut or
à¥ Ģ
ĠGil bert
Ġdan cer
c ost
m ist
r ÃŃ
and hi
und ant
J ava
Ġc art
ĠAndrew s
Ġwor st
c art
l arr
le ns
ia o
und y
uk u
V ir
Ġt ables
Ġme at
}}} ;&
ĠSe al
Ġstr ike
ĠLin ux
Ġfav orite
Ð¾ÑĢ Ð¸
R ays
Ġsee med
Ã¼ h
ĠCl imate
500 8
ĠClass ic
contin ent
ang ered
tra vel
Î ¼
Ġs oul
ĠA boriginal
ĠN am
Ġha m
direct ion
Ġdifferent ly
Ġsp in
ĠPr ofessional
ĠLe o
Sha dow
ĠAtl Ã©tico
Ġsurv ived
_ %
af e
D ouble
Ġt win
Ġs alt
ĠD est
ĠAn imation
Commun ist
Ġadvert ise
Ġbenef it
Chord ate
ĠMand ela
ĠNorm andy
createText Node
âĢĿ .
A us
M atch
N one
Ġt utorial
ĠM ission
ic ebot
ck en
N ation
U m
V S
Ġto ler
ĠA ns
ĠY ellow
Ġapp lication
ĠTer rit
DJ Dunsie
i ation
et ti
man s
ro le
ro gs
E in
Ġf rog
]]'' ),
col lection
Ġpar a
ĠSm ackDown
publ ished
ĠTransport ation
18 59
h ut
or ous
nt h
ab ilities
F acts
G ames
Ġf actor
ĠP av
ĠâĢ ł
Ġbot s
ĠMar garet
Tak eta
a N
~ $
ik awa
rail way
ĠM ix
Ġcomm ittee
yd ia
Ġmin isters
ĠTeam s
Ġprop ose
Disc ography
Ġgal axy
18 67
ti mer
ci um
ens en
self revert
A ur
Ġs aving
ĠM es
ĠB ase
Ġpre ceded
Ġsub stance
ĠPr ice
death yr
ie val
ut ely
G ive
G ustav
K r
K er
Ġ illegal
Ġco or
tif ied
Rom ance
ĠRu les
^ {
gin a
E stonia
J osh
P ale
T ennis
V el
Ġ ult
Ġin format
ĠP M
Ġ19 07
Ġ8 50
ĠLea gues
ĠCon servative
Ġrel igions
ij a
IV E
Tag Name
Web site
}}}]]}} ,
ymnast ics
6 49
R M
ĠS anga
ĠB ea
ĠR out
ĠRe serve
Ġro se
9999 99
Ġmeasure d
s witzerland
W appen
Å ŀ
rom os
Ġ''' [
Ġal cohol
}}} ={{{
ĠEx p
Ġroad s
ĠCare er
Haw k
ynam ics
Pla ce
] '''
c ult
j ective
p oly
ed o
sp l
S aur
Ġb log
Ġf ired
Ġ18 61
Ġapp lies
Atl Ã©tico
ĠMus ubi
( {{{
18 72
b ane
re sh
ass ium
ĠD NQ
Ã¡ r
Ġnav box
Bl ank
Ġdet ailed
found ation
Ġhol iday
4 21
y ah
th al
ain es
sc rib
V ent
Ġin stall
ĠR umble
ĠF av
ĠK hal
stan bul
VI CE
ĠEconom ics
18 48
st ep
L arge
Ġ odd
ĠR y
Ġg ro
Ed mund
organ ized
Gra ce
ĠInt elligence
Ġeat en
akh stan
Ġãĥ Ħ
ur ai
out reach
the l
rap ped
Ġj u
arr ondissements
Ġclo ser
Ġne ur
Fern ando
18 73
71 14
Ð° ÑģÑĤ
ier t
ew orthy
B urn
ĠM is
ĠF ac
Ġ2 23
ĠLeg acy
histor ic
īĪâ īĪâ
NAAAAI AAJ
ri u
B rist
P ha
Ġs ciences
ĠC leveland
ĠL ot
ĠJ ess
br aries
Ġreg ards
Ġexplain s
orpor al
Ġwatch list
008 000
ĠAb bot
Ġparticip ate
Nish kid
w ire
pr od
J S
R f
]] @[[
ĠP u
Ġsome body
Ġ' [[
Ġperson nel
ĠPla ces
Prot estant
7 37
100 4
A cad
C arr
F ilip
O bj
P unk
Ġs ca
Ġd ating
ĠL og
ĠSt aff
Ġcheck ing
Pre cision
Ġmat hematics
Ut ah
) %
or us
cl iff
Ġf old
Ġl in
]]: ~$
Ad ams
Ġprocess ing
ĠJer ry
Ġmag nitude
Spe ed
Ġmeasure ment
ĠHung arian
BOL D
getElementsBy TagName
a qu
H Ã¶
R and
ĠM oney
any on
Ġelect ricity
har v
pha b
Wil son
f ive
f inder
o NAAAAIAAJ
C i
G un
J J
U D
å Ń
ĠA in
Ġse venth
ĠUn like
Mal ay
Ġoper ated
= /
a bove
a Éª
ou ns
C ongress
Ġ1 55
Ġpre gn
ĠRem ix
Ġcorn er
ĠTHAN KS
ins ide
K as
ĠA bra
ĠN intendo
Ġal le
ĠV ik
ĠCol le
Ġmeet ings
dec ade
Ġwatch ing
Ġmass ive
ĠBru nswick
Ġserious ly
collaps ible
ĠPublisher s
go yan
ste ve
ĠC able
Ġgr id
|* ]]</
ĠAlp ha
6 78
87 1
ise ases
ran g
bre aking
Ġ q
ĠGerman s
ĠGi ants
Nap oleon
atem ala
6 53
_ {{{
ily n
R eb
Ġ}} .
Ġ18 60
imb ledon
ey e
cy cle
C incinnati
F T
G I
L an
U I
ĠC ourage
ĠN at
ĠG am
Be fore
att ribution
Alb any
usc any
grou ps
k ind
ic hen
re ports
ag ascar
W u
ĠM eg
Ġadd s
Ġ18 90
Ġch ip
ĠAn imated
Ġstat ue
Ġbad ly
atter ns
All ier
Ġattemp ts
Ġresol ution
is le
sk in
bet es
int ing
ak o
P LACE
ä »
Ġt om
ĠM ong
ĠP ak
Un it
Ġk W
Ġapp lications
ĠDes pite
otten ham
Der by
t oday
th ird
ern on
O x
]] â
Ġin aug
ĠM ut
ĠE mir
err ero
erm o
Ġrele ases
For est
Ġocc asion
Ġsever e
Ġstage s
Ġpat ient
Ġpen alty
inth ians
service Param
0 14
ĠN orton
ĠUn ivers
De an
ĠUser s
ĠMad ison
pol icy
Est her
chae ology
Ġinf ar
Bey oncÃ©
Ġconfig uration
) @
p un
u nter
or ien
ass an
F riedrich
J K
Ġst ream
Ġg ar
Ġnew ly
division s
ĠÃ ģ
Str ong
Ġlands cape
ec il
pl ies
N ashville
Ġth riller
Ġg all
Ġ18 64
Sh ir
Ġfav or
ic ily
re pe
app ing
np ov
T i
Ġg ate
Ġar range
Ġhouse hold
download s
bo o
ab stract
ĠT ribune
Ġ1 46
ĠM onday
Ch r
à¦ ²
ĠConf ederate
ĠBur ns
ĠMal aysia
Ġinfar ction
lab oration
J amaica
Ġ1 21
ĠE ur
Be at
Ġviol in
Ġ~~~~ </
fefef e
8 50
c anada
ut z
L ot
L isa
O u
qu ences
Ġd ab
ĠI celand
ĠP lat
ĠCh ase
orn o
yst e
urr ing
Emp ire
Histor ical
Ġmonarch s
Bos nia
ocardi al
o ids
by e
ĠL isa
Ġund elete
ĠAct ors
Ġcha dy
Av atar
Mor occo
ĠTw enty
Ġdinosaur s
18 34
18 84
os u
W er
Ú ¯
ĠP Ã©
ĠO rd
Ġsc oring
SER VICE
Protect ed
auk ee
ĠIch ihara
b il
us at
A ld
N M
ĠL au
Ġse es
Ġgu ys
Cl imate
Ġdec line
Ġge ne
Comp any
Ġem ot
Des ign
ep hy
}}} {{{
Ġ' ,
ĠCha pter
To ol
Sch le
Ġident ify
ĠPat ri
project s
ĠJon athan
man ces
A x
B le
P ants
Ù ĥ
ĠA ngl
ĠSt rat
ĠHe aven
Ġspe ci
Dr ama
gus on
ĠIll ustrated
j en
r unning
bo ys
ver e
the me
I UCN
U M
Ġb om
ĠC rist
ĠH aut
ĠH az
ĠW ien
nb a
ĠPr oduction
Tech nology
Dis ambig
w es
id Åį
hang hai
F u
ĠC ost
Ġh ist
South west
Ġpo ets
har vard
fac es
m di
og h
C e
D YK
M arne
ĠS audi
illy G
ĠAlex and
ĠJim my
Ġconduct ed
18 75
N ob
T T
Ġan them
umm ers
ĠSch um
ĠLin naeus
Us her
op pose
B Ã©
J SL
R ot
Ġw orship
ĠM ills
ĠE ff
ĠZ e
ffin gton
Ġdr ums
Ken neth
Sant os
Ev illyG
arct ica
) }}}}
86 2
g arden
s exual
ty po
om ach
ig ata
G overnors
Ġmed als
Comp leted
check user
Li brary
CCCC CC
Ġactivis ts
j peg
sh ould
com ic
fe ature
H M
Ġ[[ .
Ġc oup
Ġ1 45
ĠR ush
Ġ2 99
Ġ'' ;
ĠBut ler
Ġelect ronic
Ġrank ing
ĠRod ri
ch ant
yn es
D in
E gyptian
F at
Ġt asks
ĠC lement
ĠW ords
Ġle ts
ret ch
Ġdist inct
ĠStat us
à³ į
86 5
A serviceParam
B ug
Ġl osing
ĠC hen
ĠM ann
Ġex cellent
ati ents
b ush
r ates
min als
count ies
N ih
S ources
ĠP red
Man uel
Ad vanced
Mont gomery
([ ^\
ranch ise
Ġ**** *
w yn
st rom
ol ics
lt e
ist ent
ris tian
ash ire
D ale
K OR
V ik
× ©
à¸ ²
orig in
######## ########
w hy
in ews
cent re
N ortheast
Ġ ë
Ġp x
ĠAr ray
Ġunder stood
à¤ ®
Met ro
flo or
ĠAdd itional
ĠCurrent ly
cccc cc
6 06
l la
s il
ic ester
ius eppe
ĠF innish
ĠG reatest
áĥ Ķ
ĠTra vel
ĠRh odes
lime green
b la
o les
he avy
M ust
T on
Ġre public
ĠM ul
Ġv ideos
ĠØ ¢
Kos ovo
g ouv
it en
her ald
ĠM ade
ĠR eed
ĠE isen
âĢ ¦
ĠK in
Re verter
fore ign
Ġpost code
Ġfull name
Sport sperson
Magn oli
k W
Ġst rict
ĠF riedrich
itar ian
Ġdom ains
ash ing
B ackground
C os
R Ã©
emp his
Ġcl othes
Ġcom bat
Ġtyp o
iet namese
grand son
ĠBour bon
el les
ol ars
S yria
T ower
V il
Y osh
Ġin form
ĠP y
Al geria
Ġdef ense
Ġad vis
Ġpop es
ĠPre mi
usc ript
then umbers
b ir
er g
ah u
I v
J EF
N K
T B
Ġ ),
Ġc able
Ġs ample
ĠE nter
The se
rit z
Ġj oint
Ed gar
Ġsm allest
doc uments
Ġspec ify
Stat ic
d ar
e ach
o ir
by thenumbers
nd s
ef eller
urs day
Ġd omin
ĠS yn
ĠM isc
ĠY ugoslavia
Con gratulations
ĠCo hen
Dark icebot
collaps ed
. =
n acional
ert aker
B rain
T rent
Ġin fra
00 02
ĠD ud
Ġ2 25
ĠN aval
edit s
ĠHe at
wp Edit
Or lando
Ġorgan isms
Ph one
Czech oslovakia
\ .]
and ez
P OV
S unday
Ġp refecture
ĠL ower
ĠSt op
ĠV ille
ĠU pper
icult ural
c ÃŃa
se ille
he e
pr ison
iel sen
L anc
itle d
ĠM atch
ĠB enedict
ĠF al
Ġher b
Ġhigh way
Mon roe
ĠSal vador
:( (
Ġhor ror
hig hest
unis ia
18 57
b ey
d river
ir teen
ig keit
sha m
ĠS P
ĠI F
Sh o
ĠMon otype
189 07
Her bert
ĠSant iago
ot ti
od i
P hantom
Ġ Â°
ĠT yler
ĠB io
Ġso il
Ind igenous
ĠAtt ack
se mination
ad ise
ff d
G irl
Ġ arrondissement
Ġc abinet
ĠA post
ĠK i
Al anguage
Ġcontribut ion
Nat han
ĠPlay ers
ÅĤ aw
naz ionale
f ilter
n gest
s oul
ci us
N epal
ĠL az
Ġwe igh
spe aking
ĠTo gether
à¤ ķ
Tra ffic
uten berg
Ġsla ves
18 35
se at
lor ia
E rror
M ist
O F
ĠS ou
''' ]]
ĠW heel
uss ian
ĠGe ographic
ĠCo ol
serv ices
ĠPe ak
Mc Laren
Ġder ived
Hu go
>+ </
Ġemer gency
gorith m
z ac
F ound
ib al
Ġch ocolate
ĠAr dÃ¨che
ĠTo o
Ġdef ence
Norm andie
Ð¸Ð ¹
ĠFlor ence
econom ics
18 74
g os
ÑĢ Ð°
or ra
nt y
ow e
ran ged
Ġbe ach
Ġ2 38
ĠJ ar
gu er
rat ive
Ġinter face
har vnb
Ġfre quency
Ġregular ly
ĠNOT E
ĠBeng al
Germ ain
h ollywood
j ah
w hen
in vest
ip knot
ab we
the guardian
cha ir
A ngl
H MS
''' ||'''
ĠG ay
ĠZ Ã¼rich
à® ¤
Su preme
t et
re pre
D w
N ames
ole an
cur rency
Iran ian
Ġtrust ed
Ġnewcom ers
o ine
as hed
od Code
Y eah
Ġb io
Ġs weet
Ġm ast
Ġat oms
ĠV io
Ġpre sence
Ġbirth name
Sh im
Tur k
EC W
Trans wiki
So ccer
Ã¼r ger
Ġmo ons
ĠAre as
Ġstor ms
4647 35
f eed
op f
let cher
B alt
M ot
ĠP osition
ĠL ud
ĠN ob
ĠG olf
Ġpro se
Ġdef init
Col umbus
Ġident ical
(/ \
ulg arian
ÐµÐ ´
chae ological
Ġoccup ied
ĠDer by
j in
k il
ame n
A ux
R at
Ú ª
Ġh ill
Ġ# *
ĠAl bania
raw ford
Tr uth
Ð¾Ð ¼
w art
ar ctic
ser ves
K id
Ġp ointed
Ġm os
ĠS ize
title history
ĠC ena
ĠH alf
ele d
birth yr
Text box
Fl ower
ĠWell s
st udents
ak ov
he nt
T L
T icker
Ġn est
ĠH at
Ġr ub
May er
Ġsur pr
ĠDef ence
Ġintr odu
Wil helm
pag ne
;âĻ ł
Amand ajm
m urder
st ick
et ical
A ster
M iddles
S B
Ġc inematography
ĠD iamond
ĠTh ough
isti ques
!!!! !!!!
Vers us
Picar die
us ually
ey er
op od
fo ss
ĠY osh
Ġsol ar
off ic
Ġund o
ĠSe at
oj i
ĠPol icy
Ġdevelop ers
sp in
L ieutenant
R im
ĠP DF
ĠL oc
Ġ18 65
Ġext inct
Bel la
ĠAtt orney
Ġess ay
17 89
en di
en egro
ri ft
ant ha
he ll
ul um
vo ir
oper ating
V oice
''' |[[
ĠC abinet
Ġfor g
Ġsol ve
ĠSc ore
Ġad apt
ĠÂ· }}
Gr ant
Ġdocu ments
Ġcha mber
Ġbas in
Ġstrong er
Ġhonor ific
ĠSav oy
Lith orien
8 27
mar cano
H m
R oberto
Ġ rib
Ġs ang
Ġn aming
Ġ1 22
ĠB ry
Pro gram
à® ª
') )
Ġmiss ed
RO M
as u
ig r
Ġ| (
Ġp urch
Ġ1 44
ĠD oming
alis ed
Ġfix es
ĠMont gomery
Ġstudy ing
Ġann oy
Pap yrus
Ye goyan
cycloped ic
? ''
| :
ap or
B ro
F erdinand
â ĸ
ĠS Ã£o
ĠM are
Ġ== ===
ĠL on
ĠCh Ã¢
col umns
Ser ies
earth quake
syn c
ĠDemocrat s
87 3
et le
ex uality
sp ur
let in
Ġb are
ĠE ss
ĠD ue
ĠL iver
omat o
Ġpar se
Ġab sor
Ġlarge ly
ĠX V
ĠBas in
Sat ellite
Ġdetermin ed
Ġovers ight
Brist ol
ÃŁ en
ie ber
ik u
ob iography
uc ational
J esse
ĠSp encer
Statist ik
e volution
w aukee
le c
sm ile
ather s
C lear
D ew
G host
Î º
Ġp atients
Ġn it
ĠG as
ĠTh us
eli ef
Car bon
Per cy
Ġhistor ians
ĠFam ous
la ureates
E mer
G M
L ar
S leep
T rad
ĠK am
ĠBe au
We lt
ĠHol ocaust
/ ]
se asons
B eng
Ġin sects
ĠSte in
Cr ash
Oak land
) --&
7 04
f ut
h og
wa ve
E arl
K IA
T um
Image s
Al f
TALK SPACE
ĠCha pel
ĠFran ces
lav ic
ribut ed
ĠSystem s
Athlet ics
c bs
i at
W ol
å ±
ĠN icholas
Ġdo ctors
rest on
Ġpar allel
sw orth
Har ris
ĠAut o
ĠId ent
100 3
ge ls
per ts
C ourt
T yr
ĠB rig
ĠL ith
br other
Ġ7 00
Ġop ens
bur ger
Ad vert
zt ec
ĠNAS A
9 33
12 78
86 4
89 4
c ms
k at
m ug
y ers
lin ical
A ustral
H amp
ĠG ary
Ġk ings
az u
CR D
Trans late
alter native
Show case
17 04
18 36
d rug
g il
ick ets
J marcano
ĠL ab
Ġch at
Ġpart ly
umber land
Ġdiff usion
ĠPr ussia
ĠPal mer
ãģ ¨
Ġnav igation
Ġnecess arily
ĠLiber ty
ĠAmb ass
ĠZel da
18 56
ak y
ign an
Â ´
Ġl atter
ĠC our
ref eree
ĠB illy
ĠL akes
Ġg allery
ĠY ot
Ġv ary
), &
Ġprov iding
cap ita
Ġstop s
Ġland ing
Ġappreci ated
p iano
it ans
Ġb ones
ĠE y
IPA c
Main e
à¦ ®
ĠOff icer
CR Rays
nav box
ĠTrans it
mid t
Jer usalem
Ġrout es
bron ze
on ation
com b
ux e
the atre
P lymouth
ref name
ĠB E
par am
Ġtra ined
Ġhead line
ĠGreat er
Ab use
Ġwarn ed
ĠGal axy
Pa rent
vio let
t an
ia g
ant es
C ongo
G y
M editerranean
N etwork
W T
Ġyou ngest
ĠC raig
Ġ# ::
Ġv el
ĠK ak
Ar dÃ¨che
Ġser v
Ġfood s
ĠÚ ©
Ġprincip al
|âĺİ ]]|[[
46 46
c ue
um bo
co ast
og y
Ġ ],
ĠT reaty
Ġ1 27
ĠD ha
Ġacc used
}}} {{#
Un ivers
New ton
Sh Åį
Sp ot
ĠRel igion
. )&
ÃŁ e
on ica
ub ic
led o
A ra
S ou
Ġn ar
ĠB ran
ĠUn it
umb ai
ĠCol ony
ĠBl izzard
Ã§ a
359 25
Ġvio lence
S um
Ġp ole
ĠP ittsburgh
zerbai jani
Ġcivil ization
Ġchar ged
c irc
op p
und o
wer p
D inosaur
L ep
S or
Ġt one
imp ort
ĠAr k
Pl an
loy ment
v and
st roke
ir al
au cas
ac les
ast ro
ern o
ov an
own er
C V
H en
W o
Ġ nt
Ġ ul
ĠJ ason
St udio
ays ian
Cl ar
wy er
e ase
pp s
ox id
W ord
æ Ī
Ġw ings
wp Textbox
Sec ret
Def ault
fam ous
Gi ant
Ġrat ings
//////// ////////
; *
ur us
key s
its uris
lic ate
D av
H elen
O z
P ix
T ip
â Ķ
Ġp urple
ĠB rab
ĠGr ammy
ops ida
Johan nes
itsuris an
I ch
Ð Ĵ
ĠR ivers
ĠF ast
Al len
Ġcol leges
ĠWar riors
event s
Budd hism
s es
ne ighbourhood
il and
im it
C ole
F oreign
Ġt ou
ĠE ND
Ġcont ained
;: )&
ographer s
================ ================
Ġpal ace
ĠØ¬ ÙĬ
be th
fl ight
S lovakia
ĠH off
Ġ18 93
oun ce
ĠGr ound
ĠMet al
ecti ves
Ġ_ ]
Leb anon
c atholic
me the
mi les
Ġb less
Ġd aughters
ĠG overnors
ĠJ enn
gr p
Re vision
under land
Ġoff set
ĠBe ing
ribut aries
Ġwa iting
5 19
th rough
B ois
L ap
S aying
ĠD ennis
ĠMc Mahon
ĠRet urn
Count er
Ġmill ions
cc o
A bs
B rowser
C ST
R ing
Ġm atters
ĠT odd
ĠO z
ĠAr menian
ĠMan uel
Ġset tl
abel la
Ad rian
Ġresult ing
Ġsuccessful ly
og r
N B
Ġis ol
vent ional
Ġcons ole
Ġsp ons
ãģ Ħ
Ġofficial s
Ġ::::: ::::
Ġimprove ment
Ġenc ouraged
Mun ich
18 15
f emale
port al
ous and
ric ht
M ut
R ÃŃo
ĠH its
Ġdes cent
Ġsu fficient
Tra vel
Inc orporated
pa ul
po olf
air o
pr oduc
H yp
K O
Ġre in
ĠD raw
omm un
str Ã¶m
Ven us
ĠCont in
Ġathlet es
necess ary
u iker
ee ch
ain er
ien cy
J ct
P ent
S ource
ĠC ategories
Ġre lief
}}} -
Ġ18 70
ĠChe mical
rill ic
ĠFa ith
ebe cca
ĠStev ens
Jess ica
6 09
8 10
? _
om berg
op al
ub en
K E
L ab
Ġd ial
ĠS us
ĠSt ef
oll ing
Ġtext s
Ã¨ ne
Ġ$ (
Ġmag ic
Ġint elligence
ĠDes cription
Ġrat io
Rele ase
j ul
s ac
Ð¸ Ñĩ
ck e
are st
A udio
R est
ĠT ha
ĠT ax
Ġin active
ĠB rief
ĠDe v
Ġtag ging
Ġdesign ated
ĠDis cussion
alo gue
Ġve ter
Ġpaint ers
temp erature
Ġethnic ity
ĠHop kins
rÃŃ guez
18 49
ine es
ep isode
tech nology
H at
ĠR avens
Ġ2 45
Ġk iller
odu les
AD MIN
Att ack
Writ ing
Ġregard ed
Ġinj ury
Para guay
sul util
Hik itsurisan
st alk
lo gan
her itage
sha w
ĠW inner
Ġ2 79
ĠV e
Mar shall
rest rial
reg ular
Ġformer ly
Port land
Ġimprove ments
Ġ~~~~ '</
86 1
ai pei
ust ain
J R
ĠJ os
Ġ19 02
Ġk ids
ĠNew est
Ġsub sequent
AR IA
ĠRob in
ĠSax e
**************** ****************
89 3
97 01
el ing
me mor
um my
L over
ĠD aw
Ġ2 78
Ġsp elled
Chan nel
Ġprom ise
Ġ188 0
s us
an an
ch rist
ment ary
if u
ag ne
P T
S hel
ĠE li
St reet
Ġap olog
Ġdec ides
cf c
And rea
Nick elodeon
olymp ic
neu ve
7 05
se p
ak uk
the y
C AR
{{ Â·
ĠE ra
ĠW ander
ĠG or
Ġ|| '''
ĠV it
Ġnew spapers
Ar m
Ġpar ser
Ġsk ull
Ġexp ensive
139 004
ĠBenn ett
Ġscre wed
4147 47
la x
S ystem
ĠC atherine
ĠPri vate
Che mistry
ĠMont e
ĠRay mond
98 4
m tv
le p
sol dier
uc a
L ag
T itsingh
Ä ¸
Ġc ourts
ĠS ul
ĠC ell
ĠP ick
Ã¡ ndez
ĠCol ombia
Ġpopulation of
ĠOr ton
Wolf gang
7 66
18 71
89 1
k om
v eller
B rig
P erson
ĠR ah
Ġg ay
ĠYou Tube
Ġser ial
Ã¤ l
football box
Christian rocker
Ġresult ed
Ġmod ified
Ġcompet e
9 07
50 99
th r
au ce
pm c
Q L
ĠS ullivan
Ġ19 04
population of
Ġcontent s
Ġarch ives
Play er
Ð¾Ð ´
ĠÚ ª
ilen ce
' ],
d un
s cientist
ol ition
ent er
ah r
G ir
ĠD rive
ĠCh allenge
ĠPr incip
Ġchild hood
ĠHar per
Eng ine
Ġstor age
ĠDiff erent
Ġuni form
7 20
ip her
uch i
B W
R enaissance
R ugby
T Åį
Ġc artoon
ĠT ol
ĠH ob
ĠN uclear
Car diovascular
ĠSer bia
Ġdel ay
Jack ie
Ġtrad ed
Er ik
Ġhot cat
Vis ualEditor
infl uen
23 00
g st
ob ia
mic ro
P H
Ġ vision
Ġ1 29
ĠA R
ĠB ody
Ġprov ed
)]] }}
En ergy
ĠBe gin
action Completed
Ġfeel ings
ĠGra ve
FE A
ĠFollow ing
/ _
ia z
it ic
pe z
pa le
play ing
ig uy
ĠS usan
ĠC omb
Ed ge
Ġsu it
Mel issa
Sax ony
ty pes
gen y
G hana
S Y
V illa
Ġso le
Ġop position
Ġgr ant
Ġdevelop ing
olymp ics
: |&
l ord
ha ck
B ase
H ale
ĠP C
ĠJ azz
Ġv ac
scha ft
Guest book
vro let
al ians
of u
ame ngo
ear ing
C hamp
M K
Ġt alent
Ġl ap
Ġan chor
Ġcon verted
eli us
Ġprom inent
ĠWeek end
ĠLic ense
18 30
la ce
no on
ur an
ver gne
ham med
S ak
V as
Ġfor ests
ĠF iction
Ġcon se
Al bania
Ġgu ilty
stat istiques
ĠMet ric
Ã§ on
|â Ļ
Ġaff ili
NU MBER
Conf ederate
Ġmole cules
51 06
or ide
ap shot
ti les
name nts
come dian
B iology
C ow
G n
S z
T ouch
}}} *
Ġv oc
Ch at
;] '')&
Ġdri ving
ĠCre ol
Brand on
;('' [//
55 99
d in
ond uras
Ġw orn
ĠS ysop
ĠI X
Ġre tain
ĠSt uff
ĠNot hing
c ouncil
j ou
m ud
se mi
ell ites
log ging
R oute
Ġp ed
Ġh an
ĠB ath
eb ar
Ġex ec
Ġ15 00
Al le
Ġsp ell
He ight
ĠTrans lation
Lou ise
redi visie
8 47
con fir
F reedom
ĠT icino
ĠM az
Ġj ack
Ġro of
Ġjust ify
**** **
Jul ius
Mal colm
Rec ording
ĠÙ ¾
Lith uania
Michel le
ĠUnd ertaker
) ===
7 10
54 00
ch id
act ic
R oche
U V
ī '''&
Ġb lind
ĠP ole
ĠB aptist
Ġcl oud
ON aN
Ġlay out
Pap er
Ob ject
;'''âľ ī'''&
ONaN cle
z oo
Â§ &
D Ã©
F o
ĠS ac
ĠO ri
Ġpro x
Welcome vandal
Ġgen etic
ãĥ «
ĠØ ±
ĠKnow les
ChÃ¢ teau
1010 15
ĠPhill ips
m ile
C opper
E gg
L ed
Ġb ull
ĠS endai
ĠC ricket
erm uda
class Name
isc hen
Met a
Cont emporary
Typ es
Ġcolon ies
k ilome
ne apolis
T ake
Ġt iny
Ġl ab
Ġ2 77
ĠN ash
edit form
Ġinv ited
ĠGar cÃŃa
Ġbring ing
Ġopport unity
áĥĶ áĥ
am ine
li ber
sha ped
Ġt or
Ġshow data
Ġob served
ĠAd vance
Ġpopular ity
Ġtran sm
ĠAthlet ics
rep orter
0 20
th an
ag her
B irds
E MI
M unicipal
Y NY
Ġ1 18
Ġ1 33
ĠM obile
ĠB iology
Links Here
imb abwe
ĠArm strong
orde aux
k shire
un c
end ers
G h
P p
Ġ ....
Ġm achines
ĠA ri
ĠM ason
ĠF ore
Ġ2 33
Ġ2 76
ĠV all
Ġimport ed
nam i
Ġjoin s
message box
) );
av ily
Ð ¹
ç Ļ
amp us
ĠE rik
parent Node
Ġ-- ----
Ġpa ssage
par se
Ġres igned
Port al
ĠBay ern
ĠOil ers
m ie
N assau
è Ģ
ĠG rad
;| ''[[
Re current
ĠTh ames
az aki
OR DER
dis semination
Ġra ise
osop h
Pl anet
Ġeconom ics
ĠVari ous
Eins bor
16 00
46 1821
j ax
ier ungs
G ard
L uther
L ANG
Ø Į
Ġl akes
ĠH enri
]]'' '''&
fb w
Ġexp ires
ament o
Indian apolis
Ġran ges
ĠBlock ed
çĶ ¨
7 14
j im
on ial
ar ance
am azon
ĠS ussex
ĠC umbria
ĠR ud
Ġoff ers
ĠMar ÃŃa
Lea ve
Social ist
Ġelig ibility
ch ron
are al
kin awa
lent y
P sy
Ï ħ
ĠN ich
eb ra
Ġcat hedral
al ie
im ination
em ble
gen etic
ress ed
ĠA mericas
ĠC arson
ĠK ML
ĠU l
ĠInter ior
May flower
rel igious
ĠSha w
amer ica
rec ce
roll back
ĠRom ans
alest inian
) ]]''
18 25
ie ved
ers en
ot he
au la
out put
K Ã¶
Ġs ugar
ĠJ unction
ĠÐ Ĵ
à® ¾
Ġperfor mances
Ash ley
ip ped
tv bythenumbers
ag n
J inki
È Ļ
ĠC ab
ĠN ice
ĠV ermont
05 427
pri est
Ġclass ified
Al berta
Mont e
ĠWil helm
Ġcur taintoad
Ġdraw ing
ĠAsk ed
Ġmult i
ĠAbra ham
j unction
me aning
E ntry
P K
R ab
S cientists
Ġc ontribs
Ġd iet
ĠT ale
ĠM ate
ĠW ord
ĠW essex
pla ces
olog ne
vil la
Pol ice
ĠSh in
Ġad vantage
ĠRoman ian
Pe ace
Sa Ã´ne
ĠOl ive
ĠSquare Pants
ĠSom me
Econom y
ĠPengu in
ĠCarr oll
æĹ ¥
15 56
; Â§&
os itions
om son
A V
F ab
Ġc ropped
Ġb one
Ġm a
Ġ1 26
ĠB rain
Ã© rica
Ġmean ings
Ex tra
ones ian
ĠHar vey
oph ie
Ġexpl orer
Ġrecogn ition
Ġgovern ments
18 46
g olf
K iss
Ġl y
ĠC anton
ĠH us
ĠW arning
Ġ-- ''[[
)| ,
ĠK ra
Ġcol umns
Ġres idents
à¸ £
uts che
ester day
ĠLiber ation
utt gart
Gab riel
Ã¤ng d
poolf an
s ister
ĠD in
ĠG host
Ġcan on
Ġund efined
Ġsimpl ification
ĠEst abl
Ġcit izenship
found land
ĠSy mphony
. :
b ably
ÙĪ ÙĨ
ur ance
ant hem
Wiki quote
ĠS weet
gu st
ĠAnt on
ĠAdd ition
Ġteach ers
_ {
f recce
ort s
I z
Ġa spects
Ġs pre
Ġ1 35
''' .&
ĠM iami
ĠB ey
ĠJ ew
ĠHe ath
;''' .
Ġrest riction
intr usive
Ġoper ator
Lit re
ĠTig ers
m achine
r ural
in sky
uk es
gt hen
A ri
C ry
F unction
J ar
T iger
Ġre ar
ĠL GBT
Ġ}} |
reat ive
Ġab and
stant ine
Ġexpress ed
ĠDisc ography
rai rie
Ġtot ally
Ġcompar ison
! '''&
d iction
os o
T aj
Ġ1 47
ĠA N
Ġbe lt
ĠD ame
ib b
Ġco al
ĠMc Donald
Ġgr ade
Ġred links
ĠOl iver
Ġdisc ography
devel oper
Stew i
89 2
g au
i ment
re present
un ar
ier archy
gen ous
ig ator
I OC
L iam
Ġf ran
ĠE ns
Ġme asures
ĠâĢ¢ }}
New Pages
Pr of
ĠEx change
Ġstr ings
Âł Âł
oth urn
ipp ing
ĠArch itecture
dec line
Den ver
Ġph ase
Pref s
18 39
33 00
43 21
? ]]&
ent ertain
if ican
gi ate
sc r
sha red
M otor
Ġa im
Ġd epartments
ĠB ark
ĠB log
ĠH ood
ĠH ind
alt ender
ĠIs le
AAAA AA
Mad rid
ĠGab riel
ukk akuk
ukkakuk aku
9 60
o it
ge m
ac ritic
ab it
E ver
P el
Ġp atterns
ĠB ak
ĠR osen
ĠE vil
ĠDe claration
block s
ĠGe meinde
ĠØ ¯
') );
ĠCan ucks
Ġdia meter
g by
es p
ation ale
ax ies
Ġb other
mat ches
mat erial
Ġtalk ed
ĠL otus
)| *
Ġr ide
vol unt
ĠLe arning
ĠGe org
ĠMor rison
Air bus
Phys ics
on ies
in ho
oy age
ĠH ook
Ġex hib
ĠComm unications
Ġeven ing
ĠWest minster
Ġinterest s
ĠPl ata
Ġsat ellite
phot os
eval uate
Ġbatter y
bez irk
rehens ive
6 07
8 28
24 05
a ft
o cean
x ico
ol id
C ant
M Y
O G
P J
P V
Q C
Ġ1 53
ĠW orth
ĠL em
Ġ18 62
acc ount
Ġbug s
Liver poolfan
}}+ {{#
18 14
c ade
f ashion
i Tunes
k ers
t rump
ar is
min gton
ert il
su icide
O D
Ġw et
ĠM ult
ĠB arras
ĠE qu
Ġhe aring
Ã¼ hr
Ġmar ry
ĠArt ists
Ġri val
ĠHay es
ĠParalymp ic
c ass
L eeds
N H
Ġ ip
Ġb ishop
ĠC ut
ĠK el
Ġ3 12
Ne v
ĠHar vard
Ġcelebr ated
98 2
c od
} )/
le ton
H omo
S ave
ĠP ara
ĠB ears
ĠJ ets
br y
Ġhe avily
iv ier
clud es
Ġocc as
ĠWood s
wikis pecies
Ġinit i
Az ur
AG F
1 0000
77 77
is abeth
ou vel
ara oh
Ġp ink
Ġn at
Ġ{{ {{{
ĠO wn
yr ka
Ġarch ived
Ġlik es
Ġfoss ils
Ġhook s
Marit ime
deep pink
11 00
14 29
l ung
en i
am ura
ct ype
ard ing
gy z
ever ly
ost rike
C ameroon
]] (
Ġc ousin
Ġs in
Ġp hen
Ġd ream
Ġref s
Jer emy
Ġtemper atures
ml b
ms g
ron gest
ook ie
rie ve
ath ing
E UR
T ottenham
ĠD od
Ġ18 96
asc al
Mc C
ĠMic rosoft
Ġpun ishment
berbul lying
18 47
o que
ber y
ti enne
ĠP earl
]]) ;
ĠK Ã¶
Ġde sert
Ġ17 0
Ã³ w
Ġdest ruction
ĠVer dy
ĠCorn ers
Ã¤t orter
l ig
s op
ml y
km Ã¤ngd
of ia
late st
Ġs ung
ĠS aw
ĠJ urassic
ĠCh and
pri mary
sub string
igh bor
Ġwiki link
summary Ad
Ġbal ance
advert ising
repe ated
9 30
15 06
49 567
Ã¦ m
mber g
tl ink
B un
C ontribut
V ER
Ġf emin
ĠM ick
Ġst ored
Ġqu antity
Ġconf usion
Ġemp has
Ġsal im
18 10
77 54
q fy
ed riel
ig u
E li
R an
T NA
Ġm ail
rom o
Ġinv Ã¥n
Box ing
Ġcarry ing
ĠinvÃ¥n are
. ]].
0 12
b illion
he x
con nect
app oro
S oftware
T M
U ra
Ġs im
Ġs ight
Ġm d
Ġ1 42
ĠA viv
ĠB uc
ĠB lair
Se al
Ġland areal
elli gent
;âĢ¢ &
Ġfol kmÃ¤ngd
0 17
0 23
96 1
te a
or ne
ron es
L otus
T Ã¤torter
å ¸
Ġp neumonia
Ġm ath
ĠS uns
ĠG raph
;[[ #
Ġoff ices
Ġlead ership
Sha wn
Met al
Pakistan i
Ale ks
ĠËĪ f
ifican ce
18 40
36 50
e uro
ËĪ aÉª
up per
L ex
Ġse quel
Ġsh ut
ĠAir bender
ĠAll an
Sing lish
ĠTor res
tab ad
TÃ¤torter nas
0 15
54 47
98 5
ro it
end Ã©e
sent ences
F lo
Ġs em
mat a
ĠO scar
}}} '''|
Re ading
Ġen able
Ġstr ategy
Rel igious
áĥ Ľ
Art ist
olph in
]]â ĨĴ[[
7 07
98 3
ss es
om ers
vin cia
pl us
ĠI mm
Ġatt end
ĠGen er
Ġcharacter istics
ĠReg ister
cycl ing
uzz le
Ern st
WH ERE
ĠTob ago
1057 86
4 19
8 09
] ?
l iter
on ce
ill ar
B ishop
C G
L M
P ER
Ġm ammals
ĠJ udge
aut ostrike
ĠOther wise
Ind ependence
Ġfun ny
Ġtreat y
Ġindic ates
Ġcult ures
resol ve
ĠWed nesday
Ġrough ly
usat oday
0 16
15 60
f at
t urn
y el
di ble
S ussex
Ġf er
ĠP ale
ĠP ep
ĠF leet
Qu arter
Ġwe alth
Ġfound ing
Ġmem orial
estiv als
18 38
b ah
T ropic
Ġan gle
Ġdo s
à¦ ¯
Ġput s
cred ited
Char le
ĠQuery String
7 15
ur m
val ues
end a
C c
P ast
S ud
Ġre put
ĠL ines
St age
Sc ar
Ġvisit ors
Co sm
Us age
Ã¦ts ÉĻn
ĠFern ando
Ġerup tion
ĠËĪf Ã¦tsÉĻn
ËĪaÉª Ã¦m
' +
18 45
orm ouse
H aiti
N ever
T G
ĠP owell
|| +
rit ion
ĠPort rait
195 14
ĠÂ §
-||-|| -||-||
t ot
w and
art ney
ql r
ov Ã¡
C AT
è ¨
Ġb g
ĠM asters
ĠR ice
pri vate
à´ ¾
Bri en
ne o
ris k
av ian
ator ter
E thnic
Q a
S lovenia
T atorter
]] *
ĠL arry
Ġ+ [[
Ġen emies
Ġcont rast
De lta
Ġage s
Ġsit uations
Ġest imate
sters hire
Ġho ax
byr Ã¥n
v ah
us eful
ac tivist
hy a
ul ia
ab solute
F lying
á ¸
Ġ ing
Ġp our
Ġd oll
ĠS z
ĠS ebastian
ĠN ominated
ĠDe von
What LinksHere
}}}) )|*
Ġri fle
ĠRichard son
Luc ida
loss ary
Leon ardo
Repla cing
Toy ota
6 59
f ae
al ion
ch ten
ar qC
ti ally
og i
B reak
F urther
H old
N W
P latinum
Ã ľ
ä ¹
ĠW MF
Ġnav al
AAAAI BAJ
Tatorter nami
. ]]</
ar re
ut i
ox ide
T arget
Re ason
Ġ3 50
az y
aj e
118 36
open hagen
Sat urday
Ġcentral byrÃ¥n
Ġchampionship s
voy age
ĠCath olics
Ġadap ted
ĠEmir ates
oo oo
mon arch
ag ra
J orge
Ġd ms
ĠS ummary
ĠB ureaucrat
ĠK l
Ã¶ d
Ġelect rons
Don nell
Ġrepresent ative
Bas se
ĠRod rÃŃguez
Ġapparent ly
Winn ipeg
18 43
28 97
v ana
lt ing
M ast
S oft
}} âĢĵ
Ġ1 32
ĠC roatia
Ġre aches
ĠB ro
ĠCon servation
Ġunder ground
riter ion
Ġdead url
ecti ous
ĠGri ffith
Ġcaref ully
Statist iska
Ġresc ue
8 48
i formes
or ama
ter ror
light en
are as
D y
M ale
P f
Ġw izard
ĠO ften
ĠSt age
Ed inburgh
Ġent ity
Ġnetwork s
Cer tification
Ġinvent or
Ġbon us
if ford
uo i
K K
Ñ İ
Ġa uf
Ġf ishing
]]) :
Ġse eds
Ġco aster
aj an
ident ial
elect ricity
Ġab sol
It alia
ĠGu itar
Jul ia
Ġass ault
ĠPhil osophy
organ ic
ĠCatholic ism
foot er
n au
ow een
sm outh
sen ate
pin point
G eek
N u
P sych
Ġ( )
ĠC ul
ĠP el
St udent
comp uting
ĠMe thod
Ð¾Ð ³
Greg ory
Direct or
Ġhunt ing
]]{{âĢ¢}} [[
Welt force
p oll
ome ter
B uenos
Z w
Ġw arming
ĠA HL
ĠC elebr
ĠCh at
opul ations
Ġcon victed
ours es
ĠTer ry
ulf ur
Gi ovanni
Ġsla ve
ĠAh med
26 07
s ave
te or
ed ing
at tr
act er
C ed
H ert
Ī &
Ġin stitutions
ĠP ain
Ġ17 5
6 28
18 53
f ederal
le igh
ag ata
rect ion
A ccess
J oy
Ġ ÙĨ
Ġf inger
ĠC oll
Ġj an
:| {{
220 966
Ġfew er
Ġsur gery
ĠÐ ¼
ĠRail ways
Ġrepresent atives
Ġcontr ols
f ocus
g ren
di o
ci pe
C orporal
Ġthe ories
Ġf rag
Ġd ragon
ĠB uch
iz za
Ġ' |
bl ues
à¦ ¬
ãĥ ŀ
ĠRes ources
([ ^
Pan ama
Short Summary
ĠDevil s
abbre v
6 46
s el
do ctor
cc c
D emocrat
R he
Z ephy
Ã ģ
Ġc ream
Ġm or
ĠS ey
Ġat mosphere
ars en
Ok ay
MP LE
Ġshoot s
histor ian
dat astyle
Ġrelationship s
Ġtechni que
Temp le
Mick ey
18 20
o len
u led
ers ch
L ad
O X
St ra
vers ity
mper ors
ĠGovernor ate
Ġconcer ts
Ġsock s
ä¸ Ń
nomin ation
Ġcritic ism
k ur
ra cing
ly de
em b
S ag
S IN
ĠS che
ĠE lection
ĠK ane
Ġj un
rop hys
An other
!! !
ĠTech nical
ingu ish
ĠOtt oman
ri que
ul d
B ron
F rog
ĠS ources
ĠD j
Ġra p
à¤ ¦
ierungs bezirk
) |&
8 57
18 13
89 50
g ia
mar ried
D erek
M ode
Ġf la
ĠA bu
gu ar
Pr odu
ĠSc ha
ãĤ ¿
ĠCast ro
cond uctor
Ġburn ed
fiction al
8 26
n ership
int ers
av an
eng land
van ces
B il
D ays
å Ĳ
ĠS ultan
à¤ ²
Ġint ent
Ġalong side
ĠMid lands
Ġcollect ed
Ġreact ions
wmf labs
d istance
it he
ms n
ant le
G ironde
M ammal
ĠH ost
ĠD istricts
Ġ19 0
ĠK os
iv o
Ġcon qu
omin ations
Ġind uct
Sha h
Gra ham
Queens land
on aut
em ics
C ay
ĠS eg
ĠB ast
ĠE ve
ĠW on
Ġ-- -&
Ġpre v
Ġar med
Ġsc enes
Ġche ese
Ġback ing
Ġbre ast
7 13
me tic
me iras
ox ygen
B ush
B oris
M s
Ġ html
Ġs an
Ġf ault
ĠH ern
ĠK arte
à¤ ¨
ĠAng lo
ĠLabor atory
Ig na
Mister Wiki
8 06
hy ber
ara gua
D est
G othic
S CO
Ġd ear
ĠR osa
Ġ18 63
CO ME
ĠRo om
ĠClark e
orti vo
p oints
s ar
gan o
ig raph
kin son
D uck
Ġme ta
Ġme ter
}}} |&
ĠHe arts
Ġcomp osition
Ġask s
Con nor
club name
Cap itol
Can al
ĠCount ies
Ul ster
9 74
] );
f ried
Ñĩ Ð°ÑģÑĤ
bit uary
E redivisie
N er
P ed
P retty
Ġm al
Ġn ick
ĠP ath
ĠG ross
Ġvari ant
ĠHol mes
urd ers
ĠSerge ant
b ible
en stein
ons on
ort heastern
end um
ĠS ox
ĠA aron
ĠF an
ĠF ont
ĠD awn
ĠIn v
ĠZ o
ĠSh ir
Sp y
Ġattack ing
Ste el
Ġmen u
ĠCharl ie
Ġsummar ies
ĠÂ± [[
Schle chter
8 33
ne ider
oc at
ou stic
H E
J ak
P ac
S ever
Ġp or
ĠS elf
''' ]]&
00 04
ĠB lake
Ġk g
enn Åį
Ser bian
RT G
ĠKe ith
Ġtransfer red
p arts
r age
u les
ld b
ti p
cl use
T N
W ay
Ġa gencies
ĠM Ps
ĠP rison
ĠF ighter
Ġsub ordo
stit utes
Ġorgan ism
ĠMer cury
Ġtempor ary
6 04
s ame
F ul
F ig
G ren
T oken
ĠC avalry
Ġdis abled
ĠAn imal
Ã¡ rio
Comp etition
Ġstru ck
Pe ak
Ġsus p
Late st
3966 86
me z
ul ations
M az
Ġm i
Ġh ate
ĠP opular
ĠCr us
Gebr uiker
7 47
10 79
e gr
ge x
res ources
E van
× ª
Ġ Ð½
ĠR enaissance
ĠL is
ĠK or
Ġsh ock
ĠTh ought
par ation
ĠIsland ers
FE F
ĠInt roduction
Sl grandson
phil osophy
Ġrul ers
6 26
9 59
n ac
an ca
aw s
B ath
B lake
F uj
Ġin juries
ĠS um
Ġl aid
ĠC irc
ĠM aking
Ġfor got
à¦ Ł
Ġresp ir
Mic ro
Ġrest ore
Ġdisplay s
ĠSmith y
ĠOk ay
Ġeduc ational
Nag oya
ocking Hawk
s lam
ÙĬ ÙĨ
us gs
ist on
L ydia
Ġt ank
Ġs ession
ont ology
icy cle
album s
Ġcontribut ed
;âĻ «&
Ġliter ary
1599 72
6 03
on o
on an
ch u
ir ate
K now
Ġf ever
Ġh urricanes
Ġxml Doc
gr icultural
ĠRe ich
arr ant
Ġlist en
serv ations
Ġlim its
atj ara
51 13
d ash
or io
G Ã¶
Z a
Ġm ilit
DI T
peri ence
Be au
ĠSub stituting
ombard ment
Cars rac
Mig uel
9 04
m io
Ø§ Ø¯
ri ers
per mission
ris bane
tr ade
bug zilla
S onic
ĠC BS
ĠAn atomy
Ġro ots
ĠPer u
Ġauthor ities
Ġrece iving
Ġqual ify
. âĢĿ
7 12
p ine
or ah
ar ina
as ury
ah ore
you ng
G ini
Ġin sert
Ġhe n
Ġreason able
state lem
à´ ¨
Ã¡n chez
engine er
Ġign ore
repre neur
7 06
8 46
f inger
me g
ir y
ame ter
ph ylum
ust ers
S quare
ĠG ama
}}} +
rat op
Cat hedral
sur face
Chan ging
AB S
Tele communications
short cut
ĠVen ezuela
Ġattemp ted
;]]. [[
åĽ ½
0 25
6 50
h cd
n wd
n udge
or ient
ri elle
M ul
U nter
ĠS T
ĠC rystal
Ġ18 98
Ġcons ult
ĠMar x
Ġqu i
Se ine
Se oul
ophy ta
ĠDoming o
8 79
18 09
Ð¾ Ñģ
all i
C ox
L ac
× Ķ
å ¾
ĠL ag
ĠSt re
ĠSt ories
ĠV as
aut Ã©
Ġmag azines
ceed ings
Wikis ource
Ġorient ation
17 00
18 51
l ater
her ic
und le
B am
J i
Ð ł
Ġa f
ĠS em
Ġst ri
ĠB rew
ĠCh aracter
It alic
Ġman agers
Ġsla very
6 10
7 28
9 249
j am
re placed
ad j
nd on
im pact
pass es
H ide
P or
ĠC ort
ĠB il
Ġj ourney
]]''' ||
ange lo
Ġimport Script
Ġcar rier
ãĤ ¹
alo ch
ĠClass ification
Ġkey board
ĠDep uty
ĠMoz art
8 38
om obile
ht on
G lasgow
K B
M ans
Ġt ip
ĠE lement
Ã© l
inn ess
ali as
Ġview ed
ĠFound ed
stat label
anc ers
Ġturn ing
Ġinvol ves
ĠOrigin ally
Sl ipknot
Ġlett ing
Ġmurder ed
Ġdra wn
soci ety
Vari ety
h om
en k
tt ar
iel s
A ston
H H
Ġp orn
Ġin ches
Ġsp oke
ĠWh ich
Ġorgan isation
Ġmag netic
Jo el
ĠRat ings
6 56
11 1904
s ous
er re
ns w
ers c
its u
P U
Ġw ire
ĠM illion
ĠK iss
Ġ18 95
rad a
Ġbelie ves
AR R
Ġmeasure ments
Ġther apy
7 36
8 04
mi um
ip el
sc roll
field s
B asketball
F person
Ġa st
Ġb read
Ġb anks
Ġs isters
Ġf lav
gu ard
}}} {{!}}
;]] ''
uring ia
ĠBad en
18 44
28 3399
c ru
at rical
B right
G ian
I vo
Ġ icons
ĠC U
ĠC amb
By zantine
ĠVer de
fel der
ĠWander ers
d atabase
an imated
st et
ren gthen
light green
pr in
A boriginal
ĠT ry
ĠC anyon
ĠO ption
ĠNew man
reat ment
Ġpre ced
Ġsur render
Ġreal ize
Writ tenBy
Ġpat rol
Ġpopul ated
Ġrecipi ent
Ġabbre viation
Ġsoap box
7 03
15 68
d ic
u co
v ian
et ing
id ance
A thens
F am
Î ¯
ĠSt alin
Ġk ick
Ġher itage
Ne ur
ogn itive
Ġhost s
Ġroyal ty
ellect ual
) (?:\
c ases
e very
} \
ha el
ot on
ern el
rent ice
D om
D raft
H il
Ñ Ħ
Ġ ordinary
ĠR oc
ĠE aster
ĠD om
ĠG andhi
ME X
Sp ongeBob
Ġredirect ed
ĠÐ º
San frecce
ĠMcC artney
6 57
b irds
c in
m ort
fl ies
M itt
S exual
Z h
ĠT ampa
ĠS und
ĠS yria
201 9
ĠB og
ĠG ates
ĠK Åį
Ġ18 50
Ġcon vention
ĠMar inos
Ġcontin uous
Ex treme
Ġbr ings
Jam ie
6 45
f rance
le my
ia k
ch us
aid en
B had
Ġwork er
St efan
eli pe
ĠSc ar
Ġad voc
alon ia
ĠPl us
Ġperfect ly
Vol cano
Ġneighbor hood
Wy oming
omet ric
ĠAmbass ador
98 72
c ry
at io
co h
ĠP ul
ĠR ings
ĠJ en
Ġlog ic
ĠPr of
Ġair line
audi o
exp and
Ġvio lent
misc ellaneous
ĠChronic les
champ s
d ri
Ùħ Ø¯
C alendar
F IN
J ura
L S
ĠW IN
Ġhe x
Ġ4 30
Ġlog ged
Ġcomm ission
Ã¼ ller
Christ ina
}}''' ||
Ġappro val
ãĢ Ĥ
brow ser
quire ments
10 495
b ital
s che
and in
ess ment
C linton
D ol
F olk
M t
T rain
Wiki Browser
Br uno
orp han
Ġge ography
Atl as
Ġint ention
ĠChronic le
CRRays Head
+ %
0 99
7 365
8 55
f erence
k ha
ic iency
os its
M ol
Ð ľ
Ġclass ic
asc ot
olo gue
Phys ical
Ġcontrovers y
uris diction
Gil bert
) ].
18 12
18 24
m ol
il io
ir m
oh l
B roadway
G D
G RE
I CD
J Y
ĠTh ing
rop olis
Ġelect rical
cur id
ĠMig uel
Ġcur rency
Ġrequire ment
||âĢĵ ||âĢĵ
ĠCommun ist
honor ific
17 07
j ke
min i
Ġre nder
Fre quently
ĠRepresent ative
Kn ights
Ġsus pect
Ġabbre vi
ÑĩÐ°ÑģÑĤ Ð½Ð¸Ðº
8 66
8 69
f ax
h mw
er ie
or um
B ast
B rack
G ap
P anda
T ry
ĠI g
ĠH aiti
Ġcl ient
Ġpost er
ĠSe goe
ãĥ Ī
ĠJohn ny
ĠAdd bot
fin ite
Ġ**** [[
lem ish
hockey db
tran smission
f ifa
y ork
ar ie
work ing
F light
pre s
Ġ# ####
St uart
Ġpre mier
Ġro b
Ã¶ rd
ĠComp lex
Ste in
CH U
Ġhot el
Ġpropos als
Ġbomb ing
ambass adors
m our
im ic
res num
F iles
H ero
M ack
M odule
Ġf leet
ĠC ontent
ĠP ent
ĠF ried
ĠL ay
ĠL oz
ĠLe vel
sur name
Mat hematics
Ġvar iable
Ġargu ed
à¹ ī
Uns igned
Lat via
b led
t any
w inter
ed d
et ry
age nt
F emale
K l
Z H
ĠA ud
ĠĠĠĠĠĠĠĠ ĠĠĠĠĠĠĠĠĠĠĠĠĠĠĠĠĠĠĠ
reg num
Fr ame
Gr am
ĠÐ ¡
Per th
ĠDel hi
Ġorg ans
6 17
6 30
a ustralian
p itch
re x
ar ag
me th
pe ak
om Ã©
ile e
× ĳ
empl at
Un cle
ĠK as
ĠEd inburgh
]]{{ âĢ¢
ĠAll ier
Col in
Ġmet ric
cont rovers
Cont inental
ĠWrit ing
ĠLav igne
proper ty
p ubs
se us
la wyer
el ia
D ais
K night
R ural
Ð ĳ
Ġf ails
Ġbe gun
ĠG len
ĠInd ividual
Ġcount ed
Ġdirect ions
ump s
Ġdem o
ĠCan al
ĠÅ ł
ĠFriend ly
ĠPunjab i
6 18
6 43
9 73
d rew
k rit
ck s
lo ader
ent en
ach in
ign on
oh r
E ugene
Y am
ĠI sh
ĠA ux
ĠA ctive
ĠA ustral
ĠC ay
Ġis t
ĠH esse
Ġ: ).
Ġdis abilities
Ar nold
part ner
Ġ188 9
Ġvers us
Ġcharge s
celebr ity
\. \
) *
18 06
27 24
r ations
en wiki
ip pe
ome z
D as
Ġd ict
ĠT ok
ĠS ard
ĠS ud
Ġre production
ĠD uty
Ch ocolate
flag athlete
Ġjust ice
ĠBe ijing
à¦ ¨
ĠAnge ls
ĠRo vers
Ġfoc used
ieve ment
design ated
100 7
b ag
e ties
i ped
st ones
em o
Ġp oin
ĠK um
ĠK iller
Ġsh arp
Ġsub st
Ġ) ''&
Ġorig ins
Ġpen is
lyr ics
ĠVin ci
6 48
n ach
in come
al am
ch io
ow ing
B ark
G as
M oney
ĠC ad
ĠV es
dis ney
ĠOb server
ĠLanguage s
Repla ce
8 14
t tl
or ers
et us
ur se
ir ing
oper ation
T omato
}} --[[
ĠS ons
ĠN u
Ġmy ocardial
ÃŃ as
ĠFre eman
ä¸ Ģ
ĠBob by
ĠSom erset
Ġprefer red
6 40
8 20
art ists
he ed
ald en
J D
W heel
Ã ħ
ĠL ess
Ġ2 10
iz ards
Ġpo ol
0 27
18 55
a er
ak ura
ost ic
med al
I mg
Ġt ale
ĠA griculture
ĠC ox
ĠB aldwin
Ġ2 12
]]) }}
Ġun constructive
Ġ18 97
inter net
Man itoba
sper anto
protect ion
Ġregard less
ĠStock holm
pher d
Ura wa
8 12
9 08
18 07
46 43
v ill
ure ate
ul er
S s
W arn
Ġthe ater
ĠT rib
ĠS udan
ĠF rog
Ch i
ĠRe ise
Ġapp lic
ĠShe l
Ã¡ lez
Ġass igned
Ġkey s
Ġscript s
ĠDirect ion
Ġfast est
imm ons
Ġdan cing
ĠTrack s
33 17
j Query
r fd
u id
man y
ant is
sm h
ab d
C hampionship
S ebb
Ġp ush
ĠT error
ĠI de
ĠD ol
ĠN ine
ĠJ Ãº
Ch aracters
Ġatt ributes
Sc ot
Ġevery body
à¦ ķ
ĠBer keley
Ġreturn ing
stal led
Title s
avi ation
mill an
ilg ri
pr oduced
fl ict
ht unk
med ical
× ľ
Ġ1 36
br ough
Ġcol labor
En vironment
havi or
ĠRay on
ĠFer guson
ĠSher man
Carol us
Ġdrink ing
ĠProt ocol
Ġpoll ution
uccess ful
t ol
pa ce
ors et
gn es
B T
C Y
U H
'' ]&
ĠS cientific
ĠM ol
Ġh orses
ĠD ion
Ġle af
ĠSt rait
Ġ} );
Nor folk
Ġbureaucrat ship
Bhad ani
7 48
7 09
me ga
am ander
ap r
ree ks
A H
A X
S ebastian
Ġp ix
ĠS yl
ĠH av
Ġ2 80
ĠK u
stat value
Comp anies
Ġwar fare
YY YY
Time line
RI AA
ĠEle ctoral
run ner
htunk hwa
ie th
sh ore
un ct
N an
P ain
Ġc ens
Ch arts
Ġ16 5
Mag ic
Ġest ate
ĠBa hamas
ĠKy oto
ĠBrab ant
6 24
k ore
m ouse
and e
sp irit
sol ar
Ġl ung
elf are
iser ies
Ġsche me
h ole
n ian
v card
ga on
ew ay
ov y
Ġd emocracy
ĠS S
ĠC risis
Ġgen res
Ġpl ates
zh ou
Ġelect ron
ĠReg Exp
Ġreach ing
Pha edriel
f und
m ale
ne paxt
un ited
P oints
T win
Ġ( (
ĠC yrus
ĠL amb
Ġref erenced
ĠMan itoba
Ġter min
ĠFlag s
Ġarr ay
8 23
ia st
st ore
am y
mp l
out ers
ig nty
G lenn
á ¼
ĠK obe
;'' //
Ġent itled
Ġtrans parent
Ġtransl ations
ĠPla za
Ġconcept s
0 24
8 59
9 10
ip zig
ser ving
A ch
M ats
Ġn ut
ĠA rial
Ġl oved
ĠJ ura
ĠSt a
Ġmar tial
Ġhighlight ing
ĠLate st
708 090
w ang
mark s
bert arian
G inger
Ġb ars
Ġm arch
ĠG DP
ĠJ ohns
ĠO wen
ĠO R
Ġe co
elf ast
ssoci ate
ĠOb servatory
Ġmix ture
Ġexplos ion
h unt
al yst
media wiki
Ġm ad
ĠW ave
elect ron
Gen eva
Ġdec lined
ĠPaul ista
Act ing
() {
noc at
áº ¡
Mik hail
Step han
foss il
entertain er
c ampaign
r ide
ok ed
ik en
dra wn
J ur
L inda
N eptune
P BS
Ġt in
ĠMan ual
Sh izuoka
miss ions
Me thod
Hy per
Ġpick ed
othes is
Ġ::::::: :
Ġbound ary
Ġabsol utely
8 29
h ma
en za
H t
Ġw ine
St rat
ĠU ruguay
ĠMan ager
Ġreg istration
Ġweek end
dec rease
( ).
13 5008
17 68
ll an
lin ation
oc ia
ks w
ub x
I Q
N est
S ierra
Ġ ere
Ġan imation
Ġpa irs
ĠZ IP
ĠBer ger
Ġport ray
ESP N
vari ety
Ġflu id
Same kh
8 05
g azette
h ook
k on
Ð° Ð²
ge e
bra him
M iy
T hai
Ġb ag
ĠP ie
Ġst eam
Ġ' \
;( ~~~~
Al berto
For ward
') [
ĠCom merce
unn ers
ĠWat ers
Namespace Number
/ .
8 43
vi olin
pop ot
lean or
A ward
Ġs ep
ĠM iz
The odore
Ġcom fort
Con n
ĠSome one
FC F
Ġplan es
SP R
issip ated
Ġscreen writer
ĠGri ffin
anz ania
Ġwalk ing
categor ize
Ġaster oid
Ġprox ies
h ir
i ol
el len
id ency
P W
Ġp lenty
ĠP owers
Ġg la
ĠG ir
:| [[
Ġsub stan
Ġparticip ated
Support Party
Disambig uate
;(~~~~ )&
, ?
0 11
17 99
w at
| \
an illa
es per
ber n
L R
ĠT ibet
ĠT omatoes
Ġ1 37
Ġinter views
Ã¼ l
sw ana
ĠBel la
Ġqual ified
ĠGib son
Ġnob ody
Ġconvers ation
;âĻł &
6 37
6 55
7 16
m obile
ing ers
af ogo
H udson
ĠB ulgaria
ĠL ogo
ĠK ub
div orce
Ġcon ventions
Ġar gue
Ġtr uly
Cal vin
Sm ackDown
Ġsw imming
ĠLuc as
Ġgraph ics
ĠPremi ership
6 79
12 27
er abad
eng Åį
ged y
C oll
T in
ĠH amm
ĠR oche
br al
arch itecture
ĠAr r
ij k
Ġdocument ary
=''' {{
ĠRh ode
hyd rogen
Ġrecommend ed
Soci ety
re ich
op hys
ast ed
ou ss
A riel
K yle
× ¢
Ġc ry
St ats
ĠDe lta
ĠX IV
WE L
ĠAcc ount
Ġalter nate
. ).
18 29
j ano
ic les
ol ution
ick y
Ï Į
ĠM ile
ĠR ise
Ġnot ation
ĠJ ong
ĠV aud
olog na
An imated
inn ie
Ġqu art
ĠCo ach
Trans formers
Ġansw ers
Ġsock puppets
ĠVers ailles
Auto WikiBrowser
Au vergne
18 19
s ummer
w ol
ist ing
if ax
B ear
qu en
Ġd imensions
Ġre tirement
ĠP RO
Ġst reets
ĠF loyd
Mont ana
ĠAdd ress
Ġrepe at
Ġinvest igation
ĠNi igata
Rac hel
ĠDub lin
Ġinformat ive
p bs
id on
ul o
ort ed
ator ial
B achelor
E rie
K or
O wen
T F
Ġf ur
Ġm and
ĠC oy
ĠF ischer
Ġdis cip
Ġr ice
Ġfe els
Ġche st
Be th
Ġmed ic
Ġrecord ings
gian ce
Ġcover ing
Ġoper as
CURRE N
Ġdig its
c artoon
| +
ure l
lin a
of L
C and
F ut
ĠI OC
Ġpa le
Ġreg ister
ĠHer bert
Ġjournal ists
AAAA M
ĠTri ple
ĠLiver pool
/ -
6 23
8 67
18 52
u ef
pan ic
Ġ é
ĠR uth
ĠG la
ĠUn icode
Ġgen es
Ġdes ired
Log o
Ġrun ner
ĠAm adeus
Ġdesc end
ĠHot spur
Ap ipo
Oper a
Light ning
ĠRap id
mosp heric
Bol ivia
ĠMonth ly
ĠElli ott
ĠLaur a
18 54
@ @
h urst
à¸² à¸
is lation
ad gets
ver b
sc ulpt
den nek
Ġto xic
Ġd rag
Ġm ount
ĠS leep
ĠP ts
ĠP enn
Re v
Re ise
Ġpr ince
Ġtime line
Ġbr idges
ãĤ ³
Ã´ me
Tra veller
Ð£ ÑĩÐ°ÑģÑĤÐ½Ð¸Ðº
8 58
n id
as uring
ap plied
L O
M old
Ġd uty
Ġin stitution
Ġ1 58
-- ~~~~
Ġl amp
|| |
|| ''
ĠW arn
ĠN ear
Ġpa pers
Ġappe al
ĠCon n
Jul ie
ĠCha rente
Ġport al
Ġsit ting
ĠLor enzo
ĠBat man
Ġarr ondissements
çļ ĩ
. ),
18 03
v als
} )?
in as
ng a
ap ons
new bie
ob by
S ite
X V
ĠB roadway
ateg ic
ĠK ay
Ġ18 92
class ics
ĠX I
Chan ger
Port rait
ĠSha dow
ĠAust en
àµ ģ
Emp ress
astron omer
8 45
ta iled
ary a
nc bi
C ere
C IA
;]] ([[
Ġ}} }}
Talk Page
Ġdes igns
Ġman ageryears
ĠGe ograf
Ven ice
ĠPap er
Abuse Log
WEL COME
m art
al mon
ush u
C U
K em
R otten
Ġw ishes
ĠT ul
ĠM E
ĠH elena
Ġr ider
Ġcont emporary
col width
Ġproduc ing
Sw an
ĠCom ments
ĠGar cia
Ġphr ases
:|''' {{{
Ġtranslat or
Lau rent
ochem istry
methe us
) (\
a ust
c our
ie ge
el ic
and date
pro of
af d
face book
C roatian
M R
T ob
É Ľ
Ġ= |
Ġp itch
Ġ1 56
Ġh orn
Ġcan cel
ĠK ath
Ġfight er
Ġmat hematical
18 41
57 28
o or
r int
w alt
it ext
ot r
row head
file name
B is
M ountains
R av
T rump
Ġ ibn
Ġh ung
ĠO w
Bot afogo
ĠK umar
arch iv
Ed win
dis ease
ĠSh ield
We ight
Elect rical
ibl ical
ĠErn est
18 01
51 10
88 88
v ich
ung i
our g
log y
C N
J E
P rom
Ġs aint
ĠT un
ĠA hmad
ĠM D
ĠB eethoven
Ġv ir
Ġe th
Ġread s
List users
Ġsc ores
]]}} ,
Ġext end
ĠTe en
cons cious
ĠCorn wall
Nic olas
Ġho les
;+ &
Defense SupportParty
7 67
8 39
d as
k ina
ni or
hy p
gen eration
rss sf
F le
J Ã¶
U rl
Ä Ļ
Ġw hale
Ġm ate
ĠP rat
Ġv it
gr ats
De von
Ġrow s
à® Ł
Ġcha ir
ĠBur ke
Ġaff ects
Short Pages
obit uary
ĠNas al
j Ã¤
v elling
ce ph
pe nter
od er
I i
P ilot
Ġmember ship
FFFF BF
Ġsen ators
ĠLeon ard
DFDF DF
9 09
; }}.
h ower
m ix
Ġs ummit
Ġm it
ĠA dministrator
ĠH erman
ĠD ouble
first Child
Ġatt raction
Ne ill
Ġcolon ial
Ġkilome ters
6 14
6 08
Ø§ Øª
ce t
ar ound
time anddate
A CT
M are
M ission
N it
ĠS ah
Ġpage obj
Ġk ommun
Ġown ers
Ġcom pare
ĠCon struction
Ġass umed
Em ma
ĠCap itals
Do es
Pat ri
olt a
She ffield
ĠBrad ley
Lion el
Ġbuff alo
ĠSchum acher
43 55
b right
s now
es felder
ps wich
ex ecutive
K ane
M au
M uro
Â ³
Ķ &
Ġc arn
Ġs id
ĠH ann
Ġha v
Ġle a
Ġ: (
Ġ3 10
St ars
Ġch alleng
rop er
Ġche ap
Ġres ign
Reg ular
Ab bot
Def ence
Ġcompet itions
NOT OC
phr ase
6 27
43 00
; Â°
as ma
ail ure
C ad
ĠR oma
ĠL ions
Ġ19 5
ĠWar rior
Ġsp ider
Che ster
ĠPol y
Ġinfobox es
104 337
ĠCap tion
Ġmanager clubs
histor ical
dat z
grad uate
Stan ford
ĠChenzw Bot
Marit imes
Ġfir m
qfy t
5 000
h bw
l us
y riu
in ations
th olly
B orough
Ġ{{ &
ĠRe ason
ĠFor um
Ġcomm it
Ex amples
Ġad j
Ġred ir
ĠØ ®
President ial
SU I
Ġnovel ist
Ġjud ges
6 38
7 33
8 07
g la
s elling
y qlr
ct ural
ol son
lo yer
ung a
hu uoi
over flow
af i
N g
N WA
ĠT D
ĠH ur
Ġ2 13
Ġg ap
ĠG aga
ĠK ap
ote ins
Ġdiscuss ing
Ġover flow
yl on
yr gyz
bn qfyt
ĠNor folk
Ġpract ices
Ġphys icist
ĠWork ing
Up date
èĢ ħ
yqlr gf
6 13
g ro
j ak
j html
eg al
H om
S plit
S ullivan
Ġf ruits
ĠD ale
ĠL ov
ĠN athan
imp rove
cu la
à´ ¯
ĠTra ins
ĠBur ton
Ġcit izen
6 29
65 01
h idel
ce ived
di mens
em ann
H ad
M X
S ister
Ġ }}}
}} ).
Ġp ianist
ĠK irk
ĠAl zheimer
Ġsend ing
ched ule
ultip layer
ĠConf ederation
organ ization
ĠMass acre
ĠBuck esfelder
ĠNaz is
Ġphilosopher s
Ġlocomot ives
EFE FEF
ĠPak htunkhwa
6 15
; }}}}
in gt
cc ffcc
ron ym
sp y
ab ies
E LT
K irk
P X
Q w
Ä °
]] /
Ġme l
ĠAn imals
rad datz
atch er
aur ants
Ġdef ine
ĠBar bados
Justin andrew
ĠTrain ing
lik ely
8 49
9 89
18 08
h ler
k us
ure mberg
od en
bet ter
ou ds
gen etics
Ġf ame
Ġf arming
alis e
edit ing
Ġex posed
NA M
cri mson
Ġdr ummer
Ġdefe ats
Wind sor
Ġincre ases
ĠWild life
ĠOriginal AirDate
ĠGall agher
hidel inks
18 26
an us
ok ee
W V
ĠR an
Ġop t
Ġsub pages
Ġwrit ings
pos ure
ĠMan hattan
He inrich
ĠMon ument
ĠØ ´
Ġident ifier
Come dians
(\ )]
president ial
ĠYank ees
again st
dipl omat
/ %
18 04
b reed
l Ã¤
{ \{
it ure
F oss
T ot
qu ette
Ġe val
Ġen abled
;'' --
att erson
Car ly
Ġmet re
ĠBar b
Ġhum idity
ĠBet ter
Ġarm ies
e ments
t mp
u ential
ime dia
B ert
C artoon
L ike
N I
V and
Ġw itness
ĠT ales
ĠE agles
parent s
Ġ3 000
Ġel iminated
Go alkeeper
Cha d
ĠRock efeller
Ġcr own
ĠDou bles
Ġsurv iving
Ric ardo
Radi X
Tum the
on lin
le af
row class
ish ments
uk pc
C riteria
U rdu
Î ®
Ġs ig
ĠD ates
Ġun necessary
Ġrock et
ĠTr uth
Dr um
Ġmass acre
ĠFl ash
ĠSpr ays
cur tain
487 55
4928 91
5 99
8 99
if iers
B ull
B P
S TA
V illage
ĠB is
ĠL ap
;[[ {{{
0000 0000
Not Important
Ġman age
Ġru gby
uther ford
ĠWik is
ĠDun can
;âľ Ķ&
romag netic
Transl ations
8 17
9 36
53 66
n engÅį
di alog
G rou
S ul
S election
Ġth umb
wiki fy
ĠG row
Ġe volved
Ġ[ ];
ĠCon nect
Pol icy
Alex hl
|( [[
Ken ya
Ph ill
Ah med
ĠWal sh
ĠGw ib
Ġmil lennium
Ġdefinit ions
8 70
le ne
it unes
ist e
ous se
load ing
S ib
U ranus
Ġb oss
ĠD rag
ĠV ent
ĠSh arks
Ġgr ounds
ides pread
AS H
Ġincre ment
short s
Bern ie
ĠTon ight
15 69
18 32
18 33
18 05
h Åį
j ob
la va
ze iro
pad left
ume s
P Ã©
-- ''&
Ġre vers
Just ice
Ġ:* [[
Bon nie
Ðļ Ð¾ÑĢÐ¸
ĠPhot o
SUB PAGENAME
7 30
c ow
j ournals
ic ul
F antasy
å º
Ġ1 19
ĠF erdinand
ĠThe ater
Pr incip
Air port
Ġconstru cted
Ġcongress ional
ofL lyr
n ah
n ith
ed ding
ber gh
bi os
ern atural
ht ra
E y
E ven
Î ¬
Ġt rend
]] ====
ĠS ig
Ġun like
ĠSc ots
Go spel
Ġass uming
Ġsha ped
ĠMac edonia
248 200
iag ara
Ġvoc abulary
8 03
9 03
] :
c lay
s ic
as m
ol ai
C reating
E aster
æ °
í ķ
Ġb its
Ġ1 51
ĠR C
ĠD ensity
Pro v
Os aka
Be ijing
ĠInter continental
FFFF F
ĠSe an
Est abl
Ġcost s
ÐµÐ ¼
chem ist
astron omy
Ġkilome tres
ĠGonz Ã¡lez
m ur
y nt
or r
bo e
ii i
com bination
ser s
yn a
sun ami
V io
Ġs izes
Ġp in
ĠM yster
ĠW ii
ĠV eter
ĠV ocal
Ġsec ure
ony ms
ĠÐ ´
Ġsk ating
Aj raddatz
pie ce
Ã¼rger meister
7 55
27 78
65 4321
man ufact
ess ed
Y dennek
ext ernal
Ġn atur
ĠE lder
Ġnew er
Ġcomp at
loc ality
cre ation
Chan cellor
fact finder
Ġsuff ering
ĠRich mond
ouvel le
8 37
o ire
s ized
~ &
ah ren
ac res
cd c
west minster
L az
V R
V IP
qu akes
Ġa us
Ġf ranchise
ĠP sychology
ĠR alph
ĠW I
Ġ# ::::
Ġj a
Ġpre miere
Ã³ rd
Ġvari ations
hand ed
ocol lapse
uis ine
Ġburn ing
usch witz
mm ukpc
la ch
ts cher
ha ppy
ob u
E sp
H U
T ham
W inner
Ġth irty
Ġ3 06
Ge offrey
ĠMed ici
rel ation
ĠMichael s
Prop erties
reet ings
Ġchemical s
ĠEstabl ished
5 109
9 29
18 18
m ichael
ad ox
ol les
og un
ģ à¸
Ġm usc
Ġar ranged
ract ice
ĠDis covery
Division s
Ġrul ing
ĠNap oleon
Ġexer cise
7 69
8 25
14 00
; :&
d ict
t ake
re uters
he le
he id
D ame
D iet
L iv
Y ale
Y ahoo
Ġd ont
ĠS A
ĠS O
ĠA my
Ġus eless
sv ens
Ġun cle
Ġcon v
arr on
|''' {{
Ġass ign
fect ion
Battle axe
Tele phone
Ġleg it
invent or
7 17
7 01
43 57
47 362
] +
z V
me chan
ud or
alk itty
N iger
Ġ ol
Ġp ushed
ĠB esides
eren cing
Ġr ings
ĠGu errero
Ġman ually
Com ments
Ser ver
Ber g
Ð°Ð ·
ĠRecord ings
Princess ofLlyr
|@ ]]&
Ġpron unciation
select ed
ĠRaz orflame
:}}} #
Ġplat forms
Highlight ed
6 36
8 40
j ames
ce ava
im us
code URI
ag reb
D mit
D ates
W onder
ĠT E
ĠF ine
Ġare na
Ġyour s
small er
]]|| ||
Am bass
Ġpoint ing
ĠLe Ã³n
No Time
Rock y
NY T
Ð¾Ð ¹
Ġgold en
ĠGard ner
ourn alism
ĠSuz uki
Ġparser function
ĠJÃº nior
6 99
a verage
ch ing
ject ion
M iller
ì ŀ
User s
ĠB irds
ĠK ob
col lections
Ġext ensive
ĠHar old
Ġdraft ed
Leg al
ãĢ ģ
ASE LECT
Lib ya
\}\} $
9 05
17 80
42 99
53 08
m ole
ge ography
pp en
sp laf
get UTC
B aptist
F eder
G O
J C
S ara
Ġ os
Ġ1 38
Ġre plied
ĠP GA
ĠF ellow
Ġ-- --&
eb ol
Am sterdam
à¤ ļ
Ġrepresent ing
Ġfun eral
Bl ues
Count ries
Ġver b
;|| &
Rim shot
chten stein
Ġjan vier
ur geon
ha v
form ula
M ake
ĠC urtis
ĠE U
arn o
Ġe in
ĠV ocals
St ewart
block log
à® ©
Alex is
ĠAm sterdam
ĠVen ice
ĠCole man
prom otion
Hindu ism
19 1970
v ie
ur ia
ick ers
uk h
can oe
A ctive
T ir
Ġp ope
ĠM oh
ĠR oth
ĠF il
ĠF err
Ġg lo
In stru
Ġatt endance
Sc ha
sort able
May a
ĠX VI
Ġremember ed
Rel iable
ĠAg ree
Ġaccident ally
Key board
ĠBrook lyn
rif ice
Shan mug
Ġcircum stances
6 33
7 88
42 29
] ''
c row
f av
n ip
ap arte
sp elling
W ink
Ġs we
Ġs kiing
ext inct
ĠT yr
ĠB rom
ĠD isease
Ar ist
Ġpl ural
à® ®
ĠFran co
ĠMajor ly
ynam o
Ġhon our
ĠÙ ģ
ĠCant erbury
zep pelin
Ticker Entry
Nev ada
9 24
; ]],
; *&
d ms
j ew
k et
y at
al cohol
C ab
'' ''',
ĠT at
ĠH elen
ĠF eder
ĠG ers
Ġle ar
ord ogne
ĠV alais
not ify
Ġcon vin
ote ch
CE CEF
Sh ar
Cy rillic
Ġz u
Luc as
ĠSign ature
ĠBir mingham
popot amus
6 41
c les
c ific
ar ro
as an
am az
un ya
ex hib
ass y
H onor
L ime
M alta
Ġ ;[[
Ġf Ã¼r
ĠT ennis
Ġl ie
unt a
Ġex pedition
Th under
Ġreason ing
Ġconsider ing
Ġcom ics
ĠPro vinces
West minster
Ad ri
ãĥ ģ
Res earch
Mil waukee
Sport ing
Ġtransl it
ĠCy prus
Ġdistribut ed
prime minister
ĠPra gue
response XML
6 54
9 14
f us
u ating
w inners
min d
ud u
ĠK art
ove ntry
Ġ18 48
Ġtest ed
ĠMar c
ãĥ ĥ
Ġmer ely
Mal aysian
Ġmig ration
ĠCri me
ĠFi refox
Shanmug amp
= (
de v
ag ric
H B
R NA
ĠS alt
ĠD ear
Ġ18 57
iet ro
state ment
ĠSp y
Ġval uable
def inition
ĠTr ue
Ġdifficult y
uda pest
Ġpron ounced
})? ,?
7 27
; ');
f eb
st uff
lin ic
new spapers
F al
Ġ| [
Ġc ow
Ġs ym
ĠW itch
ĠN ancy
vol cano
ĠAl geria
ĠZ ep
ĠUp date
Cla im
Ġhealth y
button spacing
ĠRou ge
Cru zeiro
Stru cture
Tropic alkitty
( /&
6 88
d inosaur
Ø¨ Ø±
at imes
am as
ca ped
lin der
ast asia
val anche
back s
the se
S Ã©
V in
Ġa ux
ĠS ales
ĠA w
ĠA LL
ĠC alendar
ĠK om
Ġ18 12
umm ing
hel lo
ĠMon roe
ĠTour ism
Ġcapa ble
Angl ican
) ',
7 25
8 24
46 45
g ob
p ianist
de pression
gh al
H IST
L ay
L V
T unisia
Ġt rigger
Ġd ans
Ġl oud
ĠB order
ĠSt ring
Ġper spective
hor us
Ġnational goals
Ġsup plies
song writers
Ã± ol
Ġrank s
Ġfac es
ĠSaf ety
Ġcorrespond ing
j ong
w id
en heim
che on
J azz
Q atar
Ġf antasy
ĠT iger
Ġin stalled
ĠM yst
ĠF letcher
Ġse ed
ĠK ha
An chor
ĠEd mund
ĠJul iet
Carol ine
0 29
0 33
7 78
a flm
uc ing
ĠT ea
Ġin sur
Ġfor ever
artic ip
Ġpr otein
ĠJohn ston
Ġsent enced
Cy prus
Ġguitar ists
ĠBa iley
ĠBell mare
áº £
Leon ard
ĠIns ide
ELT ted
m ammal
p he
le tion
ic ists
ock s
and r
ath i
L ie
M ang
Ġ1 52
ĠS apporo
ĠC elt
ĠV isc
;''' ]]&
Ġr ay
Ġ5 000
Ġen forcement
ĠAr cher
ĠNe il
Ġes sential
ĠGr ampus
Ġfact ory
ĠCouncil s
wil ight
ĠHu go
Ġvic tim
Static Falcon
. -
0 26
7 49
8 53
9 06
? (
k top
ch ina
top ics
act ions
K ha
N ak
R oma
Ġ ç
Ġ 000
Ġp lastic
ind ustry
Ġ3 08
iss el
orge s
Ġent ers
Ġext ent
World Traveller
Ġmet ropolitan
ĠBer ry
Ġdel la
atin ate
Prince ton
ĠStr ong
brow se
harm onic
Stev ie
;{ &
8 77
18 23
48 72
d rop
p eter
is dom
ne ck
as en
ad os
ig ua
press ed
K Y
L oud
S ju
S hen
lat ant
West chester
cad illy
medi ate
Mon ster
ĠClass ical
ĠCal gary
++ )
Ġcommunic ate
PL Z
Som me
Spring field
Fast Reverter
Ġobtain ed
7 58
b abel
n ussbaum
s alt
s cientific
at ively
oc y
ult on
world clock
vis ory
A ud
A rena
G olf
H um
N ova
Å ĳ
ĠS Ã¡nchez
ĠB ert
ĠD re
ĠW er
Ġde als
eral a
erm ark
Ne u
Ġcred its
ĠSe attle
ĠMon ica
Ġclose st
ĠRich ards
some times
Ġach ieved
Ġprincip les
Ġancest ry
Clos ed
Ġsudden ly
Contribut e
t us
Ùĩ ÙĬ
or ms
do ctoral
ag g
ros by
G bn
S au
ĠF at
ĠD ow
Ġcomp lain
Ġform ing
ãĥ ª
ĠVi ol
Ġrespons ibility
ĠDal mat
8 36
ar v
min ute
vis pa
pr ofession
ric ted
B lu
F Y
S ay
Ġre bell
Ġst eal
ĠF uj
yle s
sec urity
Ġim g
EE E
Pop up
ĠLine Color
Ġsn ake
lights almon
Rele ased
ĠMichel le
. {{#
52 13
56 89
m ig
an alysis
al ert
un di
ast r
I stanbul
S ad
S ci
Ġ| ,
Ġs word
Ġf ights
ĠT uesday
ĠS ame
ears on
Ne o
ĠHer oes
aff ili
Ġland fall
CR O
ĠPakistan i
Ð°Ð ¼
Ġinit ially
Ġdisc ouraged
Ġwg PageName
ĠPin tscher
Ġhyd rogen
ĠLyn ch
ĠLam bert
ĠDha bi
Ivo ire
18 28
a pe
f lood
s inki
es ld
th row
bo k
au cluse
out heastern
gg una
gt e
G iuseppe
ĠP ed
ĠF ight
ĠE ye
Ġ2 15
ib i
Mar ion
Ġpost ing
Ġcount s
Ġnucle us
ĠDav ies
Phantom steve
Advert ising
6 12
7 23
9 20
17 88
s of
ve c
ai ian
out er
A viation
G W
H ann
M ilton
â Ļ¥
ĠH err
ĠL ed
br ldb
Ġ# ##
Ġex perts
uss y
Ġj er
sub str
Ġsign ificance
Ġshe ep
Co oper
Ġge ographical
Ġspeak s
Ġfall ing
ĠBarn es
Ġ(+ [[
fae Scotland
18 31
y ne
os al
ut us
ens ions
F P
S ey
Ġt ied
ĠS imilar
ĠJ udaism
ĠAl most
Mer l
ĠAll ied
ille m
amin ation
Mor ris
Ġfac ilities
ĠSE WP
lind ers
ĠMean while
c ongress
m ith
Ðµ Ðº
Ø± ÙĬ
se le
di p
ou ti
F rozen
M emphis
M ukkakukaku
N ed
S hanghai
ĠM ats
Ġh ills
ĠP alestine
ĠD ucks
ĠW ere
ĠW W
ĠJ amaica
ĠAn alysis
CT ION
ĠPri mary
oth s
Ġcontribut ors
Ren Ã©
otter dam
ĠCard inals
Å£ a
18 17
? --[[
ap es
ast ings
ach ers
ens ed
act ing
ush room
L is
W inners
ĠS V
ĠD up
ĠW outers
iz i
iv ename
Ġup set
ĠBe ast
ĠTech n
Ġcelebr ate
! ]]&
d ry
n orm
er z
if ts
B rent
H arm
H ermann
L ic
M ort
ì ļ
Ġt ons
Ġc ake
Ġp owder
ĠM ort
ĠG ent
ĠK re
ĠK ate
Lu igi
enne th
Greg orian
Ġsch olars
Terry faeScotland
745 88
relat ive
cliff e
an as
or get
it as
by n
ber ra
ea ver
Ġ ÑĤ
ĠS pect
old s
ĠRe id
Ed u
ĠBr ady
Ġcontin uing
Ġtr am
add PortletLink
Ġthr own
ĠRout ledge
6 47
7 99
9 44
17 19
n ay
le v
ang s
ian i
tv guide
ard e
ens ing
talk back
E J
H af
L akes
M end
P ubl
Å ¼
Ġt issue
Ġc ache
Ġy ards
Ġn oun
Ġ1 59
ĠB Ã©
ele st
ĠSh uttle
Not able
iet y
Ġwiki ped
ĠSen ior
Pre sent
Her cules
ĠCross in
ĠRac hel
Ġlay ers
Leg acy
Ġclean ing
plan eman
Plant illa
Ġtom orrow
ĠStef ani
Ġapplic able
CURREN TD
7 46
9 50
18 27
ion i
ier end
ston ian
L ance
O asis
U Y
Ġs lang
Ġd ic
Ġbe auty
Ġst rengthen
br ane
Ch al
cuss ions
ĠAnd y
orp us
Ġpublic ations
bec ause
viv ors
Liber ty
ĠCount ries
Rom antic
Wars aw
Ġdipl omat
Ġinterpret ation
7 26
9 11
f unk
n ai
ite cts
dr um
J ake
R CA
T odd
Î ³
ĠR ol
ĠJ ungle
eb u
ĠSt ub
Ġex cess
Ġlo an
ĠÂ «
ĠCla us
-------------------------------- --------------------------------
Ġflood ing
Ġstrugg le
? !
in tl
se ven
ay ashi
ort mund
af rica
O pt
S ah
S alem
Z one
Ġa qu
ĠS lam
for ced
ĠR aid
ĠO g
ĠDe utsch
Ġaddress ed
ĠZ eus
ret a
Ġvi br
Comp onent
à¥ ĭ
Ãī cole
ĠSu ccess
dep th
Table View
ctr ine
Ġproced ure
Aber deen
n ps
re cap
ti z
op ic
ast a
ik an
ep hew
D Z
S odium
Ġs ale
Ġp ioneer
ĠT ouch
ĠW he
Ġch ronology
Ġext inction
Ã¨ vre
And erson
à´ °
ĠAtl as
Olymp ique
Sol omon
Ġgra ve
ĠdÃ© part
ĠAbd ul
ÐµÐ» ÑĮ
Ġsulf ate
confl uence
Ġfil med
Ġhan ging
1 201
18 42
47 07
b om
k le
ic ag
ce y
ew able
C ircle
ĠW restler
eli ber
omen cl
osaur s
299 02
Quest ions
secut ive
18 16
57 55
p ilot
Ð° Ðº
orm on
G L
M ighty
S cientific
ĠT ell
ĠA br
ĠP ays
Ġst im
RE S
Gu ide
vir t
Ġlo op
Ham burg
Ġcoast al
Ġann iversary
Ins ide
econom ic
Rac ing
Mess age
Ġpul led
18 22
c rop
t it
ce ased
ch igi
ar x
el in
ol ine
F en
Ġt aste
}} -
Ġ1 66
ĠH ull
ĠN est
ĠG lass
ĠV il
ĠUn known
Ġ}} .&
Ġun ranked
Talk back
Cat alan
Le opold
Pr ofile
Cent ury
ĠPort o
110 55
oph on
Ġtour ist
ael ic
57 58
d yn
ma id
by ter
be it
lo st
ut chess
che st
we g
B log
F alk
H end
Q R
W i
Ġ Ð½Ð°
00 03
pre cision
Ġme die
Ġge nt
Ġne arest
508 9
Ġ188 5
leg acy
ĠBos nia
ĠIran ian
ctr um
brit ish
fixed time
Euro vision
Dub lin
Ġlea gues
Ã³rd oba
c oll
p ox
re ign
ck el
em is
B Ã¼
I k
]]. {{
ĠB ee
]]) ''&
ĠJ ump
ident al
ĠSh im
Ġo ct
Ġ\ &
Ġ188 8
Ãª mio
Ġdeliver ed
isp here
Fiction al
clip se
7 43
c ot
cc les
ent ina
ik ovsky
A less
B ased
M ega
É Ķ
ĠT arn
ref er
ĠN igeria
Ġor phan
Ġco in
Ġmar ine
Ġqu iet
ĠOlymp ians
à¦ ¸
ĠChan cellor
Ð°Ð ¹
nav bar
Äĥ u
ĠJo an
Ġmechan ical
Punjab i
ĠAgu il
appro x
ãģ¨ ãģ
b acteria
j or
es y
vi Äĩ
red links
A e
L up
L iter
P Y
P sychology
W right
Ġas sembly
Ġr ationale
ĠCom ment
phys ician
Ġbi ological
ĠBudd hist
7 59
10 80
17 57
33 07
b ly
p owder
re ly
ar ant
me se
ell and
ris ing
ick r
ick ing
cel les
C ube
T all
Û ģ
Ġd roit
ĠP il
]], [[
Ġpr incess
Ġcomp onents
Ġcon servation
Ġinter course
Ġstat ing
Ġra pper
Sh onan
Ġdec ades
Col onel
Ġelect oral
SC AR
ĠCorn er
á¹ £
Ġcollect ions
ĠVis ualEditor
Aur ora
9 27
b ear
y ama
an mar
as ian
co sm
X Y
» &
Ġw idespread
Ġm ask
ĠS ister
ĠC ham
ĠL ex
ĠN um
ĠN POV
Ġdis ambig
ĠCh aracters
bl ad
arr ington
2007 01
Commun ism
Ã¤ u
Ġcross ing
ought on
ĠSw ift
ashi wa
ĠEN WP
sock s
Corn ell
Math onius
ĠQuest ion
ĠWhit ney
vit ational
igraph y
0 28
7 56
i ri
k ol
re ib
ier te
Ġc riterion
Ġs wit
Ġn ose
Ġ1 34
Ġl oves
ĠH aving
ĠW erk
comm unication
Ġmet als
ĠCommission er
Bay ern
ĠGl ory
SUB ST
Ġta pe
Ġcoordin ate
Kaw asaki
1 126
9 37
57 26
; ''&
c ig
m oh
ia com
am h
ad vent
uk ary
B es
C irc
V ul
ĠE yes
wikit ech
br Ã¼ck
Ġ18 91
Ġsign als
Car olina
Ġ{{!}} {{{
CA F
Ġhard ware
mult i
Spe aker
ĠSat an
Ġign ored
Ġgal axies
aras htra
Ġmus cle
Ġreput ation
})?,? (\
8 76
10 86
47 67
] </
w anda
ty ear
pa inter
B M
F ather
Ġc oding
Ġh ur
Ġfor th
ĠD river
ind y
Ġspe ctrum
ĠPro v
Ex ecutive
Sp irit
Se th
à® ¯
cont ext
Ġbusiness es
ĠLook ing
Ġhighlight ed
ĠLeb anon
r ade
ve hic
ss el
co ol
if est
cer tyear
K il
R Y
S ti
Ġ è
Ġ rit
Ġt ort
Ġh ired
ĠB last
ĠB omb
Ġv ul
enn ial
Ed its
Ġwhere as
ĠSp ongeBob
met re
unk nown
Ġele ven
Ġmon archy
hemat icians
×Ĳ ×¨
f est
m ust
n in
t um
å¤© çļĩ
fe aturing
res den
C ath
P ablo
ä ½
Ġb ro
ĠC los
Ġst ones
ĠComp ar
Pl us
Ġreal ized
alen ce
ĠEvery thing
Ext ension
Bor ussia
3 145
l iterature
p end
ie ties
it ory
sh arp
ad venture
do es
vis t
Ä ħ
Ð ¢
Ġb ell
Ġ18 30
Per ry
Ġass istance
cont rol
ĠCap itol
Ãº s
Ġwood en
Econom ics
Week ly
Ġherb ivore
Ġsettl ers
osoph ical
) -
. --
13 00
55 10
\ '
ver n
ul in
ag ina
card inal
H alo
æ ²
Ġn oble
Ġ1 39
title style
Ġl ingu
ĠG ale
Ġplay wright
iss an
Ġfin als
DEFA D
Ġsour ced
Ġhand led
ĠX II
fb d
ĠFin ance
CH I
tre cht
House Division
Ġmanufact urer
Ġdisput es
7 24
9 16
d ele
o gen
s ym
y on
co e
po em
end y
ass en
mn x
Ġa w
ĠT W
ĠI UCN
contribut e
ĠD eletion
Ġpart ners
Ġafter wards
Ġ::: *
Phil osophy
cb c
Ġeight h
Ġreject ed
Kosovo Name
10 20
17 38
25 00
g iving
p ra
is ations
ns e
res cent
eg er
oy e
A zerbaijani
S ap
Ġd ancers
ĠR ams
ĠL C
Ġ18 94
Th ras
Pro vincial
elect ronic
Che vrolet
Ġdescrib ing
Ġannoun ces
ĠRey nold
Alice zeppelin
Ġhy per
Ġmedie val
f tp
f rog
son ian
od us
ell ion
ox ic
he ter
cer pt
ail or
vis it
B om
Ú »
å °
æ Ń
ĠS TA
ĠE X
}}}} }}}
rem ont
arm ac
ĠX III
Cap tion
ĠTour nament
jg q
FI LTER
ABC DEFAD
ĠJac ques
eeee ee
Hart ford
CURRENTD AY
6 34
10 33
f ilms
p or
os ite
me ss
ur ped
ser voir
og gle
C ricket
N ebraska
P ine
ĠH arm
ĠL inks
Ġ' /
Ġ:: &
Ġshort s
Ġob it
ĠPal m
Act ually
Val ley
Ġminor ity
ĠPan thers
Ġden omination
iling ual
Ġbul let
Eth iopia
steel blue
9 43
13 37
g erald
i ar
Ð½ Ñĭ
ic oot
ion a
pa m
pa z
ca ctions
ent ieth
rip es
S udan
à º
Ġd uties
ĠT uscany
Ġh list
ĠL A
Ġ2 56
col ns
aj o
ĠMar ines
ĠInter active
istan ces
Go al
Met adata
trans lation
ĠVol leyball
|- |
Hol ocaust
ĠCD T
design er
TX i
f uture
n ects
ne ath
la k
bar ra
G uj
J in
K ap
R r
V ermont
Ġ1 31
ĠK enneth
Re volution
Ġimp erial
ban ian
Em ily
ĠCal vin
Ð°Ð ´
Ġrecogn ize
ĠAlp es
Kir by
Uz bek
Ġlocomot ive
Chr iss
6 44
b illed
z bj
me ant
co al
am on
sky scraper
J An
M V
O g
Z u
× ł
Ġb ush
ĠT itsingh
ĠH our
Ġha ck
ĠK il
ĠIn f
rat er
Ġborder ed
ĠCon cert
German s
Ġcho ir
Ġshort ened
Ġrece ives
ĠMor occo
Ġinstru ction
Ġ188 7
just ice
But tons
ĠMic ro
0033 99
Ã©s ar
325 103
/# /
umin ense
anthrop ist
Det ail
igr ants
9 80
51 12
57 56
b read
n ol
le ading
nk Ã¶ping
sp here
og ie
gl oucester
C elebr
T at
× ¤
Ġd ish
Ġm ixing
Ġre venue
Ġon going
ĠH ollow
Ġ18 71
SE LECT
col o
Ġad her
Bo ard
Ġpe aked
econom ist
Ġtun nel
aloch istan
9 25
ie gel
ap en
ern ess
B ry
P alestine
R afael
Ø ¦
Ġ1 68
Ġre ward
ĠP ac
ĠF FFFFF
ĠE h
ĠSt udents
rat ch
Ġcomp onent
Ġ==== [[
First Prefs
ĠHigh ness
foot note
inv oke
HouseDivision FirstPrefs
7 38
7 02
9 17
57 57
h ij
al m
os ki
ot ta
and ers
cl er
B uch
C hampions
C lose
K d
K un
S che
W inger
Ġ ion
Ġt ack
ĠS ang
201 8
Ġre ct
ĠP ius
ĠB le
ĠL inda
}}} /
aut oconfirmed
Ġj oke
On load
Ã³ d
Test ing
ĠOr lÃ©ans
Ġcar ries
Ġcomment ed
ĠAm azon
Don key
Ġpract ical
Ġrom ance
Ã¤r vi
SV G
ĠLyn n
Iw Bot
Fel ix
rowhead ers
TXi Ki
16 25
a gu
i ors
ra j
st ill
ve led
ot ics
ach im
A ce
I o
T MD
T oday
Ġf ed
user page
ĠM k
Ġst uck
Ġv ast
Ġpa s
Ġco ins
Ġlong EW
Ġad mitted
à¤ µ
ĠGen eva
ĠSe oul
145 452
Wik icup
Ġevolution ary
hmw ith
100 2
s ingles
on ing
an ity
an ical
is an
am orph
ns f
od an
ach s
mon ary
sha re
cr oft
R uth
S und
Ġ Ð¸
Ġt ight
Ġf ilt
ĠT asks
FF DF
ĠV ill
Ġadd itions
ange s
Ġaut oconfirmed
Ã¨ ze
ĠGe ological
à¦ ¤
ĠAd vanced
unk er
Ġmark up
Spe cies
Ġplain rowheaders
Direct edBy
Cham pagne
Ġdisput ed
ĠReynold s
8 44
ac id
ec onomy
Ġst em
Ġst upid
ĠL yrics
Ġex hibition
ĠAl ong
ĠAl berto
Le ader
Ġfollow ers
Ã« r
Bl ason
Ãª n
Dar win
Ġsynt hesis
Ġenvironment al
Ori ent
ĠAch ievement
6 35
6 01
7 40
e au
j uk
p ure
ar ra
pa p
net ism
ow itz
com be
W ak
Ġs a
Ġp ub
ĠS eam
ĠO dd
Ġe agle
Ch in
oll er
arr ay
ĠSh ore
Ġshe et
Ġhand ball
Edit ing
ĠTr am
Pen gguna
Oct agon
bas ic
ĠRoll ing
7 53
17 97
m ia
p latinum
Ð² Ð°
ge orge
la ws
ve get
ad just
di ocese
est a
nic ht
H orn
M isc
P opul
Ð ¶
é ĩ
Ġa x
Ġp ipe
ĠM ask
ĠF OR
Ġal gorithm
Ġv ow
ib u
NA SCAR
Ġ20 2
Ġpr ay
ĠMar seille
Tr inidad
Cha mber
Ġgener ate
Trans lation
noc ategory
Budd y
Mong ol
; ',
> -
h rop
re i
to e
ser ts
pad guy
map ping
ym ad
L iz
N V
ĠD Ã©
Ġ2 14
br ador
ĠY u
ĠK lein
org io
Ġab olished
Ġdec ay
Ġsm art
Ã¨ le
RS A
Ġmon ument
Av ril
ĠCont emporary
Ġparticip ants
ĠLeg al
Ġeduc ated
ĠCE O
$ (
% ,
) [
) '''&
6 77
17 93
b ard
b ands
to String
am g
ad ult
ama guchi
J oin
W iooiw
ĠS askatchewan
ĠC ore
ĠW r
Ġr ates
Ġ18 3
Ġform ally
Ġposs ibility
Ġtrans ition
áĥ Ŀ
ĠWalk ing
/# %
Ġmole cule
ĠSab res
Ġmotor way
Rud olf
Camb odia
ĠQuint anilla
! =
is lav
ad h
ex cept
ir ts
cer to
ould er
oy ager
B aker
D atabase
H alf
Å ĵ
{{ {{{
ĠS cientists
ĠA ber
ĠH AN
Ġg ard
Ġ# ''
Ġ3 14
It ems
Ġad venture
Br ussels
Air planeman
à§ ģ
(/ (\
9 79
17 59
j atjara
r amento
z X
ss a
ci ano
Ð Ŀ
Ġ ...&
Ġb le
Ġp ig
ib ia
Ġ18 2
Ġgu idance
ĠSh op
Not tingham
Par ma
Tr un
Ġ188 1
ĠGi ovanni
icht er
hard t
ipel ago
ge me
id ian
am ount
un er
ir vana
ac us
min a
ep s
E mb
H Q
P hy
V aria
W ald
Z en
Ġb ias
ĠP ierce
ĠN eg
Ġpro mpt
Ġ3 20
Ġdis co
Ġany body
olog ian
comm ander
Car thy
reg ions
road s
Ġformat s
ĠUnd oing
sound track
Sout heastern
Ġoccasion ally
5 108
ÃŁ ball
per m
han i
ci en
ire x
B j
C ut
F uh
I di
Ġm unicipal
ĠS ed
mat ure
ĠR ule
Ġ-- -
Ġsh ore
ĠIn fo
Ġ18 69
Ã© z
ĠPri est
Ġevery day
He at
number s
Ġsk ill
dark red
Can on
ML B
FD L
Ġmat hematician
sr c
Ġprot ests
Earth quake
Ġbrief ly
ĠUk rainian
Ã¼nd en
ersc ope
! )&
10 24
b st
al er
am ba
ot le
ze it
cs d
gg gg
talk archive
V alent
Ġc rack
ĠP orter
ĠR ising
ĠE c
br is
ĠSt udent
Ġpro ven
An halt
Ã³ pez
met ropolitan
ĠAny one
Ġpresent ers
ĠConf eder
oph ile
Ġspace craft
Ð¾Ð ±
umin ium
Ġquot es
Benn iguy
in ence
ast rop
und ee
tc name
ten se
ull an
M l
P ie
Ġf ires
ĠI T
ĠB ased
Ġg olf
]]|| ||||||||||||||
Ġ30 7
Ġsign ing
Ġpri vacy
Gu ardian
Ġge ograph
ĠWars aw
Sol id
>+ [[
ĠLuc y
Brad ley
Period ic
Item id
vertebr ate
ĠAcad emic
Merl IwBot
c dot
d omestic
re public
alk e
P iano
S TS
W ag
Ġ ðŁ
Ġd epart
ĠT asmania
Ġ1 57
ĠR ib
ĠF aso
ĠSt arr
Ġsh r
In v
Text e
à² ¿
Ġcr owned
Ġfre quent
Men u
instru mental
tific ate
0 55
\ /
m itt
er ozoic
an ie
ck i
ad ole
he ng
Ġ1 54
Ġl ion
ĠK end
une i
FA EB
Ġ** '''
eli jke
Ġsec retary
ĠSp ider
Ġâ Ļ
ĠSm ash
pat rick
Belgian Municipality
astron aut
Ġclar ify
stantin ople
Callback Parameters
ĠUlt imate
ĠBureaucrat s
9 26
9 88
g ly
y ar
in aten
am u
B og
M ito
ĠA sc
Ġh ousing
ĠH ale
ĠK och
any e
Ġnational years
Ġref erencing
ĠTo ad
add en
King ston
Fl ash
Ġsus pected
Im pact
ĠMik emoral
Ġspirit ual
Mos elle
Frances co
spec ific
bib code
produc tive
colns hire
r ul
t ub
lo id
bit r
of ten
cent en
A FC
J avier
M AL
P earl
U nt
Ġ1 41
Ġre serve
ĠP sych
ĠB ren
Ġ2 16
color s
Ġrem ark
Ġj anu
ĠBe auty
Ne ot
Ġmin i
Mr s
ãĤ ¯
alle ts
Ġlat m
eld orf
Ġve ctor
ĠBal let
Ġgra vity
ĠBre men
Hir oshi
ĠBudd hism
9 13
44 44
s av
Î¿ ÏĤ
ar gu
ol ulu
lt en
ec ilia
red it
ism o
Ð Ķ
Ġa xis
Ġn icht
Ġre write
ĠB ud
Ġal umni
Ġv irt
Ġj e
vol king
New ark
Le icester
ĠSh izuoka
vious ly
Ġgr am
Min neapolis
nav al
Cr own
Ġfac ing
super stars
Mir anda
Dream er
Ġvolunt eers
ĠEisen hower
ĠZep pelin
7 39
16 28
b id
g all
t land
ce a
se lection
ge ographic
mi ya
lt z
ham mer
her s
ag oshima
ans en
Z Z
Ġs qu
ĠH ousing
ĠR ot
ĠD jsasso
Ġinter pre
Ġcons on
Ġnational team
Ex pl
Ġsur name
uen a
ĠTr uman
Ġexpl icit
Elect ron
Ġthreat ened
Ġterror ist
ĠdÃ©part ements
. ||
6 32
b ons
d aughter
r df
s aint
ch r
ex press
em ark
hy n
A vispa
D M
K re
Z or
é ģ
Ġt ornado
ĠA L
ĠF lo
ĠW iley
ĠĠĠĠĠĠĠĠĠĠĠĠĠĠĠĠ ĠĠĠĠĠĠĠĠĠĠ
Ã¼ d
Ã¼ss el
Ã¶rd inaten
Ġjanu ari
17 58
17 98
e ight
se in
os i
ill i
he et
D iana
H amm
ì Ħ
Ġy esterday
Ġl iver
ĠN oble
Ġwant ing
ict ogram
Ad elaide
ĠGo als
ĠCat al
Ġliter ally
ĠMos que
Jet Lover
Ġsurpr ised
% .
53 00
b attles
g ri
n Ã©e
ro bert
way ne
key words
B K
B ecause
B uffy
O w
P opular
Ġ[[ /
Ġd warf
ĠS ett
ĠD anny
Ġother name
Sh ockingHawk
isc opal
ãĥ »
film reference
ãĤ ¤
Ġlat NS
ĠPla ins
ĠSur vivor
Ġsound track
ucceed ed
Ġlack ing
ĠBudd ha
ØŃ ÙħØ¯
Ku wait
9 28
12 26
i ents
r ut
y med
an imation
mp s
zy me
ome d
A er
J Åį
L ak
U top
ĠS ymbols
]]) ''
Ġ20 5
family tree
Ġsee k
yl s
ĠRep orter
ĠÐ Ł
history submit
Ġvari ation
ĠSw an
olt age
rac use
Ú© Ø§Ø±
Ġcrow d
5 107
9 46
_ .
c ti
n onsense
w ear
tor ch
ft s
own ing
gt ime
P ier
P oll
ĠS arthe
for um
ĠI E
ĠC ry
ĠL ie
;{{ Â·}}
Ġde alt
Ġco Ã¶rdinaten
ĠCh uck
Ġ18 40
Ġ{ }
De v
Arch bishop
Ġad mit
Ġcross ed
Ġele v
acc o
Ġinfl uential
(? !
Web ster
Ġhop efully
dem o
Ġeduc ator
ĠOtt awa
ĪâĸĪâĸ ĪâĸĪâĸ
Ġgeme enten
å± ±
9 69
9 77
ar ab
ang ular
ff c
ling u
M any
R oberts
Ġ ÙĦ
Ġl ime
ĠM echan
ĠG iven
Ġal ert
In fl
;]] '''''&
Ġen cyclopedic
ĠCol onel
Ġman ual
Phil ippine
CA S
gold en
Cha pter
Fl uminense
Sur name
One ida
Ġtravel led
Jos hua
6 11
9 56
? ==
d ream
id an
ros se
N F
}} )&
Ġy a
ĠM Ã¼n
ĠN an
rom an
ĠTh reat
Ġedit ions
St ade
Ġ18 67
Ġ18 76
Ġcon quest
Co ach
ĠNe ur
508 7
à¥ ģ
Bas in
apt or
Tim othy
Histor ic
Ġdup licate
Ġgeme ente
recogn ized
Tibet an
pps ala
9 23
e me
f il
h off
l ash
l ittle
p uff
oc rat
end orf
P ts
P ant
Ġs i
ĠD ee
Ġ2 75
In ner
Ġun certain
Ġ{ &
Ġch romos
Ġ20 4
ĠHow e
bal lt
Ġent ering
Ġlife time
epend ing
El len
Ant oine
ĠBer ne
ĠTr inidad
ĠMer cy
Ġpubl ishing
Mad agascar
164 20
Li Ã¨ge
sid ency
spir ation
Dream ing
ĠGeograf ische
Onload Hook
27 09
el ist
om ot
av in
B uc
C iv
N ara
İ le
Ġc ave
ĠA ub
Ġbe volking
ĠH il
ĠH olt
Ġv ille
Ġr iding
Ġ18 75
vent een
Ġrelat ivity
SM RT
Ġtravel s
she et
produ cts
Protect ion
comot ive
ĠFace book
% ||
d uration
r ud
w et
re ls
el o
ny t
box ing
ye ong
ust ace
E k
S underland
è ª
Ġm aker
ĠC eltic
ĠH OT
ĠL il
ĠN ish
iv ation
ib el
Ġuns ubscribe
Ġcreat ures
0099 00
former ly
dddd dd
upd ates
14 15
53 55
d ated
h ate
j ct
cat ter
ack s
A ves
A mar
J urassic
K urd
Ġt ie
Ġm isc
ĠA pollo
ĠP ay
Ġsh ots
Ġr od
Ġ18 72
[...]
