{"[PAD]":0,"<|endoftext|>":1,"[unused1]":2,"[unused2]":3,"[unused3]":4,"[unused4]":5,"[unused5]":6,"[unused6]":7,"[unused7]":8,"[unused8]":9,"[unused9]":10,"[unused10]":11,"[unused11]":12,"[unused12]":13,"[unused13]":14,"[unused14]":15,"[unused15]":16,"[unused16]":17,"[unused17]":18,"[unused18]":19,"[unused19]":20,"[unused20]":21,"[unused21]":22,"[unused22]":23,"[unused23]":24,"[unused24]":25,"[unused25]":26,"[unused26]":27,"[unused27]":28,"[unused28]":29,"[unused29]":30,"[unused30]":31,"[unused31]":32,"[unused32]":33,"[unused33]":34,"[unused34]":35,"[unused35]":36,"[unused36]":37,"[unused37]":38,"[unused38]":39,"[unused39]":40,"[unused40]":41,"[unused41]":42,"[unused42]":43,"[unused43]":44,"[unused44]":45,"[unused45]":46,"[unused46]":47,"[unused47]":48,"[unused48]":49,"[unused49]":50,"[unused50]":51,"[unused51]":52,"[unused52]":53,"[unused53]":54,"[unused54]":55,"[unused55]":56,"[unused56]":57,"[unused57]":58,"[unused58]":59,"[unused59]":60,"[unused60]":61,"[unused61]":62,"[unused62]":63,"[unused63]":64,"[unused64]":65,"[unused65]":66,"[unused66]":67,"[unused67]":68,"[unused68]":69,"[unused69]":70,"[unused70]":71,"[unused71]":72,"[unused72]":73,"[unused73]":74,"[unused74]":75,"[unused75]":76,"[unused76]":77,"[unused77]":78,"[unused78]":79,"[unused79]":80,"[unused80]":81,"[unused81]":82,"[unused82]":83,"[unused83]":84,"[unused84]":85,"[unused85]":86,"[unused86]":87,"[unused87]":88,"[unused88]":89,"[unused89]":90,"[unused90]":91,"[unused91]":92,"[unused92]":93,"[unused93]":94,"[unused94]":95,"[unused95]":96,"âĸģ":97,"âĢĿ":98,"âĢĶ":99,"å¾Į":100,"èªŀ":101,"å¹¾":102,"Ì¶âģİ":103,"æĽ¸":104,"éĽ»":105,"éº½":106,"à¸±è©²":107,"è«ĸ":108,"éĢ²":109,"çµĲ":110,"è®Ĭ":111,"è¼ĥ":112,"éĺª":113,"æķ¸":114,"ä¸¦":115,"æ¨Ĥ":116,"éĽ£":117,"åĸ®":118,"éłŃ":119,"åł´":120,"èģ½":121,"è²·":122,"ä½Ļ":123,"é¡ŀ":124,"èĳĹ":125,"å¸«":126,"âĻ¥":127,"ÌģâĢķ":128,"è¦Ĩ":129,"`":130,"âĢĻ":131,"ãĥ»":132,"åĢĭ":133,"éĢĻ":134,"çĤº":135,"ä¾Ĩ":136,"æľĥ":137,"âĿ¤":138,"âĢĵ":139,"æĻĤ":140,"èªª":141,"æ²Ĵ":142,"ãĤļå¾Į":143,"éº¼":144,"éĤĦ":145,"ãģ®":146,"éģİ":147,"åŃ¸":148,"å°į":149,"ãĥ¼":150,"åĢĳ":151,"åľĭ":152,"æĸ¼":153,"ãģĦ":154,"ä¹¾":155,"çı¾":156,"å¯¦":157,"çĦ¡":158,"æ¨£":159,"çķ¶":160,"è¦º":161,"é»ŀ":162,"åĲĴ":163,"åķı":164,"ç¨®":165,"é¡Į":166,"ç¶ĵ":167,"éĸĭ":168,"è©±":169,"çĻ¼":170,"åĪ¥":171,"Ì©èªŀ":172,"é«Ķ":173,"éĸĵ":174,"åĭķ":175,"æĦĽ":176,"çµ¦":177,"è£¡":178,"èĹī":179,"å¾ŀ":180,"æ©Ł":181,"åħ©":182,"éĹľ":183,"æĩī":184,"éķ·":185,"åħ§":186,"èĪĩ":187,"æŃ¡":188,"âŃĲ":189,"æ¥Ń":190,"è®ĵ":191,"è¦ĭ":192,"æĿ±":193,"âĺº":194,"èªį":195,"[UNK]":196,"[CLS]":197,"[SEP]":198,"[MASK]":199,"<S>":200,"<T>":201,"!":202,"\"":203,"âĢľ":204,"âĢĺ":205,"#":206,"$":207,"%":208,"&":209,"'":210,"(":211,")":212,"*":213,"+":214,",":215,"-":216,".":217,"/":218,"0":219,"1":220,"2":221,"3":222,"4":223,"5":224,"6":225,"7":226,"8":227,"9":228,"10":229,"11":230,"12":231,"13":232,"14":233,"15":234,"16":235,"17":236,"18":237,"19":238,"20":239,"21":240,"22":241,"23":242,"24":243,"25":244,"26":245,"27":246,"28":247,"29":248,"30":249,"31":250,"32":251,"33":252,"34":253,"35":254,"36":255,"37":256,"38":257,"39":258,"40":259,"41":260,"42":261,"43":262,"44":263,"45":264,"46":265,"47":266,"48":267,"49":268,"50":269,"51":270,"52":271,"53":272,"54":273,"55":274,"56":275,"57":276,"58":277,"59":278,"60":279,"61":280,"62":281,"63":282,"64":283,"65":284,"66":285,"67":286,"68":287,"69":288,"70":289,"71":290,"72":291,"73":292,"74":293,"75":294,"76":295,"77":296,"78":297,"79":298,"80":299,"81":300,"82":301,"83":302,"84":303,"85":304,"86":305,"87":306,"88":307,"89":308,"90":309,"91":310,"92":311,"93":312,"94":313,"95":314,"96":315,"97":316,"98":317,"99":318,"100":319,"2016":320,"2017":321,"2018":322,"2019":323,"2020":324,"2021":325,"2022":326,":":327,";":328,"<":329,"=":330,">":331,"?":332,"@":333,"[":334,"\\":335,"]":336,"^":337,"_":338,"a":339,"b":340,"c":341,"d":342,"e":343,"f":344,"g":345,"h":346,"i":347,"j":348,"k":349,"l":350,"m":351,"n":352,"o":353,"p":354,"q":355,"r":356,"s":357,"t":358,"u":359,"v":360,"w":361,"x":362,"y":363,"z":364,"{":365,"|":366,"}":367,"~":368,"Â£":369,"Â¤":370,"Â¥":371,"Â§":372,"Â«":373,"Â°":374,"Â±":375,"Â²":376,"Â³":377,"Âµ":378,"Â·":379,"Â¹":380,"Âº":381,"Â»":382,"Â¼":383,"ÃĹ":384,"ÃŁ":385,"Ã¦":386,"Ã·":387,"Ã¸":388,"Äĳ":389,"Åĭ":390,"ÉĶ":391,"ÉĻ":392,"É¡":393,"Ê°":394,"Ëĩ":395,"ËĪ":396,"ËĬ":397,"Ëĭ":398,"Ëį":399,"ËĲ":400,"ËĻ":401,"Ëļ":402,"Ë¢":403,"Î±":404,"Î²":405,"Î³":406,"Î´":407,"Îµ":408,"Î·":409,"Î¸":410,"Î¹":411,"Îº":412,"Î»":413,"Î¼":414,"Î½":415,"Î¿":416,"ÏĢ":417,"Ïģ":418,"ÏĤ":419,"Ïĥ":420,"ÏĦ":421,"Ïħ":422,"ÏĨ":423,"Ïĩ":424,"ÏĪ":425,"Ïī":426,"Ð°":427,"Ð±":428,"Ð²":429,"Ð³":430,"Ð´":431,"Ðµ":432,"Ð¶":433,"Ð·":434,"Ð¸":435,"Ðº":436,"Ð»":437,"Ð¼":438,"Ð½":439,"Ð¾":440,"Ð¿":441,"ÑĢ":442,"Ñģ":443,"ÑĤ":444,"Ñĥ":445,"ÑĦ":446,"Ñħ":447,"ÑĨ":448,"Ñĩ":449,"ÑĪ":450,"Ñĭ":451,"ÑĮ":452,"Ñı":453,"Ñĸ":454,"Ø§":455,"Ø¨":456,"Ø©":457,"Øª":458,"Ø¯":459,"Ø±":460,"Ø³":461,"Ø¹":462,"ÙĦ":463,"Ùħ":464,"ÙĨ":465,"Ùĩ":466,"ÙĪ":467,"ÙĬ":468,"Û©":469,"à¸ģ":470,"à¸ĩ":471,"à¸Ļ":472,"à¸¡":473,"à¸¢":474,"à¸£":475,"à¸Ń":476,"à¸²":477,"à¹Ģ":478,"à¹ĳ":479,"à¼ĭ":480,"áĥ¦":481,"áµĥ":482,"áµī":483,"áµį":484,"áµı":485,"áµĲ":486,"áµĴ":487,"áµĺ":488,"âĢĸ":489,"âĢŀ":490,"âĢł":491,"âĢ¢":492,"âĢ¥":493,"âĢ§":494,"âĢ°":495,"âĢ²":496,"âĢ³":497,"âĢ¹":498,"âĢº":499,"âĢ»":500,"âĢ¿":501,"âģĦ":502,"âģ±":503,"âģº":504,"âģ¿":505,"âĤģ":506,"âĤĤ":507,"âĤĥ":508,"âĤĦ":509,"âĤ¬":510,"âĦĥ":511,"âĦĸ":512,"âħ°":513,"âħ±":514,"âħ²":515,"âħ³":516,"âħ´":517,"âĨĲ":518,"âĨĳ":519,"âĨĴ":520,"âĨĵ":521,"âĩĴ":522,"âĪĢ":523,"âĪĴ":524,"âĪķ":525,"âĪĻ":526,"âĪļ":527,"âĪŀ":528,"âĪŁ":529,"âĪł":530,"âĪ£":531,"âĪ¥":532,"âĪ©":533,"âĪ®":534,"âĪ¶":535,"âĪ¼":536,"âĪ½":537,"âīĪ":538,"âīĴ":539,"âī¡":540,"âī¤":541,"âī¥":542,"âī¦":543,"âī§":544,"âīª":545,"âī«":546,"âĬĻ":547,"âĭħ":548,"âĭĪ":549,"âĭ¯":550,"âĮĴ":551,"âĳł":552,"âĳ¡":553,"âĳ¢":554,"âĳ£":555,"âĳ¤":556,"âĳ¥":557,"âĳ¦":558,"âĳ§":559,"âĳ¨":560,"âĳ©":561,"âĳ´":562,"âĳµ":563,"âĳ¶":564,"âĳ·":565,"âĳ¸":566,"âĴĪ":567,"âĴī":568,"âĴĬ":569,"âĴĭ":570,"âĵĴ":571,"âĵĶ":572,"âĵĺ":573,"âĶĢ":574,"âĶģ":575,"âĶĤ":576,"âĶĥ":577,"âĶħ":578,"âĶĨ":579,"âĶĬ":580,"âĶĮ":581,"âĶĶ":582,"âĶľ":583,"âĶ£":584,"âķĲ":585,"âķĳ":586,"âķļ":587,"âķŀ":588,"âķł":589,"âķŃ":590,"âķ®":591,"âķ¯":592,"âķ°":593,"âķ±":594,"âķ³":595,"âĸĤ":596,"âĸĥ":597,"âĸħ":598,"âĸĩ":599,"âĸĪ":600,"âĸī":601,"âĸĭ":602,"âĸĮ":603,"âĸį":604,"âĸİ":605,"âĸł":606,"âĸ¡":607,"âĸ¬":608,"âĸ²":609,"âĸ³":610,"âĸº":611,"âĸ¼":612,"âĸ½":613,"âĹĨ":614,"âĹĩ":615,"âĹĭ":616,"âĹİ":617,"âĹı":618,"âĹķ":619,"âĹł":620,"âĹ¢":621,"âĹ¤":622,"âĺħ":623,"âĺĨ":624,"âĺŀ":625,"âĺ¼":626,"âĻ¡":627,"âĻª":628,"âĻ«":629,"âĻ¬":630,"âľķ":631,"âľ¦":632,"âľª":633,"âľ°":634,"âľ¿":635,"âĿĢ":636,"âŀľ":637,"âŀ¤":638,"â¦¿":639,"ãĢģ":640,"ãĢĤ":641,"ãĢĥ":642,"ãĢħ":643,"ãĢĩ":644,"ãĢĪ":645,"ãĢī":646,"ãĢĬ":647,"ãĢĭ":648,"ãĢĮ":649,"ãĢį":650,"ãĢİ":651,"ãĢı":652,"ãĢĲ":653,"ãĢĳ":654,"ãĢĵ":655,"ãĢĶ":656,"ãĢķ":657,"ãĢĸ":658,"ãĢĹ":659,"ãĢľ":660,"ãĢĿ":661,"ãĢŀ":662,"ãĦ§":663,"ãĨį":664,"ãĪ¦":665,"ãĬ£":666,"ãİ¡":667,"ãĹİ":668,"ä¸Ģ":669,"ä¸ģ":670,"ä¸ĥ":671,"ä¸ĩ":672,"ä¸Ī":673,"ä¸ī":674,"ä¸Ĭ":675,"ä¸ĭ":676,"ä¸į":677,"ä¸İ":678,"ä¸Ĳ":679,"ä¸ĳ":680,"ä¸ĵ":681,"ä¸Ķ":682,"ä¸ķ":683,"ä¸ĸ":684,"ä¸ĺ":685,"ä¸Ļ":686,"ä¸ļ":687,"ä¸Ľ":688,"ä¸ľ":689,"ä¸Ŀ":690,"ä¸ŀ":691,"ä¸¡":692,"ä¸¢":693,"ä¸¤":694,"ä¸¥":695,"ä¸§":696,"ä¸¨":697,"ä¸ª":698,"ä¸«":699,"ä¸Ń":700,"ä¸°":701,"ä¸²":702,"ä¸´":703,"ä¸¶":704,"ä¸¸":705,"ä¸¹":706,"ä¸º":707,"ä¸»":708,"ä¸¼":709,"ä¸½":710,"ä¸¾":711,"ä¸¿":712,"ä¹Ĥ":713,"ä¹ĥ":714,"ä¹ħ":715,"ä¹Ī":716,"ä¹ī":717,"ä¹ĭ":718,"ä¹Į":719,"ä¹į":720,"ä¹İ":721,"ä¹ı":722,"ä¹Ĳ":723,"ä¹Ĵ":724,"ä¹ĵ":725,"ä¹Ķ":726,"ä¹ĸ":727,"ä¹Ĺ":728,"ä¹ĺ":729,"ä¹Ļ":730,"ä¹ľ":731,"ä¹Ŀ":732,"ä¹ŀ":733,"ä¹Ł":734,"ä¹ł":735,"ä¹¡":736,"ä¹¦":737,"ä¹©":738,"ä¹°":739,"ä¹±":740,"ä¹³":741,"äºĢ":742,"äºĨ":743,"äºĪ":744,"äºī":745,"äºĭ":746,"äºĮ":747,"äºİ":748,"äºı":749,"äºĳ":750,"äºĴ":751,"äºĶ":752,"äºķ":753,"äºĺ":754,"äºļ":755,"äºĽ":756,"äºľ":757,"äºŁ":758,"äº¡":759,"äº¢":760,"äº¤":761,"äº¥":762,"äº¦":763,"äº§":764,"äº¨":765,"äº©":766,"äº«":767,"äº¬":768,"äºŃ":769,"äº®":770,"äº²":771,"äº³":772,"äºµ":773,"äºº":774,"äº¿":775,"ä»Ģ":776,"ä»ģ":777,"ä»ĥ":778,"ä»Ħ":779,"ä»ħ":780,"ä»Ĩ":781,"ä»ĩ":782,"ä»Ĭ":783,"ä»ĭ":784,"ä»į":785,"ä»İ":786,"ä»ı":787,"ä»ĳ":788,"ä»ĵ":789,"ä»Ķ":790,"ä»ķ":791,"ä»ĸ":792,"ä»Ĺ":793,"ä»ĺ":794,"ä»Ļ":795,"ä»Ŀ":796,"ä»ŀ":797,"ä»Ł":798,"ä»£":799,"ä»¤":800,"ä»¥":801,"ä»¨":802,"ä»ª":803,"ä»¬":804,"ä»®":805,"ä»°":806,"ä»²":807,"ä»¶":808,"ä»·":809,"ä»»":810,"ä»½":811,"ä»¿":812,"ä¼ģ":813,"ä¼ī":814,"ä¼Ĭ":815,"ä¼į":816,"ä¼İ":817,"ä¼ı":818,"ä¼Ĳ":819,"ä¼ĳ":820,"ä¼ķ":821,"ä¼Ĺ":822,"ä¼ĺ":823,"ä¼Ļ":824,"ä¼ļ":825,"ä¼Ŀ":826,"ä¼ŀ":827,"ä¼Ł":828,"ä¼ł":829,"ä¼¢":830,"ä¼¤":831,"ä¼¦":832,"ä¼ª":833,"ä¼«":834,"ä¼¯":835,"ä¼°":836,"ä¼´":837,"ä¼¶":838,"ä¼¸":839,"ä¼º":840,"ä¼¼":841,"ä¼½":842,"ä½ĥ":843,"ä½Ĩ":844,"ä½į":845,"ä½İ":846,"ä½ı":847,"ä½Ĳ":848,"ä½ĳ":849,"ä½ĵ":850,"ä½Ķ":851,"ä½ķ":852,"ä½Ĺ":853,"ä½ĺ":854,"ä½ļ":855,"ä½Ľ":856,"ä½ľ":857,"ä½Ŀ":858,"ä½ŀ":859,"ä½Ł":860,"ä½ł":861,"ä½¢":862,"ä½£":863,"ä½¤":864,"ä½¥":865,"ä½©":866,"ä½¬":867,"ä½¯":868,"ä½°":869,"ä½³":870,"ä½¶":871,"ä½»":872,"ä½¼":873,"ä½¿":874,"ä¾ĥ":875,"ä¾Ħ":876,"ä¾Ī":877,"ä¾ĭ":878,"ä¾į":879,"ä¾ı":880,"ä¾ĳ":881,"ä¾Ĺ":882,"ä¾Ľ":883,"ä¾Ŀ":884,"ä¾ł":885,"ä¾¡":886,"ä¾£":887,"ä¾¥":888,"ä¾¦":889,"ä¾§":890,"ä¾¨":891,"ä¾¬":892,"ä¾®":893,"ä¾¯":894,"ä¾µ":895,"ä¾·":896,"ä¾¿":897,"ä¿ĥ":898,"ä¿Ħ":899,"ä¿Ĭ":900,"ä¿İ":901,"ä¿ı":902,"ä¿Ĳ":903,"ä¿ĳ":904,"ä¿Ĺ":905,"ä¿ĺ":906,"ä¿ļ":907,"ä¿Ŀ":908,"ä¿ŀ":909,"ä¿Ł":910,"ä¿¡":911,"ä¿¨":912,"ä¿©":913,"ä¿ª":914,"ä¿¬":915,"ä¿Ń":916,"ä¿®":917,"ä¿¯":918,"ä¿±":919,"ä¿³":920,"ä¿¸":921,"ä¿º":922,"ä¿¾":923,"åĢĮ":924,"åĢį":925,"åĢı":926,"åĢĴ":927,"åĢĶ":928,"åĢĸ":929,"åĢĺ":930,"åĢĻ":931,"åĢļ":932,"åĢľ":933,"åĢŁ":934,"åĢ¡":935,"åĢ¤":936,"åĢ¦":937,"åĢ©":938,"åĢª":939,"åĢ¬":940,"åĢŃ":941,"åĢ¶":942,"åĢº":943,"åĢ¼":944,"åĢ¾":945,"åģĥ":946,"åģĩ":947,"åģĪ":948,"åģĮ":949,"åģİ":950,"åģı":951,"åģķ":952,"åģļ":953,"åģľ":954,"åģ¥":955,"åģ¶":956,"åģ·":957,"åģ»":958,"åģ¿":959,"åĤĢ":960,"åĤħ":961,"åĤį":962,"åĤļ":963,"åĤ£":964,"åĤ¥":965,"åĤ¨":966,"åĤ©":967,"åĤ¬":968,"åĤ²":969,"åĤ»":970,"åĥį":971,"åĥı":972,"åĥĸ":973,"åĥļ":974,"åĥ§":975,"åĥŃ":976,"åĥ®":977,"åĥ±":978,"åĥµ":979,"åĥ»":980,"åĦĨ":981,"åĦĭ":982,"åĦĴ":983,"åĦ¡":984,"åĦ¿":985,"åħĢ":986,"åħģ":987,"åħĥ":988,"åħĦ":989,"åħħ":990,"åħĨ":991,"åħĪ":992,"åħī":993,"åħĭ":994,"åħį":995,"åħĲ":996,"åħĳ":997,"åħĶ":998,"åħĸ":999,"åħļ":1000,"åħľ":1001,"åħ¢":1002,"åħ¥":1003,"åħ¨":1004,"åħ«":1005,"åħ¬":1006,"åħŃ":1007,"åħ®":1008,"åħ°":1009,"åħ±":1010,"åħ²":1011,"åħ³":1012,"åħ´":1013,"åħµ":1014,"åħ¶":1015,"åħ·":1016,"åħ¸":1017,"åħ¹":1018,"åħ»":1019,"åħ¼":1020,"åħ½":1021,"åĨĢ":1022,"åĨħ":1023,"åĨĨ":1024,"åĨĩ":1025,"åĨĪ":1026,"åĨī":1027,"åĨĮ":1028,"åĨį":1029,"åĨı":1030,"åĨĴ":1031,"åĨķ":1032,"åĨĹ":1033,"åĨĻ":1034,"åĨĽ":1035,"åĨľ":1036,"åĨł":1037,"åĨ¢":1038,"åĨ¤":1039,"åĨ¥":1040,"åĨ¨":1041,"åĨ¬":1042,"åĨ¯":1043,"åĨ°":1044,"åĨ²":1045,"åĨ³":1046,"åĨµ":1047,"åĨ¶":1048,"åĨ·":1049,"åĨ»":1050,"åĨ¼":1051,"åĨ½":1052,"åĨ¾":1053,"åĩĢ":1054,"åĩĦ":1055,"åĩĨ":1056,"åĩĩ":1057,"åĩī":1058,"åĩĭ":1059,"åĩĮ":1060,"åĩı":1061,"åĩĳ":1062,"åĩĽ":1063,"åĩĿ":1064,"åĩł":1065,"åĩ¡":1066,"åĩ¤":1067,"åĩ¦":1068,"åĩª":1069,"åĩŃ":1070,"åĩ¯":1071,"åĩ°":1072,"åĩ³":1073,"åĩ¶":1074,"åĩ¸":1075,"åĩ¹":1076,"åĩº":1077,"åĩ»":1078,"åĩ½":1079,"åĩ¿":1080,"åĪĢ":1081,"åĪģ":1082,"åĪĥ":1083,"åĪĨ":1084,"åĪĩ":1085,"åĪĪ":1086,"åĪĬ":1087,"åĪį":1088,"åĪİ":1089,"åĪĳ":1090,"åĪĴ":1091,"åĪĹ":1092,"åĪĺ":1093,"åĪĻ":1094,"åĪļ":1095,"åĪĽ":1096,"åĪĿ":1097,"åĪł":1098,"åĪ¤":1099,"åĪ¨":1100,"åĪ©":1101,"åĪ«":1102,"åĪ®":1103,"åĪ°":1104,"åĪ¶":1105,"åĪ·":1106,"åĪ¸":1107,"åĪ¹":1108,"åĪº":1109,"åĪ»":1110,"åĪ½":1111,"åīģ":1112,"åīĤ":1113,"åīĥ":1114,"åīī":1115,"åīĬ":1116,"åīĮ":1117,"åīį":1118,"åīĲ":1119,"åīĳ":1120,"åīĶ":1121,"åīĸ":1122,"åīľ":1123,"åī£":1124,"åī¤":1125,"åī¥":1126,"åī§":1127,"åī©":1128,"åīª":1129,"åī¯":1130,"åī²":1131,"åī·":1132,"åī½":1133,"åī¿":1134,"åĬĪ":1135,"åĬĽ":1136,"åĬĿ":1137,"åĬŀ":1138,"åĬŁ":1139,"åĬł":1140,"åĬ¡":1141,"åĬ£":1142,"åĬ¨":1143,"åĬ©":1144,"åĬª":1145,"åĬ«":1146,"åĬŃ":1147,"åĬ±":1148,"åĬ²":1149,"åĬ³":1150,"åĬ´":1151,"åĬµ":1152,"åĬ¹":1153,"åĬ¾":1154,"åĬ¿":1155,"åĭĥ":1156,"åĭĩ":1157,"åĭī":1158,"åĭĭ":1159,"åĭĲ":1160,"åĭĴ":1161,"åĭĸ":1162,"åĭĺ":1163,"åĭŁ":1164,"åĭ¤":1165,"åĭ§":1166,"åĭ³":1167,"åĭº":1168,"åĭ¾":1169,"åĭ¿":1170,"åĮĢ":1171,"åĮħ":1172,"åĮĨ":1173,"åĮĪ":1174,"åĮį":1175,"åĮĲ":1176,"åĮķ":1177,"åĮĸ":1178,"åĮĹ":1179,"åĮĻ":1180,"åĮĿ":1181,"åĮł":1182,"åĮ¡":1183,"åĮ£":1184,"åĮª":1185,"åĮ®":1186,"åĮ¹":1187,"åĮº":1188,"åĮ»":1189,"åĮ¾":1190,"åĮ¿":1191,"åįģ":1192,"åįĥ":1193,"åįħ":1194,"åįĩ":1195,"åįĪ":1196,"åįī":1197,"åįĬ":1198,"åįį":1199,"åįİ":1200,"åįı":1201,"åįĳ":1202,"åįĴ":1203,"åįĵ":1204,"åįķ":1205,"åįĸ":1206,"åįĹ":1207,"åįĺ":1208,"åįļ":1209,"åįľ":1210,"åįŀ":1211,"åįŁ":1212,"åįł":1213,"åį¡":1214,"åį¢":1215,"åį¤":1216,"åį¦":1217,"åį§":1218,"åį«":1219,"åį®":1220,"åį¯":1221,"åį°":1222,"åį±":1223,"åį³":1224,"åį´":1225,"åįµ":1226,"åį·":1227,"åį¸":1228,"åį¿":1229,"åİĤ":1230,"åİĦ":1231,"åİħ":1232,"åİĨ":1233,"åİī":1234,"åİĭ":1235,"åİĮ":1236,"åİķ":1237,"åİĺ":1238,"åİļ":1239,"åİĿ":1240,"åİŁ":1241,"åİ¢":1242,"åİ¥":1243,"åİ¦":1244,"åİ¨":1245,"åİ©":1246,"åİ®":1247,"åİ³":1248,"åİ»":1249,"åİ¿":1250,"åıģ":1251,"åıĤ":1252,"åıĪ":1253,"åıī":1254,"åıĬ":1255,"åıĭ":1256,"åıĮ":1257,"åıį":1258,"åıİ":1259,"åıĳ":1260,"åıĶ":1261,"åıĸ":1262,"åıĹ":1263,"åıĺ":1264,"åıĻ":1265,"åıĽ":1266,"åıŁ":1267,"åıł":1268,"åı¡":1269,"åı£":1270,"åı¤":1271,"åı¥":1272,"åı¦":1273,"åı¨":1274,"åı©":1275,"åıª":1276,"åı«":1277,"åı¬":1278,"åıŃ":1279,"åı®":1280,"åı¯":1281,"åı°":1282,"åı±":1283,"åı²":1284,"åı³":1285,"åıµ":1286,"åı¶":1287,"åı·":1288,"åı¸":1289,"åı¹":1290,"åı»":1291,"åı¼":1292,"åı½":1293,"åĲģ":1294,"åĲĥ":1295,"åĲĦ":1296,"åĲĨ":1297,"åĲĪ":1298,"åĲī":1299,"åĲĬ":1300,"åĲĭ":1301,"åĲĮ":1302,"åĲį":1303,"åĲİ":1304,"åĲı":1305,"åĲĲ":1306,"åĲĳ":1307,"åĲĵ":1308,"åĲķ":1309,"åĲĸ":1310,"åĲĹ":1311,"åĲĽ":1312,"åĲĿ":1313,"åĲŀ":1314,"åĲŁ":1315,"åĲł":1316,"åĲ¡":1317,"åĲ¦":1318,"åĲ§":1319,"åĲ¨":1320,"åĲ©":1321,"åĲ«":1322,"åĲ¬":1323,"åĲŃ":1324,"åĲ®":1325,"åĲ¯":1326,"åĲ±":1327,"åĲ´":1328,"åĲµ":1329,"åĲ¸":1330,"åĲ¹":1331,"åĲ»":1332,"åĲ¼":1333,"åĲ½":1334,"åĲ¾":1335,"åĳĢ":1336,"åĳĥ":1337,"åĳĨ":1338,"åĳĪ":1339,"åĳĬ":1340,"åĳĭ":1341,"åĳİ":1342,"åĳĲ":1343,"åĳĵ":1344,"åĳķ":1345,"åĳĹ":1346,"åĳĺ":1347,"åĳĽ":1348,"åĳľ":1349,"åĳ¢":1350,"åĳ¤":1351,"åĳ¦":1352,"åĳ¨":1353,"åĳ±":1354,"åĳ²":1355,"åĳ³":1356,"åĳµ":1357,"åĳ·":1358,"åĳ¸":1359,"åĳ»":1360,"åĳ¼":1361,"åĳ½":1362,"åĴĢ":1363,"åĴģ":1364,"åĴĤ":1365,"åĴĦ":1366,"åĴĨ":1367,"åĴĭ":1368,"åĴĮ":1369,"åĴİ":1370,"åĴı":1371,"åĴĲ":1372,"åĴĴ":1373,"åĴĶ":1374,"åĴķ":1375,"åĴĸ":1376,"åĴĹ":1377,"åĴĺ":1378,"åĴĻ":1379,"åĴļ":1380,"åĴĽ":1381,"åĴ£":1382,"åĴ¤":1383,"åĴ¦":1384,"åĴ§":1385,"åĴ¨":1386,"åĴ©":1387,"åĴª":1388,"åĴ«":1389,"åĴ¬":1390,"åĴŃ":1391,"åĴ¯":1392,"åĴ±":1393,"åĴ²":1394,"åĴ³":1395,"åĴ¸":1396,"åĴ»":1397,"åĴ½":1398,"åĴ¿":1399,"åĵĢ":1400,"åĵģ":1401,"åĵĤ":1402,"åĵĦ":1403,"åĵĨ":1404,"åĵĩ":1405,"åĵĪ":1406,"åĵī":1407,"åĵĭ":1408,"åĵĮ":1409,"åĵį":1410,"åĵİ":1411,"åĵı":1412,"åĵĲ":1413,"åĵĳ":1414,"åĵĴ":1415,"åĵĶ":1416,"åĵĹ":1417,"åĵŁ":1418,"åĵ¥":1419,"åĵ¦":1420,"åĵ§":1421,"åĵ¨":1422,"åĵ©":1423,"åĵª":1424,"åĵŃ":1425,"åĵ®":1426,"åĵ²":1427,"åĵº":1428,"åĵ¼":1429,"åĵ½":1430,"åĶģ":1431,"åĶĨ":1432,"åĶĩ":1433,"åĶī":1434,"åĶı":1435,"åĶĲ":1436,"åĶĳ":1437,"åĶĶ":1438,"åĶł":1439,"åĶ¤":1440,"åĶ§":1441,"åĶ¬":1442,"åĶ®":1443,"åĶ¯":1444,"åĶ°":1445,"åĶ±":1446,"åĶ³":1447,"åĶ·":1448,"åĶ¸":1449,"åĶ¾":1450,"åķĥ":1451,"åķĦ":1452,"åķĨ":1453,"åķī":1454,"åķĬ":1455,"åķķ":1456,"åķĸ":1457,"åķľ":1458,"åķ¡":1459,"åķ¤":1460,"åķ¥":1461,"åķ¦":1462,"åķ§":1463,"åķª":1464,"åķ«":1465,"åķ¬":1466,"åķ®":1467,"åķ°":1468,"åķ±":1469,"åķ²":1470,"åķµ":1471,"åķ¶":1472,"åķ·":1473,"åķ¸":1474,"åķ»":1475,"åķ¼":1476,"åķ¾":1477,"åĸĢ":1478,"åĸĤ":1479,"åĸĥ":1480,"åĸĦ":1481,"åĸĨ":1482,"åĸĩ":1483,"åĸī":1484,"åĸĬ":1485,"åĸĭ":1486,"åĸı":1487,"åĸĶ":1488,"åĸĺ":1489,"åĸĻ":1490,"åĸľ":1491,"åĸĿ":1492,"åĸŁ":1493,"åĸ§":1494,"åĸ«":1495,"åĸ°":1496,"åĸ±":1497,"åĸ³":1498,"åĸµ":1499,"åĸ¶":1500,"åĸ·":1501,"åĸ¹":1502,"åĸº":1503,"åĸ»":1504,"åĸ½":1505,"åĹħ":1506,"åĹĳ":1507,"åĹĴ":1508,"åĹĵ":1509,"åĹĶ":1510,"åĹĸ":1511,"åĹľ":1512,"åĹĿ":1513,"åĹŁ":1514,"åĹ¡":1515,"åĹ£":1516,"åĹ¤":1517,"åĹ¦":1518,"åĹ¨":1519,"åĹª":1520,"åĹ¬":1521,"åĹ¯":1522,"åĹ°":1523,"åĹ²":1524,"åĹ³":1525,"åĹ·":1526,"åĹ½":1527,"åĺĢ":1528,"åĺħ":1529,"åĺĪ":1530,"åĺī":1531,"åĺĮ":1532,"åĺİ":1533,"åĺĺ":1534,"åĺļ":1535,"åĺĽ":1536,"åĺŀ":1537,"åĺŁ":1538,"åĺ¢":1539,"åĺ£":1540,"åĺ¤":1541,"åĺ§":1542,"åĺŃ":1543,"åĺ±":1544,"åĺ²":1545,"åĺ´":1546,"åĺ¶":1547,"åĺ¹":1548,"åĺ»":1549,"åĺ¿":1550,"åĻĮ":1551,"åĻİ":1552,"åĻĶ":1553,"åĻĹ":1554,"åĻĻ":1555,"åĻľ":1556,"åĻ¢":1557,"åĻ¤":1558,"åĻ¨":1559,"åĻ©":1560,"åĻª":1561,"åĻ¬":1562,"åĻ±":1563,"åĻ¶":1564,"åĻ»":1565,"åĻ¼":1566,"åļİ":1567,"åļı":1568,"åļĲ":1569,"åļĵ":1570,"åļŁ":1571,"åļ£":1572,"åļ·":1573,"åļ¼":1574,"åĽī":1575,"åĽĬ":1576,"åĽį":1577,"åĽĶ":1578,"åĽĹ":1579,"åĽļ":1580,"åĽĽ":1581,"åĽĿ":1582,"åĽŀ":1583,"åĽŁ":1584,"åĽł":1585,"åĽ¡":1586,"åĽ¢":1587,"åĽ£":1588,"åĽ¤":1589,"åĽ§":1590,"åĽ«":1591,"åĽŃ":1592,"åĽ°":1593,"åĽ±":1594,"åĽ²":1595,"åĽ³":1596,"åĽ´":1597,"åĽ¹":1598,"åĽº":1599,"åĽ½":1600,"åĽ¾":1601,"åĽ¿":1602,"åľĥ":1603,"åľĦ":1604,"åľĨ":1605,"åľĪ":1606,"åľı":1607,"åľľ":1608,"åľŁ":1609,"åľ£":1610,"åľ§":1611,"åľ¨":1612,"åľ©":1613,"åľŃ":1614,"åľ°":1615,"åľ³":1616,"åľº":1617,"åľ»":1618,"åľ¾":1619,"åĿĢ":1620,"åĿĤ":1621,"åĿĩ":1622,"åĿĬ":1623,"åĿį":1624,"åĿİ":1625,"åĿı":1626,"åĿĲ":1627,"åĿĳ":1628,"åĿĹ":1629,"åĿļ":1630,"åĿĽ":1631,"åĿĿ":1632,"åĿŀ":1633,"åĿŁ":1634,"åĿł":1635,"åĿ¡":1636,"åĿ¤":1637,"åĿ¦":1638,"åĿ¨":1639,"åĿª":1640,"åĿ¯":1641,"åĿ³":1642,"åĿµ":1643,"åĿ·":1644,"åŀĤ":1645,"åŀĥ":1646,"åŀĦ":1647,"åŀĭ":1648,"åŀĴ":1649,"åŀļ":1650,"åŀĽ":1651,"åŀł":1652,"åŀ¢":1653,"åŀ£":1654,"åŀ¦":1655,"åŀ©":1656,"åŀ«":1657,"åŀŃ":1658,"åŀ®":1659,"åŁĤ":1660,"åŁĥ":1661,"åŁĭ":1662,"åŁİ":1663,"åŁĶ":1664,"åŁķ":1665,"åŁĹ":1666,"åŁŁ":1667,"åŁł":1668,"åŁ¤":1669,"åŁµ":1670,"åŁ¸":1671,"åŁ¹":1672,"åŁº":1673,"åŁ¼":1674,"åłĢ":1675,"åłĤ":1676,"åłĥ":1677,"åłĨ":1678,"åłĩ":1679,"åłĳ":1680,"åłķ":1681,"åłĻ":1682,"åł¡":1683,"åł¤":1684,"åłª":1685,"åł°":1686,"åłµ":1687,"åłº":1688,"åł¿":1689,"å¡Į":1690,"å¡ĳ":1691,"å¡Ķ":1692,"å¡ĺ":1693,"å¡ŀ":1694,"å¡©":1695,"å¡«":1696,"å¡¬":1697,"å¡Ń":1698,"å¡¾":1699,"å¢Ģ":1700,"å¢ĥ":1701,"å¢ħ":1702,"å¢ī":1703,"å¢Ĵ":1704,"å¢ĵ":1705,"å¢Ĺ":1706,"å¢ĺ":1707,"å¢Ļ":1708,"å¢ŀ":1709,"å¢Ł":1710,"å¢¨":1711,"å¢©":1712,"å£ģ":1713,"å£ħ":1714,"å£Ĩ":1715,"å£Ĭ":1716,"å£ĳ":1717,"å£ķ":1718,"å£¤":1719,"å£«":1720,"å£¬":1721,"å£®":1722,"å£°":1723,"å£²":1724,"å£³":1725,"å£¶":1726,"å£¹":1727,"å¤Ħ":1728,"å¤ĩ":1729,"å¤ī":1730,"å¤į":1731,"å¤ı":1732,"å¤Ķ":1733,"å¤ķ":1734,"å¤ĸ":1735,"å¤Ļ":1736,"å¤ļ":1737,"å¤ľ":1738,"å¤Ł":1739,"å¤¥":1740,"å¤§":1741,"å¤©":1742,"å¤ª":1743,"å¤«":1744,"å¤Ń":1745,"å¤®":1746,"å¤¯":1747,"å¤±":1748,"å¤´":1749,"å¤·":1750,"å¤¸":1751,"å¤¹":1752,"å¤º":1753,"å¥Ĥ":1754,"å¥Ħ":1755,"å¥ĩ":1756,"å¥Ī":1757,"å¥ī":1758,"å¥ĭ":1759,"å¥İ":1760,"å¥ı":1761,"å¥ĳ":1762,"å¥Ķ":1763,"å¥ķ":1764,"å¥ĸ":1765,"å¥Ĺ":1766,"å¥ĺ":1767,"å¥ļ":1768,"å¥ł":1769,"å¥¢":1770,"å¥¥":1771,"å¥³":1772,"å¥´":1773,"å¥¶":1774,"å¥¸":1775,"å¥¹":1776,"å¥½":1777,"å¦Ĥ":1778,"å¦ĥ":1779,"å¦Ħ":1780,"å¦Ĩ":1781,"å¦ĩ":1782,"å¦Ī":1783,"å¦Ĭ":1784,"å¦į":1785,"å¦Ĵ":1786,"å¦ĵ":1787,"å¦ĸ":1788,"å¦ĺ":1789,"å¦Ļ":1790,"å¦ŀ":1791,"å¦£":1792,"å¦¤":1793,"å¦¥":1794,"å¦¨":1795,"å¦©":1796,"å¦ª":1797,"å¦®":1798,"å¦²":1799,"å¦³":1800,"å¦¹":1801,"å¦»":1802,"å¦¾":1803,"å§Ĩ":1804,"å§ī":1805,"å§Ĭ":1806,"å§ĭ":1807,"å§Ĳ":1808,"å§ĳ":1809,"å§Ĵ":1810,"å§ĵ":1811,"å§Ķ":1812,"å§Ĺ":1813,"å§ļ":1814,"å§ľ":1815,"å§Ŀ":1816,"å§£":1817,"å§¥":1818,"å§¨":1819,"å§ª":1820,"å§«":1821,"å§¬":1822,"å§¹":1823,"å§»":1824,"å§¿":1825,"å¨ģ":1826,"å¨ĥ":1827,"å¨Ħ":1828,"å¨ħ":1829,"å¨Ĩ":1830,"å¨ĩ":1831,"å¨ī":1832,"å¨ĳ":1833,"å¨ĵ":1834,"å¨ĺ":1835,"å¨ľ":1836,"å¨Ł":1837,"å¨ł":1838,"å¨£":1839,"å¨¥":1840,"å¨©":1841,"å¨±":1842,"å¨²":1843,"å¨´":1844,"å¨¶":1845,"å¨¼":1846,"å©Ģ":1847,"å©Ĩ":1848,"å©ī":1849,"å©Ĭ":1850,"å©ķ":1851,"å©ļ":1852,"å©¢":1853,"å©§":1854,"å©ª":1855,"å©´":1856,"å©µ":1857,"å©¶":1858,"å©·":1859,"å©º":1860,"å©¿":1861,"åªĴ":1862,"åªļ":1863,"åªĽ":1864,"åªŀ":1865,"åª²":1866,"åª³":1867,"åª¾":1868,"å«ģ":1869,"å«Ĥ":1870,"å«ī":1871,"å«Į":1872,"å«ĳ":1873,"å«Ķ":1874,"å«ĸ":1875,"å«ĺ":1876,"å«ļ":1877,"å«¡":1878,"å«£":1879,"å«¦":1880,"å«©":1881,"å«²":1882,"å¬ħ":1883,"å¬ī":1884,"å¬Ĺ":1885,"å¬Ľ":1886,"å¬¢":1887,"å¬´":1888,"å¬·":1889,"å¬¿":1890,"åŃĢ":1891,"åŃĥ":1892,"åŃĲ":1893,"åŃĳ":1894,"åŃĶ":1895,"åŃķ":1896,"åŃĸ":1897,"åŃĹ":1898,"åŃĺ":1899,"åŃĻ":1900,"åŃļ":1901,"åŃĽ":1902,"åŃľ":1903,"åŃĿ":1904,"åŃŁ":1905,"åŃ¢":1906,"åŃ£":1907,"åŃ¤":1908,"åŃ¦":1909,"åŃ©":1910,"åŃª":1911,"åŃ¬":1912,"åŃ°":1913,"åŃ±":1914,"åŃ³":1915,"åŃµ":1916,"åŃº":1917,"åŃ½":1918,"å®ģ":1919,"å®ĥ":1920,"å®ħ":1921,"å®ĩ":1922,"å®Ī":1923,"å®ī":1924,"å®ĭ":1925,"å®Į":1926,"å®ı":1927,"å®ĵ":1928,"å®ķ":1929,"å®Ĺ":1930,"å®ĺ":1931,"å®Ļ":1932,"å®ļ":1933,"å®Ľ":1934,"å®ľ":1935,"å®Ŀ":1936,"å®ŀ":1937,"å®Ł":1938,"å®ł":1939,"å®¡":1940,"å®¢":1941,"å®£":1942,"å®¤":1943,"å®¥":1944,"å®¦":1945,"å®ª":1946,"å®«":1947,"å®°":1948,"å®³":1949,"å®´":1950,"å®µ":1951,"å®¶":1952,"å®¸":1953,"å®¹":1954,"å®½":1955,"å®¾":1956,"å®¿":1957,"å¯Ĥ":1958,"å¯Ħ":1959,"å¯ħ":1960,"å¯Ĩ":1961,"å¯ĩ":1962,"å¯Į":1963,"å¯Ĳ":1964,"å¯Ĵ":1965,"å¯ĵ":1966,"å¯Ľ":1967,"å¯Ŀ":1968,"å¯ŀ":1969,"å¯Ł":1970,"å¯¡":1971,"å¯¥":1972,"å¯¨":1973,"å¯®":1974,"å¯°":1975,"å¯¸":1976,"å¯¹":1977,"å¯º":1978,"å¯»":1979,"å¯¼":1980,"å¯¾":1981,"å¯¿":1982,"å°ģ":1983,"å°Ĥ":1984,"å°Ħ":1985,"å°Ĩ":1986,"å°ī":1987,"å°Ĭ":1988,"å°ı":1989,"å°ĳ":1990,"å°Ķ":1991,"å°ķ":1992,"å°ĸ":1993,"å°ĺ":1994,"å°ļ":1995,"å°Ŀ":1996,"å°¤":1997,"å°§":1998,"å°¬":1999,"å°±":2000,"å°´":2001,"å°¸":2002,"å°¹":2003,"å°º":2004,"å°»":2005,"å°¼":2006,"å°½":2007,"å°¾":2008,"å°¿":2009,"å±Ģ":2010,"å±ģ":2011,"å±Ĥ":2012,"å±Ħ":2013,"å±ħ":2014,"å±Ī":2015,"å±ī":2016,"å±Ĭ":2017,"å±ĭ":2018,"å±Į":2019,"å±İ":2020,"å±ı":2021,"å±Ĳ":2022,"å±ĳ":2023,"å±ķ":2024,"å±ŀ":2025,"å±ł":2026,"å±¡":2027,"å±¥":2028,"å±¯":2029,"å±±":2030,"å±¹":2031,"å±¿":2032,"å²Ģ":2033,"å²ģ":2034,"å²Ĥ":2035,"å²Į":2036,"å²Ĳ":2037,"å²ĳ":2038,"å²Ķ":2039,"å²ĸ":2040,"å²Ĺ":2041,"å²ĺ":2042,"å²Ļ":2043,"å²ļ":2044,"å²Ľ":2045,"å²©":2046,"å²«":2047,"å²¬":2048,"å²Ń":2049,"å²±":2050,"å²³":2051,"å²·":2052,"å²¸":2053,"å³ĩ":2054,"å³ĭ":2055,"å³Ĵ":2056,"å³Ļ":2057,"å³¡":2058,"å³¤":2059,"å³¥":2060,"å³¦":2061,"å³¨":2062,"å³ª":2063,"å³Ń":2064,"å³¯":2065,"å³°":2066,"å³»":2067,"å´ģ":2068,"å´Ĥ":2069,"å´Ĩ":2070,"å´ĩ":2071,"å´İ":2072,"å´ĳ":2073,"å´Ķ":2074,"å´ĸ":2075,"å´Ļ":2076,"å´Ľ":2077,"å´§":2078,"å´©":2079,"å´Ń":2080,"å´´":2081,"å´½":2082,"åµĩ":2083,"åµĬ":2084,"åµĭ":2085,"åµĮ":2086,"åµĺ":2087,"åµ©":2088,"åµ¬":2089,"åµ¯":2090,"å¶Ĥ":2091,"å¶ĭ":2092,"å¶Ļ":2093,"å·ħ":2094,"å·į":2095,"å·ĸ":2096,"å·Ŀ":2097,"å·ŀ":2098,"å·¡":2099,"å·¢":2100,"å·¥":2101,"å·¦":2102,"å·§":2103,"å·¨":2104,"å·©":2105,"å·«":2106,"å·®":2107,"å·±":2108,"å·²":2109,"å·³":2110,"å·´":2111,"å··":2112,"å·»":2113,"å·½":2114,"å·¾":2115,"å·¿":2116,"å¸ģ":2117,"å¸Ĥ":2118,"å¸ĥ":2119,"å¸ħ":2120,"å¸Ĩ":2121,"å¸Ī":2122,"å¸Į":2123,"å¸Ĳ":2124,"å¸ĳ":2125,"å¸ķ":2126,"å¸ĸ":2127,"å¸ĺ":2128,"å¸ļ":2129,"å¸Ľ":2130,"å¸ľ":2131,"å¸Ŀ":2132,"å¸¦":2133,"å¸§":2134,"å¸Ń":2135,"å¸®":2136,"å¸¯":2137,"å¸°":2138,"å¸·":2139,"å¸¸":2140,"å¸¼":2141,"å¸½":2142,"å¹Ĥ":2143,"å¹Ħ":2144,"å¹ħ":2145,"å¹Į":2146,"å¹Ķ":2147,"å¹ķ":2148,"å¹¡":2149,"å¹¢":2150,"å¹²":2151,"å¹³":2152,"å¹´":2153,"å¹¶":2154,"å¹¸":2155,"å¹»":2156,"å¹¼":2157,"å¹½":2158,"å¹¿":2159,"åºģ":2160,"åºĥ":2161,"åºĦ":2162,"åºĨ":2163,"åºĩ":2164,"åºĬ":2165,"åºı":2166,"åºĲ":2167,"åºĵ":2168,"åºĶ":2169,"åºķ":2170,"åºĸ":2171,"åºĹ":2172,"åºĻ":2173,"åºļ":2174,"åºľ":2175,"åºŀ":2176,"åºŁ":2177,"åºł":2178,"åº¦":2179,"åº§":2180,"åºŃ":2181,"åºµ":2182,"åº¶":2183,"åº·":2184,"åº¸":2185,"åº¹":2186,"åº¾":2187,"å»ĥ":2188,"å»ī":2189,"å»Ĭ":2190,"å»ĵ":2191,"å»ĸ":2192,"å»¶":2193,"å»·":2194,"å»º":2195,"å»¿":2196,"å¼Ģ":2197,"å¼ģ":2198,"å¼Ĥ":2199,"å¼ĥ":2200,"å¼Ħ":2201,"å¼Ī":2202,"å¼Ĭ":2203,"å¼ĭ":2204,"å¼ı":2205,"å¼ĳ":2206,"å¼ĵ":2207,"å¼Ķ":2208,"å¼ķ":2209,"å¼Ĺ":2210,"å¼ĺ":2211,"å¼Ľ":2212,"å¼Ł":2213,"å¼ł":2214,"å¼¥":2215,"å¼¦":2216,"å¼§":2217,"å¼©":2218,"å¼Ń":2219,"å¼¯":2220,"å¼±":2221,"å¼¹":2222,"å¼º":2223,"å¼¼":2224,"å¼¾":2225,"å½ħ":2226,"å½Ĵ":2227,"å½ĵ":2228,"å½ķ":2229,"å½Ĺ":2230,"å½Ŀ":2231,"å½¢":2232,"å½¤":2233,"å½¦":2234,"å½§":2235,"å½©":2236,"å½ª":2237,"å½«":2238,"å½¬":2239,"å½Ń":2240,"å½°":2241,"å½±":2242,"å½·":2243,"å½¹":2244,"å½»":2245,"å½¼":2246,"å½¿":2247,"å¾Ģ":2248,"å¾ģ":2249,"å¾Ħ":2250,"å¾ħ":2251,"å¾ĩ":2252,"å¾Ī":2253,"å¾ī":2254,"å¾Ĭ":2255,"å¾ĭ":2256,"å¾Ĳ":2257,"å¾Ĵ":2258,"å¾ĵ":2259,"å¾ķ":2260,"å¾Ĺ":2261,"å¾ĺ":2262,"å¾Ļ":2263,"å¾ľ":2264,"å¾¡":2265,"å¾¨":2266,"å¾ª":2267,"å¾¬":2268,"å¾®":2269,"å¾³":2270,"å¾´":2271,"å¾·":2272,"å¾¼":2273,"å¾½":2274,"å¿ĥ":2275,"å¿ħ":2276,"å¿Ĩ":2277,"å¿Į":2278,"å¿į":2279,"å¿ı":2280,"å¿Ĳ":2281,"å¿ĳ":2282,"å¿Ĵ":2283,"å¿ĸ":2284,"å¿Ĺ":2285,"å¿ĺ":2286,"å¿Ļ":2287,"å¿ľ":2288,"å¿ł":2289,"å¿¡":2290,"å¿¤":2291,"å¿§":2292,"å¿ª":2293,"å¿«":2294,"å¿±":2295,"å¿µ":2296,"å¿»":2297,"å¿½":2298,"å¿¿":2299,"æĢĢ":2300,"æĢģ":2301,"æĢĤ":2302,"æĢħ":2303,"æĢĨ":2304,"æĢİ":2305,"æĢı":2306,"æĢĴ":2307,"æĢĶ":2308,"æĢķ":2309,"æĢĸ":2310,"æĢĻ":2311,"æĢľ":2312,"æĢĿ":2313,"æĢł":2314,"æĢ¡":2315,"æĢ¥":2316,"æĢ¦":2317,"æĢ§":2318,"æĢ¨":2319,"æĢª":2320,"æĢ¯":2321,"æĢµ":2322,"æĢ»":2323,"æĢ¼":2324,"æģģ":2325,"æģĥ":2326,"æģĭ":2327,"æģį":2328,"æģĲ":2329,"æģĴ":2330,"æģķ":2331,"æģĻ":2332,"æģļ":2333,"æģ¢":2334,"æģ£":2335,"æģ¤":2336,"æģ¨":2337,"æģ©":2338,"æģª":2339,"æģ«":2340,"æģ¬":2341,"æģŃ":2342,"æģ¯":2343,"æģ°":2344,"æģ³":2345,"æģµ":2346,"æģ¶":2347,"æģ¸":2348,"æģº":2349,"æģ»":2350,"æģ¼":2351,"æģ¿":2352,"æĤĦ":2353,"æĤī":2354,"æĤĮ":2355,"æĤį":2356,"æĤĶ":2357,"æĤĸ":2358,"æĤļ":2359,"æĤŁ":2360,"æĤł":2361,"æĤ£":2362,"æĤ¦":2363,"æĤ¨":2364,"æĤ©":2365,"æĤª":2366,"æĤ¬":2367,"æĤ¯":2368,"æĤ±":2369,"æĤ²":2370,"æĤ´":2371,"æĤ¸":2372,"æĤ»":2373,"æĤ¼":2374,"æĤ½":2375,"æĥħ":2376,"æĥĨ":2377,"æĥĩ":2378,"æĥĬ":2379,"æĥĭ":2380,"æĥĳ":2381,"æĥķ":2382,"æĥĺ":2383,"æĥļ":2384,"æĥľ":2385,"æĥŁ":2386,"æĥł":2387,"æĥ¦":2388,"æĥ§":2389,"æĥ¨":2390,"æĥ©":2391,"æĥ«":2392,"æĥ¬":2393,"æĥŃ":2394,"æĥ®":2395,"æĥ¯":2396,"æĥ°":2397,"æĥ³":2398,"æĥ´":2399,"æĥ¶":2400,"æĥ¹":2401,"æĥº":2402,"æĦģ":2403,"æĦĨ":2404,"æĦĪ":2405,"æĦī":2406,"æĦį":2407,"æĦı":2408,"æĦķ":2409,"æĦļ":2410,"æĦŁ":2411,"æĦ£":2412,"æĦ¤":2413,"æĦ§":2414,"æĦ«":2415,"æĦ¿":2416,"æħĪ":2417,"æħĮ":2418,"æħİ":2419,"æħĳ":2420,"æħķ":2421,"æħ¢":2422,"æħ§":2423,"æħ¨":2424,"æħ°":2425,"æħµ":2426,"æħ·":2427,"æħ¾":2428,"æĨĭ":2429,"æĨİ":2430,"æĨĶ":2431,"æĨ§":2432,"æĨ¨":2433,"æĨ©":2434,"æĨ¬":2435,"æĨ¾":2436,"æĩĤ":2437,"æĩĪ":2438,"æĩĬ":2439,"æĩĭ":2440,"æĩĳ":2441,"æĩĴ":2442,"æĩ¦":2443,"æĩµ":2444,"æĩ¿":2445,"æĪĪ":2446,"æĪĬ":2447,"æĪĮ":2448,"æĪį":2449,"æĪİ":2450,"æĪı":2451,"æĪĲ":2452,"æĪĳ":2453,"æĪĴ":2454,"æĪķ":2455,"æĪĸ":2456,"æĪĺ":2457,"æĪļ":2458,"æĪĽ":2459,"æĪŁ":2460,"æĪ¡":2461,"æĪ¦":2462,"æĪª":2463,"æĪ¬":2464,"æĪ®":2465,"æĪ³":2466,"æĪ´":2467,"æĪ·":2468,"æĪ¸":2469,"æĪ»":2470,"æĪ¾":2471,"æĪ¿":2472,"æīĢ":2473,"æīģ":2474,"æīĩ":2475,"æīĪ":2476,"æīī":2477,"æīĭ":2478,"æīį":2479,"æīİ":2480,"æīĳ":2481,"æīĴ":2482,"æīĵ":2483,"æīĶ":2484,"æīķ":2485,"æīĺ":2486,"æīĽ":2487,"æī£":2488,"æī¦":2489,"æī§":2490,"æī©":2491,"æīª":2492,"æī«":2493,"æī¬":2494,"æīŃ":2495,"æī®":2496,"æī¯":2497,"æī°":2498,"æī±":2499,"æī³":2500,"æī¶":2501,"æī¹":2502,"æī¼":2503,"æī¾":2504,"æī¿":2505,"æĬĢ":2506,"æĬĦ":2507,"æĬī":2508,"æĬĬ":2509,"æĬĳ":2510,"æĬĴ":2511,"æĬĵ":2512,"æĬķ":2513,"æĬĸ":2514,"æĬĹ":2515,"æĬĺ":2516,"æĬļ":2517,"æĬĽ":2518,"æĬľ":2519,"æĬŀ":2520,"æĬŁ":2521,"æĬł":2522,"æĬ¡":2523,"æĬ¢":2524,"æĬ¤":2525,"æĬ¥":2526,"æĬ¨":2527,"æĬ«":2528,"æĬ¬":2529,"æĬ±":2530,"æĬµ":2531,"æĬ¹":2532,"æĬ¼":2533,"æĬ½":2534,"æĬ¿":2535,"æĭĤ":2536,"æĭĦ":2537,"æĭħ":2538,"æĭĨ":2539,"æĭĩ":2540,"æĭĪ":2541,"æĭī":2542,"æĭĮ":2543,"æĭį":2544,"æĭİ":2545,"æĭĲ":2546,"æĭĴ":2547,"æĭĵ":2548,"æĭĶ":2549,"æĭĸ":2550,"æĭĹ":2551,"æĭĺ":2552,"æĭĻ":2553,"æĭļ":2554,"æĭĽ":2555,"æĭľ":2556,"æĭŁ":2557,"æĭ¡":2558,"æĭ¢":2559,"æĭ£":2560,"æĭ¥":2561,"æĭ¦":2562,"æĭ§":2563,"æĭ¨":2564,"æĭ©":2565,"æĭ¬":2566,"æĭŃ":2567,"æĭ®":2568,"æĭ¯":2569,"æĭ±":2570,"æĭ³":2571,"æĭ´":2572,"æĭ·":2573,"æĭ¼":2574,"æĭ½":2575,"æĭ¾":2576,"æĭ¿":2577,"æĮģ":2578,"æĮĤ":2579,"æĮĩ":2580,"æĮĪ":2581,"æĮī":2582,"æĮİ":2583,"æĮĳ":2584,"æĮĸ":2585,"æĮĻ":2586,"æĮļ":2587,"æĮĽ":2588,"æĮĿ":2589,"æĮŀ":2590,"æĮŁ":2591,"æĮł":2592,"æĮ¡":2593,"æĮ£":2594,"æĮ¤":2595,"æĮ¥":2596,"æĮ¨":2597,"æĮª":2598,"æĮ«":2599,"æĮ¯":2600,"æĮ²":2601,"æĮ¹":2602,"æĮº":2603,"æĮ½":2604,"æįĤ":2605,"æįħ":2606,"æįĨ":2607,"æįī":2608,"æįĭ":2609,"æįĮ":2610,"æįį":2611,"æįİ":2612,"æįı":2613,"æįĲ":2614,"æįķ":2615,"æįŀ":2616,"æįŁ":2617,"æį¡":2618,"æį¢":2619,"æį£":2620,"æį§":2621,"æį©":2622,"æį®":2623,"æį±":2624,"æį²":2625,"æį¶":2626,"æį·":2627,"æįº":2628,"æį»":2629,"æİĢ":2630,"æİĤ":2631,"æİĩ":2632,"æİĪ":2633,"æİī":2634,"æİĮ":2635,"æİı":2636,"æİĲ":2637,"æİĴ":2638,"æİĸ":2639,"æİĺ":2640,"æİł":2641,"æİ¢":2642,"æİ£":2643,"æİ¥":2644,"æİ§":2645,"æİ¨":2646,"æİ©":2647,"æİª":2648,"æİ¬":2649,"æİ°":2650,"æİ²":2651,"æİ³":2652,"æİ´":2653,"æİ·":2654,"æİ¸":2655,"æİº":2656,"æıĥ":2657,"æıĦ":2658,"æıĨ":2659,"æıī":2660,"æıį":2661,"æıı":2662,"æıĲ":2663,"æıĴ":2664,"æıĸ":2665,"æı¡":2666,"æı£":2667,"æı©":2668,"æıª":2669,"æıŃ":2670,"æı´":2671,"æı¶":2672,"æı¸":2673,"æı¹":2674,"æı½":2675,"æĲĢ":2676,"æĲģ":2677,"æĲĤ":2678,"æĲħ":2679,"æĲı":2680,"æĲĲ":2681,"æĲĵ":2682,"æĲĶ":2683,"æĲľ":2684,"æĲŀ":2685,"æĲ¡":2686,"æĲª":2687,"æĲ¬":2688,"æĲŃ":2689,"æĲº":2690,"æĲ½":2691,"æĳĢ":2692,"æĳģ":2693,"æĳĦ":2694,"æĳĨ":2695,"æĳĩ":2696,"æĳĪ":2697,"æĳĬ":2698,"æĳĴ":2699,"æĳĶ":2700,"æĳĺ":2701,"æĳŀ":2702,"æĳ§":2703,"æĳ©":2704,"æĳ¸":2705,"æĳ¹":2706,"æĴĤ":2707,"æĴĥ":2708,"æĴħ":2709,"æĴĩ":2710,"æĴĳ":2711,"æĴĴ":2712,"æĴķ":2713,"æĴļ":2714,"æĴŀ":2715,"æĴ¤":2716,"æĴ©":2717,"æĴ¬":2718,"æĴŃ":2719,"æĴ®":2720,"æĴ°":2721,"æĴµ":2722,"æĴ·":2723,"æĴ¸":2724,"æĴ¼":2725,"æĵĢ":2726,"æĵĤ":2727,"æĵħ":2728,"æĵį":2729,"æĵİ":2730,"æĵĴ":2731,"æĵĺ":2732,"æĵŀ":2733,"æĵ¡":2734,"æĵ¢":2735,"æĵ¦":2736,"æĶĢ":2737,"æĶĴ":2738,"æĶĺ":2739,"æĶŀ":2740,"æĶ¥":2741,"æĶ«":2742,"æĶ¯":2743,"æĶ¶":2744,"æĶ¸":2745,"æĶ¹":2746,"æĶ»":2747,"æĶ¾":2748,"æĶ¿":2749,"æķħ":2750,"æķĪ":2751,"æķĮ":2752,"æķį":2753,"æķİ":2754,"æķı":2755,"æķĳ":2756,"æķķ":2757,"æķĸ":2758,"æķĻ":2759,"æķĽ":2760,"æķĿ":2761,"æķŀ":2762,"æķ¢":2763,"æķ£":2764,"æķ¦":2765,"æķ¬":2766,"æķ°":2767,"æķ²":2768,"æķ´":2769,"æķ·":2770,"æĸĩ":2771,"æĸĭ":2772,"æĸĮ":2773,"æĸİ":2774,"æĸĲ":2775,"æĸĳ":2776,"æĸĵ":2777,"æĸĹ":2778,"æĸĻ":2779,"æĸĽ":2780,"æĸľ":2781,"æĸŁ":2782,"æĸ¡":2783,"æĸ¤":2784,"æĸ¥":2785,"æĸ§":2786,"æĸ©":2787,"æĸ«":2788,"æĸŃ":2789,"æĸ¯":2790,"æĸ°":2791,"æĸ¹":2792,"æĸ½":2793,"æĹģ":2794,"æĹĥ":2795,"æĹħ":2796,"æĹĭ":2797,"æĹĮ":2798,"æĹİ":2799,"æĹı":2800,"æĹĸ":2801,"æĹĹ":2802,"æĹł":2803,"æĹ¢":2804,"æĹ¥":2805,"æĹ¦":2806,"æĹ§":2807,"æĹ¨":2808,"æĹ©":2809,"æĹ¬":2810,"æĹŃ":2811,"æĹ®":2812,"æĹ±":2813,"æĹ¶":2814,"æĹ·":2815,"æĹº":2816,"æĹ»":2817,"æĺĢ":2818,"æĺĤ":2819,"æĺĨ":2820,"æĺĩ":2821,"æĺī":2822,"æĺĬ":2823,"æĺĮ":2824,"æĺİ":2825,"æĺı":2826,"æĺĵ":2827,"æĺĶ":2828,"æĺķ":2829,"æĺĻ":2830,"æĺŁ":2831,"æĺł":2832,"æĺ¥":2833,"æĺ§":2834,"æĺ¨":2835,"æĺŃ":2836,"æĺ¯":2837,"æĺ±":2838,"æĺ´":2839,"æĺµ":2840,"æĺ¶":2841,"æĺ¼":2842,"æĺ¾":2843,"æĻģ":2844,"æĻĥ":2845,"æĻĭ":2846,"æĻĮ":2847,"æĻı":2848,"æĻĴ":2849,"æĻĵ":2850,"æĻĶ":2851,"æĻķ":2852,"æĻĸ":2853,"æĻĹ":2854,"æĻļ":2855,"æĻŀ":2856,"æĻŁ":2857,"æĻ¤":2858,"æĻ¦":2859,"æĻ¨":2860,"æĻ©":2861,"æĻ®":2862,"æĻ¯":2863,"æĻ°":2864,"æĻ´":2865,"æĻ¶":2866,"æĻ·":2867,"æĻº":2868,"æĻ¾":2869,"æļĤ":2870,"æļĦ":2871,"æļĩ":2872,"æļĮ":2873,"æļĲ":2874,"æļĳ":2875,"æļĸ":2876,"æļĹ":2877,"æļĿ":2878,"æļ§":2879,"æļ¨":2880,"æļ®":2881,"æļ±":2882,"æļ´":2883,"æļ¸":2884,"æļ¹":2885,"æĽĻ":2886,"æĽľ":2887,"æĽĿ":2888,"æĽ¦":2889,"æĽ°":2890,"æĽ²":2891,"æĽ³":2892,"æĽ´":2893,"æĽ¹":2894,"æĽ¼":2895,"æĽ¾":2896,"æĽ¿":2897,"æľĢ":2898,"æľĪ":2899,"æľī":2900,"æľĭ":2901,"æľį":2902,"æľĲ":2903,"æľĶ":2904,"æľķ":2905,"æľĹ":2906,"æľĽ":2907,"æľĿ":2908,"æľŁ":2909,"æľ¦":2910,"æľ¨":2911,"æľª":2912,"æľ«":2913,"æľ¬":2914,"æľŃ":2915,"æľ¯":2916,"æľ±":2917,"æľ´":2918,"æľµ":2919,"æľº":2920,"æľ½":2921,"æĿĢ":2922,"æĿĤ":2923,"æĿĥ":2924,"æĿĨ":2925,"æĿĪ":2926,"æĿī":2927,"æĿİ":2928,"æĿı":2929,"æĿĲ":2930,"æĿĳ":2931,"æĿĵ":2932,"æĿĸ":2933,"æĿľ":2934,"æĿŀ":2935,"æĿŁ":2936,"æĿł":2937,"æĿ¡":2938,"æĿ¥":2939,"æĿ¨":2940,"æĿŃ":2941,"æĿ¯":2942,"æĿ°":2943,"æĿ³":2944,"æĿµ":2945,"æĿ·":2946,"æĿ¼":2947,"æĿ¾":2948,"æĿ¿":2949,"æŀģ":2950,"æŀĦ":2951,"æŀĩ":2952,"æŀī":2953,"æŀĭ":2954,"æŀĲ":2955,"æŀķ":2956,"æŀĹ":2957,"æŀļ":2958,"æŀľ":2959,"æŀĿ":2960,"æŀ¢":2961,"æŀ£":2962,"æŀª":2963,"æŀ«":2964,"æŀŃ":2965,"æŀ¯":2966,"æŀ°":2967,"æŀ±":2968,"æŀ³":2969,"æŀ¶":2970,"æŀ·":2971,"æŀ¸":2972,"æŁĦ":2973,"æŁı":2974,"æŁĲ":2975,"æŁĳ":2976,"æŁĴ":2977,"æŁĵ":2978,"æŁĶ":2979,"æŁĺ":2980,"æŁļ":2981,"æŁľ":2982,"æŁŀ":2983,"æŁł":2984,"æŁ¢":2985,"æŁ¥":2986,"æŁ©":2987,"æŁ¬":2988,"æŁ¯":2989,"æŁ±":2990,"æŁ³":2991,"æŁ´":2992,"æŁ»":2993,"æŁ¿":2994,"æłĢ":2995,"æłĥ":2996,"æłĦ":2997,"æłħ":2998,"æłĩ":2999,"æłĪ":3000,"æłī":3001,"æłĭ":3002,"æłİ":3003,"æłı":3004,"æłĳ":3005,"æłĵ":3006,"æłĸ":3007,"æłĹ":3008,"æł¡":3009,"æł©":3010,"æłª":3011,"æł·":3012,"æł¸":3013,"æł¹":3014,"æł¼":3015,"æł½":3016,"æł¾":3017,"æ¡Ģ":3018,"æ¡ģ":3019,"æ¡Ĥ":3020,"æ¡ĥ":3021,"æ¡ħ":3022,"æ¡Ĩ":3023,"æ¡Ī":3024,"æ¡ī":3025,"æ¡Į":3026,"æ¡İ":3027,"æ¡Ĳ":3028,"æ¡ĳ":3029,"æ¡ĵ":3030,"æ¡Ķ":3031,"æ¡ľ":3032,"æ¡ł":3033,"æ¡¡":3034,"æ¡¢":3035,"æ¡£":3036,"æ¡¥":3037,"æ¡¦":3038,"æ¡§":3039,"æ¡¨":3040,"æ¡©":3041,"æ¡¶":3042,"æ¢ģ":3043,"æ¢ħ":3044,"æ¢Ĩ":3045,"æ¢ı":3046,"æ¢ĵ":3047,"æ¢Ĺ":3048,"æ¢¢":3049,"æ¢¦":3050,"æ¢§":3051,"æ¢¨":3052,"æ¢Ń":3053,"æ¢¯":3054,"æ¢°":3055,"æ¢³":3056,"æ¢µ":3057,"æ¢¶":3058,"æ£Ģ":3059,"æ£Ĥ":3060,"æ£ī":3061,"æ£ĭ":3062,"æ£į":3063,"æ£Ĵ":3064,"æ£ķ":3065,"æ£ĺ":3066,"æ£ļ":3067,"æ£ł":3068,"æ££":3069,"æ£®":3070,"æ£±":3071,"æ£µ":3072,"æ£¹":3073,"æ£º":3074,"æ¤ģ":3075,"æ¤ħ":3076,"æ¤ĭ":3077,"æ¤į":3078,"æ¤İ":3079,"æ¤Ĵ":3080,"æ¤ľ":3081,"æ¤ª":3082,"æ¤Ń":3083,"æ¤°":3084,"æ¤¹":3085,"æ¤½":3086,"æ¤¿":3087,"æ¥Ĥ":3088,"æ¥Ķ":3089,"æ¥ļ":3090,"æ¥Ŀ":3091,"æ¥ŀ":3092,"æ¥ł":3093,"æ¥£":3094,"æ¥«":3095,"æ¥®":3096,"æ¥·":3097,"æ¥¸":3098,"æ¥¹":3099,"æ¥¼":3100,"æ¥½":3101,"æ¦Ĥ":3102,"æ¦Ħ":3103,"æ¦Ĩ":3104,"æ¦Ī":3105,"æ¦ī":3106,"æ¦Ķ":3107,"æ¦ķ":3108,"æ¦ĸ":3109,"æ¦Ľ":3110,"æ¦ľ":3111,"æ¦¨":3112,"æ¦«":3113,"æ¦Ń":3114,"æ¦±":3115,"æ¦´":3116,"æ¦·":3117,"æ¦»":3118,"æ§ģ":3119,"æ§ĥ":3120,"æ§Į":3121,"æ§İ":3122,"æ§Ĳ":3123,"æ§ĵ":3124,"æ§ĺ":3125,"æ§Ľ":3126,"æ§Ł":3127,"æ§Ń":3128,"æ§²":3129,"æ§»":3130,"æ§½":3131,"æ§¿":3132,"æ¨Ĭ":3133,"æ¨ĳ":3134,"æ¨Ł":3135,"æ¨¡":3136,"æ¨©":3137,"æ¨ª":3138,"æ¨«":3139,"æ¨¯":3140,"æ¨±":3141,"æ¨µ":3142,"æ¨½":3143,"æ¨¾":3144,"æ©Ħ":3145,"æ©ĩ":3146,"æ©Ĳ":3147,"æ©ĺ":3148,"æ©Ļ":3149,"æ©¡":3150,"æ©±":3151,"æ©¹":3152,"æ©¼":3153,"æªĢ":3154,"æªĦ":3155,"æªİ":3156,"æªĲ":3157,"æªĹ":3158,"æª¬":3159,"æ¬ł":3160,"æ¬¡":3161,"æ¬¢":3162,"æ¬£":3163,"æ¬§":3164,"æ¬²":3165,"æ¬¸":3166,"æ¬º":3167,"æ¬¾":3168,"æŃĨ":3169,"æŃĩ":3170,"æŃī":3171,"æŃĮ":3172,"æŃİ":3173,"æŃĵ":3174,"æŃĻ":3175,"æŃĽ":3176,"æŃ¢":3177,"æŃ£":3178,"æŃ¤":3179,"æŃ¥":3180,"æŃ¦":3181,"æŃ§":3182,"æŃ©":3183,"æŃª":3184,"æŃ¯":3185,"æŃ³":3186,"æŃ´":3187,"æŃ¹":3188,"æŃ»":3189,"æŃ¼":3190,"æ®ģ":3191,"æ®ĥ":3192,"æ®Ĩ":3193,"æ®ĩ":3194,"æ®ī":3195,"æ®Ĭ":3196,"æ®ĭ":3197,"æ®Ĵ":3198,"æ®ĵ":3199,"æ®ĸ":3200,"æ®¡":3201,"æ®Ń":3202,"æ®´":3203,"æ®µ":3204,"æ®·":3205,"æ®¿":3206,"æ¯ģ":3207,"æ¯Ĥ":3208,"æ¯ħ":3209,"æ¯ĭ":3210,"æ¯į":3211,"æ¯İ":3212,"æ¯ı":3213,"æ¯Ĵ":3214,"æ¯ĵ":3215,"æ¯Ķ":3216,"æ¯ķ":3217,"æ¯Ĺ":3218,"æ¯ĺ":3219,"æ¯Ļ":3220,"æ¯Ľ":3221,"æ¯¡":3222,"æ¯«":3223,"æ¯¯":3224,"æ¯½":3225,"æ°ı":3226,"æ°Ĳ":3227,"æ°ĳ":3228,"æ°ĵ":3229,"æ°Ķ":3230,"æ°ĸ":3231,"æ°Ĺ":3232,"æ°Ļ":3233,"æ°Ľ":3234,"æ°Ł":3235,"æ°¡":3236,"æ°¢":3237,"æ°¤":3238,"æ°¦":3239,"æ°§":3240,"æ°¨":3241,"æ°ª":3242,"æ°®":3243,"æ°¯":3244,"æ°°":3245,"æ°²":3246,"æ°´":3247,"æ°·":3248,"æ°¸":3249,"æ°¹":3250,"æ°¾":3251,"æ±Ģ":3252,"æ±ģ":3253,"æ±Ĥ":3254,"æ±Ĩ":3255,"æ±ĩ":3256,"æ±ī":3257,"æ±İ":3258,"æ±Ĳ":3259,"æ±ķ":3260,"æ±Ĺ":3261,"æ±Ľ":3262,"æ±Ŀ":3263,"æ±ŀ":3264,"æ±Ł":3265,"æ±ł":3266,"æ±¡":3267,"æ±¤":3268,"æ±¨":3269,"æ±©":3270,"æ±ª":3271,"æ±°":3272,"æ±²":3273,"æ±´":3274,"æ±¶":3275,"æ±¹":3276,"æ±½":3277,"æ±¾":3278,"æ²ģ":3279,"æ²Ĥ":3280,"æ²ĥ":3281,"æ²ħ":3282,"æ²Ī":3283,"æ²ī":3284,"æ²Į":3285,"æ²ı":3286,"æ²Ĳ":3287,"æ²ĵ":3288,"æ²Ļ":3289,"æ²Ľ":3290,"æ²Ł":3291,"æ²¡":3292,"æ²¢":3293,"æ²£":3294,"æ²¥":3295,"æ²¦":3296,"æ²§":3297,"æ²ª":3298,"æ²«":3299,"æ²Ń":3300,"æ²®":3301,"æ²±":3302,"æ²³":3303,"æ²¸":3304,"æ²¹":3305,"æ²»":3306,"æ²¼":3307,"æ²½":3308,"æ²¾":3309,"æ²¿":3310,"æ³Ħ":3311,"æ³ī":3312,"æ³Ĭ":3313,"æ³Į":3314,"æ³ĵ":3315,"æ³ķ":3316,"æ³Ĺ":3317,"æ³Ľ":3318,"æ³ŀ":3319,"æ³ł":3320,"æ³¡":3321,"æ³¢":3322,"æ³£":3323,"æ³¥":3324,"æ³¨":3325,"æ³ª":3326,"æ³«":3327,"æ³®":3328,"æ³¯":3329,"æ³°":3330,"æ³±":3331,"æ³³":3332,"æ³µ":3333,"æ³·":3334,"æ³¸":3335,"æ³»":3336,"æ³¼":3337,"æ³½":3338,"æ³¾":3339,"æ´ģ":3340,"æ´Ħ":3341,"æ´ĭ":3342,"æ´Ĵ":3343,"æ´Ĺ":3344,"æ´Ļ":3345,"æ´Ľ":3346,"æ´ŀ":3347,"æ´¥":3348,"æ´©":3349,"æ´ª":3350,"æ´®":3351,"æ´±":3352,"æ´²":3353,"æ´µ":3354,"æ´¸":3355,"æ´¹":3356,"æ´»":3357,"æ´¼":3358,"æ´½":3359,"æ´¾":3360,"æµģ":3361,"æµĥ":3362,"æµĦ":3363,"æµħ":3364,"æµĨ":3365,"æµĩ":3366,"æµĬ":3367,"æµĭ":3368,"æµİ":3369,"æµı":3370,"æµĳ":3371,"æµĴ":3372,"æµĵ":3373,"æµĶ":3374,"æµĻ":3375,"æµļ":3376,"æµľ":3377,"æµ£":3378,"æµ¦":3379,"æµ©":3380,"æµª":3381,"æµ¬":3382,"æµ®":3383,"æµ¯":3384,"æµ´":3385,"æµ·":3386,"æµ¸":3387,"æ¶Ĥ":3388,"æ¶ħ":3389,"æ¶Ī":3390,"æ¶ī":3391,"æ¶Į":3392,"æ¶İ":3393,"æ¶ĵ":3394,"æ¶Ķ":3395,"æ¶ķ":3396,"æ¶Ļ":3397,"æ¶Ľ":3398,"æ¶Ŀ":3399,"æ¶ŀ":3400,"æ¶Ł":3401,"æ¶ł":3402,"æ¶¡":3403,"æ¶£":3404,"æ¶¤":3405,"æ¶¦":3406,"æ¶§":3407,"æ¶¨":3408,"æ¶©":3409,"æ¶ª":3410,"æ¶®":3411,"æ¶¯":3412,"æ¶²":3413,"æ¶µ":3414,"æ¶¸":3415,"æ¶¿":3416,"æ·Ģ":3417,"æ·Ħ":3418,"æ·ħ":3419,"æ·Ĩ":3420,"æ·ĩ":3421,"æ·ĭ":3422,"æ·Į":3423,"æ·ĳ":3424,"æ·ĸ":3425,"æ·ĺ":3426,"æ·Ļ":3427,"æ·ŀ":3428,"æ·¡":3429,"æ·¤":3430,"æ·¦":3431,"æ·«":3432,"æ·¬":3433,"æ·®":3434,"æ·±":3435,"æ·³":3436,"æ··":3437,"æ·¹":3438,"æ·»":3439,"æ·¼":3440,"æ¸ħ":3441,"æ¸Ī":3442,"æ¸ī":3443,"æ¸Ĭ":3444,"æ¸ĭ":3445,"æ¸į":3446,"æ¸İ":3447,"æ¸Ĳ":3448,"æ¸Ķ":3449,"æ¸Ĺ":3450,"æ¸ļ":3451,"æ¸Ŀ":3452,"æ¸ł":3453,"æ¸¡":3454,"æ¸£":3455,"æ¸¤":3456,"æ¸¥":3457,"æ¸©":3458,"æ¸Ń":3459,"æ¸¯":3460,"æ¸²":3461,"æ¸´":3462,"æ¸¸":3463,"æ¸º":3464,"æ¹ĥ":3465,"æ¹Ħ":3466,"æ¹į":3467,"æ¹ĸ":3468,"æ¹ĺ":3469,"æ¹Ľ":3470,"æ¹Ł":3471,"æ¹§":3472,"æ¹«":3473,"æ¹®":3474,"æ¹³":3475,"æ¹¾":3476,"æ¹¿":3477,"æºĢ":3478,"æºĥ":3479,"æºħ":3480,"æºī":3481,"æºı":3482,"æºĲ":3483,"æºľ":3484,"æºŁ":3485,"æº¢":3486,"æº¥":3487,"æº§":3488,"æºª":3489,"æº¯":3490,"æº±":3491,"æº´":3492,"æº¶":3493,"æºº":3494,"æº¼":3495,"æ»ģ":3496,"æ»Ĥ":3497,"æ»ĩ":3498,"æ»ĭ":3499,"æ»ĳ":3500,"æ»ĵ":3501,"æ»Ķ":3502,"æ»ķ":3503,"æ»Ļ":3504,"æ»ļ":3505,"æ»Ŀ":3506,"æ»ŀ":3507,"æ»Ł":3508,"æ»¡":3509,"æ»¢":3510,"æ»¤":3511,"æ»¥":3512,"æ»¦":3513,"æ»¨":3514,"æ»©":3515,"æ»´":3516,"æ¼Ĥ":3517,"æ¼Ĩ":3518,"æ¼ī":3519,"æ¼ı":3520,"æ¼ĵ":3521,"æ¼Ķ":3522,"æ¼ķ":3523,"æ¼ł":3524,"æ¼©":3525,"æ¼ª":3526,"æ¼«":3527,"æ¼¯":3528,"æ¼±":3529,"æ¼³":3530,"æ¼¾":3531,"æ½Ĩ":3532,"æ½ĩ":3533,"æ½ĭ":3534,"æ½į":3535,"æ½ĺ":3536,"æ½ľ":3537,"æ½ŀ":3538,"æ½Ł":3539,"æ½¢":3540,"æ½¦":3541,"æ½§":3542,"æ½Ń":3543,"æ½®":3544,"æ½´":3545,"æ½¸":3546,"æ½º":3547,"æ½¼":3548,"æ¾Ħ":3549,"æ¾Ī":3550,"æ¾į":3551,"æ¾İ":3552,"æ¾ľ":3553,"æ¾¡":3554,"æ¾§":3555,"æ¾³":3556,"æ¾¹":3557,"æ¿Ģ":3558,"æ¿Ĥ":3559,"æ¿ĳ":3560,"æ¿Ĵ":3561,"æ¿ł":3562,"æ¿¡":3563,"æ¿¬":3564,"æ¿®":3565,"æ¿¯":3566,"çĢĳ":3567,"çĢļ":3568,"çĢĽ":3569,"çĢŀ":3570,"çĢ¬":3571,"çģĮ":3572,"çģı":3573,"çģŀ":3574,"çģ«":3575,"çģ¬":3576,"çģŃ":3577,"çģ¯":3578,"çģ°":3579,"çģµ":3580,"çģ¶":3581,"çģ¸":3582,"çģ¼":3583,"çģ¾":3584,"çģ¿":3585,"çĤĢ":3586,"çĤģ":3587,"çĤħ":3588,"çĤī":3589,"çĤĬ":3590,"çĤİ":3591,"çĤĴ":3592,"çĤĶ":3593,"çĤķ":3594,"çĤĸ":3595,"çĤĻ":3596,"çĤľ":3597,"çĤ«":3598,"çĤ¬":3599,"çĤŃ":3600,"çĤ®":3601,"çĤ¯":3602,"çĤ³":3603,"çĤ·":3604,"çĤ¸":3605,"çĤ¹":3606,"çĤ¼":3607,"çĤ½":3608,"çĥģ":3609,"çĥĤ":3610,"çĥĥ":3611,"çĥĪ":3612,"çĥĬ":3613,"çĥĺ":3614,"çĥĻ":3615,"çĥĽ":3616,"çĥŁ":3617,"çĥ¤":3618,"çĥ¦":3619,"çĥ§":3620,"çĥ¨":3621,"çĥ©":3622,"çĥ«":3623,"çĥ¬":3624,"çĥŃ":3625,"çĥ¯":3626,"çĥ·":3627,"çĥ¹":3628,"çĥ½":3629,"çĦī":3630,"çĦĬ":3631,"çĦķ":3632,"çĦĸ":3633,"çĦĹ":3634,"çĦĺ":3635,"çĦĻ":3636,"çĦļ":3637,"çĦľ":3638,"çĦ¦":3639,"çĦ¯":3640,"çĦ°":3641,"çĦ±":3642,"çĦ¶":3643,"çĦ¼":3644,"çħħ":3645,"çħĬ":3646,"çħĮ":3647,"çħİ":3648,"çħĸ":3649,"çħľ":3650,"çħŀ":3651,"çħ¤":3652,"çħ¦":3653,"çħ§":3654,"çħ¨":3655,"çħ®":3656,"çħ²":3657,"çħ¸":3658,"çħ½":3659,"çĨĦ":3660,"çĨĬ":3661,"çĨı":3662,"çĨĶ":3663,"çĨĻ":3664,"çĨŁ":3665,"çĨł":3666,"çĨ¨":3667,"çĨ¬":3668,"çĨµ":3669,"çĨ¹":3670,"çĩĥ":3671,"çĩĦ":3672,"çĩĬ":3673,"çĩİ":3674,"çĩĶ":3675,"çĩķ":3676,"çĩ¥":3677,"çĩ§":3678,"çĩ®":3679,"çĩ»":3680,"çĩ¿":3681,"çĪĨ":3682,"çĪª":3683,"çĪ¬":3684,"çĪ°":3685,"çĪ±":3686,"çĪµ":3687,"çĪ¶":3688,"çĪ·":3689,"çĪ¸":3690,"çĪ¹":3691,"çĪ»":3692,"çĪ½":3693,"çīĩ":3694,"çīĪ":3695,"çīĮ":3696,"çīį":3697,"çīĴ":3698,"çīĻ":3699,"çīĽ":3700,"çīĿ":3701,"çīŁ":3702,"çīł":3703,"çī¡":3704,"çī¢":3705,"çī¦":3706,"çī§":3707,"çī©":3708,"çī¯":3709,"çī²":3710,"çī´":3711,"çīµ":3712,"çī¹":3713,"çīº":3714,"çĬĢ":3715,"çĬģ":3716,"çĬĦ":3717,"çĬĬ":3718,"çĬį":3719,"çĬĴ":3720,"çĬ¬":3721,"çĬ¯":3722,"çĬ¶":3723,"çĬ·":3724,"çĬ¸":3725,"çĬ¹":3726,"çĭĤ":3727,"çĭĦ":3728,"çĭĪ":3729,"çĭİ":3730,"çĭĲ":3731,"çĭĴ":3732,"çĭĹ":3733,"çĭĻ":3734,"çĭŀ":3735,"çĭł":3736,"çĭ¡":3737,"çĭ©":3738,"çĭ¬":3739,"çĭŃ":3740,"çĭ®":3741,"çĭ°":3742,"çĭ±":3743,"çĭ¸":3744,"çĭ¼":3745,"çĮİ":3746,"çĮķ":3747,"çĮĸ":3748,"çĮĹ":3749,"çĮĽ":3750,"çĮľ":3751,"çĮĿ":3752,"çĮ¥":3753,"çĮ©":3754,"çĮª":3755,"çĮ«":3756,"çĮ¬":3757,"çĮ®":3758,"çĮ´":3759,"çĮ·":3760,"çĮ¾":3761,"çĮ¿":3762,"çįĲ":3763,"çįĴ":3764,"çįĹ":3765,"çįł":3766,"çį£":3767,"çįŃ":3768,"çį¾":3769,"çİĦ":3770,"çİĩ":3771,"çİī":3772,"çİĭ":3773,"çİĳ":3774,"çİĸ":3775,"çİĽ":3776,"çİŁ":3777,"çİł":3778,"çİ¥":3779,"çİ©":3780,"çİ«":3781,"çİ®":3782,"çİ¯":3783,"çİ°":3784,"çİ²":3785,"çİ³":3786,"çİ·":3787,"çİº":3788,"çİ»":3789,"çıĢ":3790,"çıĤ":3791,"çıħ":3792,"çıĪ":3793,"çıī":3794,"çıĬ":3795,"çıį":3796,"çıı":3797,"çıĲ":3798,"çıĳ":3799,"çıĻ":3800,"çıŀ":3801,"çıł":3802,"çı£":3803,"çı¥":3804,"çı©":3805,"çıª":3806,"çıŃ":3807,"çı®":3808,"çı²":3809,"çıº":3810,"çĲĥ":3811,"çĲħ":3812,"çĲĨ":3813,"çĲĩ":3814,"çĲī":3815,"çĲĬ":3816,"çĲį":3817,"çĲı":3818,"çĲĲ":3819,"çĲĽ":3820,"çĲ¢":3821,"çĲ¥":3822,"çĲ¦":3823,"çĲ¨":3824,"çĲª":3825,"çĲ¬":3826,"çĲ®":3827,"çĲ°":3828,"çĲ²":3829,"çĲ³":3830,"çĲ´":3831,"çĲµ":3832,"çĲ¶":3833,"çĲ¼":3834,"çĳĢ":3835,"çĳģ":3836,"çĳĦ":3837,"çĳķ":3838,"çĳĹ":3839,"çĳĻ":3840,"çĳļ":3841,"çĳĽ":3842,"çĳľ":3843,"çĳŀ":3844,"çĳŁ":3845,"çĳł":3846,"çĳ¯":3847,"çĳ°":3848,"çĳ¶":3849,"çĳ¾":3850,"çĴĢ":3851,"çĴģ":3852,"çĴĥ":3853,"çĴĩ":3854,"çĴĭ":3855,"çĴİ":3856,"çĴĲ":3857,"çĴľ":3858,"çĴŀ":3859,"çĴŁ":3860,"çĴ§":3861,"çĴ¨":3862,"çĴ¿":3863,"çĵĴ":3864,"çĵľ":3865,"çĵ¢":3866,"çĵ£":3867,"çĵ¤":3868,"çĵ¦":3869,"çĵ®":3870,"çĵ¯":3871,"çĵ´":3872,"çĵ¶":3873,"çĵ·":3874,"çĶĦ":3875,"çĶķ":3876,"çĶĺ":3877,"çĶĻ":3878,"çĶļ":3879,"çĶľ":3880,"çĶŁ":3881,"çĶ¥":3882,"çĶ¦":3883,"çĶ¨":3884,"çĶ©":3885,"çĶ«":3886,"çĶ¬":3887,"çĶŃ":3888,"çĶ¯":3889,"çĶ°":3890,"çĶ±":3891,"çĶ²":3892,"çĶ³":3893,"çĶµ":3894,"çĶ·":3895,"çĶ¸":3896,"çĶº":3897,"çĶ»":3898,"çĶ¾":3899,"çķĢ":3900,"çķħ":3901,"çķĮ":3902,"çķı":3903,"çķĳ":3904,"çķĶ":3905,"çķĻ":3906,"çķľ":3907,"çķ¥":3908,"çķ¦":3909,"çķª":3910,"çķ²":3911,"çķ³":3912,"çķ´":3913,"çķ¸":3914,"çķ¹":3915,"çķ¿":3916,"çĸĨ":3917,"çĸı":3918,"çĸĳ":3919,"çĸĶ":3920,"çĸĸ":3921,"çĸĹ":3922,"çĸĻ":3923,"çĸļ":3924,"çĸĿ":3925,"çĸŁ":3926,"çĸ¡":3927,"çĸ£":3928,"çĸ¤":3929,"çĸ¥":3930,"çĸ«":3931,"çĸ®":3932,"çĸ¯":3933,"çĸ±":3934,"çĸ²":3935,"çĸ³":3936,"çĸµ":3937,"çĸ¸":3938,"çĸ¹":3939,"çĸ¼":3940,"çĸ½":3941,"çĸ¾":3942,"çĹĤ":3943,"çĹħ":3944,"çĹĩ":3945,"çĹĪ":3946,"çĹī":3947,"çĹĬ":3948,"çĹį":3949,"çĹĴ":3950,"çĹĶ":3951,"çĹķ":3952,"çĹĺ":3953,"çĹĽ":3954,"çĹŀ":3955,"çĹł":3956,"çĹ¢":3957,"çĹ£":3958,"çĹ¤":3959,"çĹ§":3960,"çĹ¨":3961,"çĹª":3962,"çĹ«":3963,"çĹ°":3964,"çĹ±":3965,"çĹ´":3966,"çĹ¹":3967,"çĹº":3968,"çĹ¼":3969,"çĹ¿":3970,"çĺĢ":3971,"çĺģ":3972,"çĺĺ":3973,"çĺĻ":3974,"çĺŁ":3975,"çĺł":3976,"çĺ¢":3977,"çĺ¤":3978,"çĺ¦":3979,"çĺ©":3980,"çĺª":3981,"çĺ«":3982,"çĺ´":3983,"çĺ¸":3984,"çĺ¾":3985,"çĻĮ":3986,"çĻĴ":3987,"çĻĸ":3988,"çĻľ":3989,"çĻŀ":3990,"çĻ¡":3991,"çĻ£":3992,"çĻ«":3993,"çĻ¸":3994,"çĻº":3995,"çĻ»":3996,"çĻ½":3997,"çĻ¾":3998,"çļĤ":3999,"çļĦ":4000,"çļĨ":4001,"çļĩ":4002,"çļĪ":4003,"çļĭ":4004,"çļİ":4005,"çļĳ":4006,"çļĵ":4007,"çļĸ":4008,"çļĻ":4009,"çļ®":4010,"çļ±":4011,"çļ´":4012,"çļ¿":4013,"çĽĤ":4014,"çĽħ":4015,"çĽĨ":4016,"çĽĪ":4017,"çĽĬ":4018,"çĽİ":4019,"çĽı":4020,"çĽĲ":4021,"çĽĳ":4022,"çĽĴ":4023,"çĽĶ":4024,"çĽĸ":4025,"çĽĹ":4026,"çĽĺ":4027,"çĽĽ":4028,"çĽŁ":4029,"çĽ¥":4030,"çĽ®":4031,"çĽ¯":4032,"çĽ±":4033,"çĽ²":4034,"çĽ´":4035,"çĽ¸":4036,"çĽ¹":4037,"çĽ¼":4038,"çĽ¾":4039,"çľģ":4040,"çľĪ":4041,"çľī":4042,"çľĭ":4043,"çľĮ":4044,"çľĻ":4045,"çľŀ":4046,"çľŁ":4047,"çľł":4048,"çľ¦":4049,"çľ¨":4050,"çľ©":4051,"çľ¯":4052,"çľ¶":4053,"çľ·":4054,"çľ¸":4055,"çľº":4056,"çľ¼":4057,"çĿĢ":4058,"çĿģ":4059,"çĿĩ":4060,"çĿĲ":4061,"çĿĳ":4062,"çĿĽ":4063,"çĿ¡":4064,"çĿ¢":4065,"çĿ£":4066,"çĿ¥":4067,"çĿ¦":4068,"çĿ¨":4069,"çĿª":4070,"çĿ«":4071,"çĿ¬":4072,"çĿ¹":4073,"çĿ½":4074,"çĿ¾":4075,"çĿ¿":4076,"çŀĦ":4077,"çŀħ":4078,"çŀĩ":4079,"çŀĭ":4080,"çŀĮ":4081,"çŀİ":4082,"çŀĳ":4083,"çŀĴ":4084,"çŀĵ":4085,"çŀŁ":4086,"çŀł":4087,"çŀ¥":4088,"çŀ§":4089,"çŀ©":4090,"çŀª":4091,"çŀ¬":4092,"çŀ°":4093,"çŀ³":4094,"çŀ»":4095,"çŀ¿":4096,"çŁį":4097,"çŁĹ":4098,"çŁĽ":4099,"çŁľ":4100,"çŁ¢":4101,"çŁ£":4102,"çŁ¥":4103,"çŁ©":4104,"çŁ«":4105,"çŁŃ":4106,"çŁ®":4107,"çŁ³":4108,"çŁ¶":4109,"çŁ½":4110,"çŁ¾":4111,"çŁ¿":4112,"çłģ":4113,"çłĤ":4114,"çłĮ":4115,"çłį":4116,"çłĴ":4117,"çłĶ":4118,"çłĸ":4119,"çłĹ":4120,"çłļ":4121,"çłĿ":4122,"çł£":4123,"çł¥":4124,"çł§":4125,"çłŃ":4126,"çł°":4127,"çł²":4128,"çł´":4129,"çł·":4130,"çł¸":4131,"çłº":4132,"çł¼":4133,"çł¾":4134,"ç¡Ģ":4135,"ç¡ħ":4136,"ç¡Ĳ":4137,"ç¡Ĵ":4138,"ç¡ķ":4139,"ç¡Ŀ":4140,"ç¡«":4141,"ç¡¬":4142,"ç¡®":4143,"ç¡¼":4144,"ç¢ģ":4145,"ç¢ĩ":4146,"ç¢ī":4147,"ç¢Į":4148,"ç¢į":4149,"ç¢İ":4150,"ç¢ĳ":4151,"ç¢ĵ":4152,"ç¢Ĺ":4153,"ç¢ĺ":4154,"ç¢ļ":4155,"ç¢Ľ":4156,"ç¢Ł":4157,"ç¢£":4158,"ç¢§":4159,"ç¢°":4160,"ç¢±":4161,"ç¢³":4162,"ç¢´":4163,"ç¢¾":4164,"ç£ģ":4165,"ç£ħ":4166,"ç£Ĭ":4167,"ç£ĭ":4168,"ç£Ĳ":4169,"ç£ķ":4170,"ç£¡":4171,"ç£¨":4172,"ç£¬":4173,"ç£²":4174,"ç£·":4175,"ç£º":4176,"ç¤ģ":4177,"ç¤¡":4178,"ç¤´":4179,"ç¤º":4180,"ç¤¼":4181,"ç¤¾":4182,"ç¥Ģ":4183,"ç¥ģ":4184,"ç¥Ĥ":4185,"ç¥ĩ":4186,"ç¥Ī":4187,"ç¥ī":4188,"ç¥İ":4189,"ç¥Ĳ":4190,"ç¥ķ":4191,"ç¥ĸ":4192,"ç¥Ĺ":4193,"ç¥ļ":4194,"ç¥Ľ":4195,"ç¥ľ":4196,"ç¥Ŀ":4197,"ç¥ŀ":4198,"ç¥Ł":4199,"ç¥ł":4200,"ç¥¢":4201,"ç¥¥":4202,"ç¥¨":4203,"ç¥Ń":4204,"ç¥¯":4205,"ç¥·":4206,"ç¥¸":4207,"ç¥º":4208,"ç¦Ģ":4209,"ç¦ģ":4210,"ç¦Ħ":4211,"ç¦ħ":4212,"ç¦ı":4213,"ç¦Ľ":4214,"ç¦§":4215,"ç¦¹":4216,"ç¦º":4217,"ç¦»":4218,"ç¦½":4219,"ç¦¾":4220,"ç§Ģ":4221,"ç§ģ":4222,"ç§ĥ":4223,"ç§Ĩ":4224,"ç§ī":4225,"ç§ĭ":4226,"ç§į":4227,"ç§ĳ":4228,"ç§Ĵ":4229,"ç§ĺ":4230,"ç§Ł":4231,"ç§£":4232,"ç§¤":4233,"ç§¦":4234,"ç§§":4235,"ç§©":4236,"ç§Ń":4237,"ç§¯":4238,"ç§°":4239,"ç§¸":4240,"ç§»":4241,"ç§½":4242,"ç¨Ģ":4243,"ç¨ĭ":4244,"ç¨į":4245,"ç¨İ":4246,"ç¨Ķ":4247,"ç¨Ĺ":4248,"ç¨ļ":4249,"ç¨ľ":4250,"ç¨ŀ":4251,"ç¨ł":4252,"ç¨£":4253,"ç¨²":4254,"ç¨³":4255,"ç¨·":4256,"ç¨¹":4257,"ç¨»":4258,"ç¨¼":4259,"ç¨½":4260,"ç¨¿":4261,"ç©Ĥ":4262,"ç©Ĩ":4263,"ç©Ĺ":4264,"ç©´":4265,"ç©¶":4266,"ç©·":4267,"ç©¹":4268,"ç©º":4269,"ç©¿":4270,"çªģ":4271,"çªĥ":4272,"çªĦ":4273,"çªĪ":4274,"çªį":4275,"çªĳ":4276,"çªĴ":4277,"çªĵ":4278,"çªķ":4279,"çªĸ":4280,"çªĹ":4281,"çªĺ":4282,"çªľ":4283,"çªĿ":4284,"çªŁ":4285,"çªł":4286,"çª¥":4287,"çª¦":4288,"çª¨":4289,"çª¿":4290,"ç«ĭ":4291,"ç«ĸ":4292,"ç«Ļ":4293,"ç«ľ":4294,"ç«ŀ":4295,"ç«Ł":4296,"ç«ł":4297,"ç«£":4298,"ç«¥":4299,"ç«Ń":4300,"ç«¯":4301,"ç«¹":4302,"ç«º":4303,"ç«½":4304,"ç«¿":4305,"ç¬ĥ":4306,"ç¬Ĩ":4307,"ç¬Ī":4308,"ç¬ĭ":4309,"ç¬ı":4310,"ç¬ĳ":4311,"ç¬Ķ":4312,"ç¬Ļ":4313,"ç¬Ľ":4314,"ç¬ŀ":4315,"ç¬ł":4316,"ç¬¦":4317,"ç¬¨":4318,"ç¬¬":4319,"ç¬¹":4320,"ç¬º":4321,"ç¬¼":4322,"çŃī":4323,"çŃĬ":4324,"çŃĭ":4325,"çŃı":4326,"çŃĲ":4327,"çŃĳ":4328,"çŃĴ":4329,"çŃĶ":4330,"çŃĸ":4331,"çŃĽ":4332,"çŃĿ":4333,"çŃł":4334,"çŃ±":4335,"çŃ²":4336,"çŃµ":4337,"çŃ·":4338,"çŃ¹":4339,"çŃ¾":4340,"ç®Ģ":4341,"ç®ĩ":4342,"ç®į":4343,"ç®Ĳ":4344,"ç®Ķ":4345,"ç®ķ":4346,"ç®Ĺ":4347,"ç®Ŀ":4348,"ç®¡":4349,"ç®©":4350,"ç®«":4351,"ç®Ń":4352,"ç®±":4353,"ç®´":4354,"ç®¸":4355,"ç¯ģ":4356,"ç¯Ĩ":4357,"ç¯ĩ":4358,"ç¯ĳ":4359,"ç¯ĵ":4360,"ç¯Ļ":4361,"ç¯Ŀ":4362,"ç¯ł":4363,"ç¯¡":4364,"ç¯ª":4365,"ç¯®":4366,"ç¯±":4367,"ç¯·":4368,"ç°ĩ":4369,"ç°Į":4370,"ç°¦":4371,"ç°§":4372,"ç°ª":4373,"ç°·":4374,"ç°¸":4375,"ç°¿":4376,"ç±ģ":4377,"ç±į":4378,"ç±Ĳ":4379,"ç±¤":4380,"ç±³":4381,"ç±»":4382,"ç±¼":4383,"ç±½":4384,"ç²Ħ":4385,"ç²ī":4386,"ç²ĳ":4387,"ç²Ĵ":4388,"ç²ķ":4389,"ç²Ĺ":4390,"ç²ĺ":4391,"ç²Ł":4392,"ç²¤":4393,"ç²¥":4394,"ç²§":4395,"ç²ª":4396,"ç²®":4397,"ç²±":4398,"ç²²":4399,"ç²³":4400,"ç²¹":4401,"ç²¼":4402,"ç²½":4403,"ç²¾":4404,"ç²¿":4405,"ç³ħ":4406,"ç³Ĭ":4407,"ç³į":4408,"ç³ķ":4409,"ç³ĸ":4410,"ç³Ĺ":4411,"ç³Ļ":4412,"ç³ľ":4413,"ç³Ł":4414,"ç³ł":4415,"ç³¬":4416,"ç³¯":4417,"ç³¸":4418,"ç³»":4419,"ç´Ĭ":4420,"ç´ł":4421,"ç´¢":4422,"ç´§":4423,"ç´«":4424,"ç´®":4425,"ç´¯":4426,"çµĥ":4427,"çµĮ":4428,"çµ®":4429,"çµµ":4430,"ç¶ĳ":4431,"ç¶Ļ":4432,"ç¶ļ":4433,"ç¶¦":4434,"ç·ı":4435,"ç¸ģ":4436,"ç¸Ħ":4437,"ç¹ģ":4438,"ç¹ĩ":4439,"ç¹ĭ":4440,"çºĤ":4441,"çºł":4442,"çº¢":4443,"çº£":4444,"çº¤":4445,"çº¦":4446,"çº§":4447,"çº¨":4448,"çºª":4449,"çº«":4450,"çº¬":4451,"çºŃ":4452,"çº¯":4453,"çº°":4454,"çº±":4455,"çº²":4456,"çº³":4457,"çºµ":4458,"çº¶":4459,"çº·":4460,"çº¸":4461,"çº¹":4462,"çºº":4463,"çº½":4464,"çº¾":4465,"çº¿":4466,"ç»Ģ":4467,"ç»ĥ":4468,"ç»Ħ":4469,"ç»ħ":4470,"ç»Ĩ":4471,"ç»ĩ":4472,"ç»Ī":4473,"ç»Ĭ":4474,"ç»į":4475,"ç»İ":4476,"ç»ı":4477,"ç»ĳ":4478,"ç»Ĵ":4479,"ç»ĵ":4480,"ç»Ķ":4481,"ç»ķ":4482,"ç»ĺ":4483,"ç»Ļ":4484,"ç»ļ":4485,"ç»Ľ":4486,"ç»ľ":4487,"ç»Ŀ":4488,"ç»ŀ":4489,"ç»Ł":4490,"ç»¡":4491,"ç»¢":4492,"ç»£":4493,"ç»¥":4494,"ç»¦":4495,"ç»§":4496,"ç»©":4497,"ç»ª":4498,"ç»«":4499,"ç»Ń":4500,"ç»®":4501,"ç»¯":4502,"ç»°":4503,"ç»³":4504,"ç»´":4505,"ç»µ":4506,"ç»¶":4507,"ç»·":4508,"ç»¸":4509,"ç»»":4510,"ç»¼":4511,"ç»½":4512,"ç»¾":4513,"ç»¿":4514,"ç¼Ģ":4515,"ç¼Ħ":4516,"ç¼ħ":4517,"ç¼Ĩ":4518,"ç¼ĩ":4519,"ç¼Ī":4520,"ç¼ī":4521,"ç¼İ":4522,"ç¼ĵ":4523,"ç¼Ķ":4524,"ç¼ķ":4525,"ç¼ĸ":4526,"ç¼ĺ":4527,"ç¼Ļ":4528,"ç¼ļ":4529,"ç¼ľ":4530,"ç¼Ŀ":4531,"ç¼ł":4532,"ç¼¢":4533,"ç¼¤":4534,"ç¼¥":4535,"ç¼¨":4536,"ç¼©":4537,"ç¼ª":4538,"ç¼Ń":4539,"ç¼®":4540,"ç¼°":4541,"ç¼±":4542,"ç¼´":4543,"ç¼¸":4544,"ç¼º":4545,"ç½Ĥ":4546,"ç½Ħ":4547,"ç½Ĳ":4548,"ç½ĳ":4549,"ç½Ķ":4550,"ç½ķ":4551,"ç½Ĺ":4552,"ç½ļ":4553,"ç½¡":4554,"ç½¢":4555,"ç½©":4556,"ç½ª":4557,"ç½®":4558,"ç½²":4559,"ç½¹":4560,"ç¾ģ":4561,"ç¾Ĭ":4562,"ç¾Į":4563,"ç¾İ":4564,"ç¾Ķ":4565,"ç¾ļ":4566,"ç¾ŀ":4567,"ç¾Ł":4568,"ç¾¡":4569,"ç¾£":4570,"ç¾¤":4571,"ç¾§":4572,"ç¾¨":4573,"ç¾¯":4574,"ç¾²":4575,"ç¾¸":4576,"ç¾¹":4577,"ç¾½":4578,"ç¾¿":4579,"ç¿ģ":4580,"ç¿ħ":4581,"ç¿Ĭ":4582,"ç¿Į":4583,"ç¿İ":4584,"ç¿Ķ":4585,"ç¿ĺ":4586,"ç¿Ł":4587,"ç¿ł":4588,"ç¿¡":4589,"ç¿¦":4590,"ç¿©":4591,"ç¿°":4592,"ç¿±":4593,"ç¿³":4594,"ç¿»":4595,"ç¿¼":4596,"èĢĢ":4597,"èĢģ":4598,"èĢĥ":4599,"èĢĦ":4600,"èĢħ":4601,"èĢĨ":4602,"èĢĭ":4603,"èĢĮ":4604,"èĢį":4605,"èĢĲ":4606,"èĢĴ":4607,"èĢķ":4608,"èĢĹ":4609,"èĢĺ":4610,"èĢĻ":4611,"èĢ¦":4612,"èĢ¨":4613,"èĢ³":4614,"èĢ¶":4615,"èĢ·":4616,"èĢ¸":4617,"èĢ»":4618,"èĢ½":4619,"èĢ¿":4620,"èģĤ":4621,"èģĨ":4622,"èģĬ":4623,"èģĭ":4624,"èģĮ":4625,"èģĴ":4626,"èģĶ":4627,"èģĺ":4628,"èģļ":4629,"èģª":4630,"èģ´":4631,"èģ¿":4632,"èĤĥ":4633,"èĤĦ":4634,"èĤĨ":4635,"èĤĩ":4636,"èĤī":4637,"èĤĭ":4638,"èĤĮ":4639,"èĤı":4640,"èĤĵ":4641,"èĤĸ":4642,"èĤĺ":4643,"èĤļ":4644,"èĤĽ":4645,"èĤĿ":4646,"èĤł":4647,"èĤ¡":4648,"èĤ¢":4649,"èĤ¤":4650,"èĤ¥":4651,"èĤ©":4652,"èĤª":4653,"èĤ®":4654,"èĤ¯":4655,"èĤ±":4656,"èĤ²":4657,"èĤ´":4658,"èĤº":4659,"èĤ½":4660,"èĤ¾":4661,"èĤ¿":4662,"èĥĢ":4663,"èĥģ":4664,"èĥĥ":4665,"èĥĦ":4666,"èĥĨ":4667,"èĥĮ":4668,"èĥį":4669,"èĥİ":4670,"èĥĸ":4671,"èĥļ":4672,"èĥĽ":4673,"èĥľ":4674,"èĥĿ":4675,"èĥŀ":4676,"èĥ¡":4677,"èĥ¤":4678,"èĥ¥":4679,"èĥ§":4680,"èĥ«":4681,"èĥŃ":4682,"èĥ¯":4683,"èĥ°":4684,"èĥ±":4685,"èĥ³":4686,"èĥ´":4687,"èĥ¶":4688,"èĥ¸":4689,"èĥº":4690,"èĥ½":4691,"èĦĤ":4692,"èĦĨ":4693,"èĦĩ":4694,"èĦī":4695,"èĦĬ":4696,"èĦį":4697,"èĦı":4698,"èĦĲ":4699,"èĦĳ":4700,"èĦĵ":4701,"èĦĸ":4702,"èĦĺ":4703,"èĦļ":4704,"èĦ£":4705,"èĦ©":4706,"èĦ¯":4707,"èĦ±":4708,"èĦ²":4709,"èĦ³":4710,"èĦ¸":4711,"èĦ¾":4712,"èħĨ":4713,"èħĪ":4714,"èħĬ":4715,"èħĭ":4716,"èħĮ":4717,"èħĲ":4718,"èħĳ":4719,"èħĵ":4720,"èħĶ":4721,"èħķ":4722,"èħ¥":4723,"èħ©":4724,"èħŃ":4725,"èħ®":4726,"èħ°":4727,"èħ±":4728,"èħ´":4729,"èħ¹":4730,"èħº":4731,"èħ»":4732,"èħ¼":4733,"èħ¾":4734,"èħ¿":4735,"èĨĢ":4736,"èĨĪ":4737,"èĨĬ":4738,"èĨı":4739,"èĨĳ":4740,"èĨĺ":4741,"èĨĽ":4742,"èĨľ":4743,"èĨĿ":4744,"èĨ¦":4745,"èĨ¨":4746,"èĨ³":4747,"èĨº":4748,"èĨ»":4749,"èĩĢ":4750,"èĩĤ":4751,"èĩĥ":4752,"èĩĨ":4753,"èĩĬ":4754,"èĩĵ":4755,"èĩ£":4756,"èĩ§":4757,"èĩª":4758,"èĩ¬":4759,"èĩŃ":4760,"èĩ³":4761,"èĩ´":4762,"èĩ»":4763,"èĩ¼":4764,"èĩ¾":4765,"èĪĢ":4766,"èĪĤ":4767,"èĪħ":4768,"èĪĨ":4769,"èĪĮ":4770,"èĪį":4771,"èĪİ":4772,"èĪĲ":4773,"èĪĴ":4774,"èĪĶ":4775,"èĪĸ":4776,"èĪĹ":4777,"èĪĽ":4778,"èĪľ":4779,"èĪŀ":4780,"èĪŁ":4781,"èĪª":4782,"èĪ«":4783,"èĪ¬":4784,"èĪ°":4785,"èĪ±":4786,"èĪµ":4787,"èĪ¶":4788,"èĪ·":4789,"èĪ¸":4790,"èĪ¹":4791,"èĪº":4792,"èĪ¾":4793,"èīĩ":4794,"èīĭ":4795,"èīĺ":4796,"èī®":4797,"èī¯":4798,"èī°":4799,"èī²":4800,"èī³":4801,"èī¹":4802,"èīº":4803,"èī¾":4804,"èĬĤ":4805,"èĬĥ":4806,"èĬĪ":4807,"èĬĬ":4808,"èĬĭ":4809,"èĬį":4810,"èĬİ":4811,"èĬĴ":4812,"èĬĻ":4813,"èĬľ":4814,"èĬĿ":4815,"èĬ¡":4816,"èĬ¥":4817,"èĬ¦":4818,"èĬ©":4819,"èĬª":4820,"èĬ«":4821,"èĬ¬":4822,"èĬŃ":4823,"èĬ®":4824,"èĬ¯":4825,"èĬ±":4826,"èĬ³":4827,"èĬ·":4828,"èĬ¸":4829,"èĬ¹":4830,"èĬ½":4831,"èĬ¾":4832,"èĭģ":4833,"èĭĦ":4834,"èĭĩ":4835,"èĭĭ":4836,"èĭį":4837,"èĭı":4838,"èĭĳ":4839,"èĭĴ":4840,"èĭĵ":4841,"èĭĶ":4842,"èĭķ":4843,"èĭĹ":4844,"èĭĽ":4845,"èĭľ":4846,"èĭŀ":4847,"èĭŁ":4848,"èĭ¡":4849,"èĭ£":4850,"èĭ¥":4851,"èĭ¦":4852,"èĭ«":4853,"èĭ¯":4854,"èĭ±":4855,"èĭ·":4856,"èĭ¹":4857,"èĭ»":4858,"èĮģ":4859,"èĮĤ":4860,"èĮĥ":4861,"èĮĦ":4862,"èĮħ":4863,"èĮī":4864,"èĮİ":4865,"èĮı":4866,"èĮĹ":4867,"èĮľ":4868,"èĮ§":4869,"èĮ¨":4870,"èĮ«":4871,"èĮ¬":4872,"èĮŃ":4873,"èĮ¯":4874,"èĮ±":4875,"èĮ´":4876,"èĮµ":4877,"èĮ¶":4878,"èĮ¸":4879,"èĮ¹":4880,"èĮ¼":4881,"èįĢ":4882,"èįĥ":4883,"èįĨ":4884,"èįī":4885,"èįı":4886,"èįĲ":4887,"èįĴ":4888,"èįĶ":4889,"èįĸ":4890,"èįĺ":4891,"èįļ":4892,"èįŀ":4893,"èįŁ":4894,"èįł":4895,"èį¡":4896,"èį£":4897,"èį¤":4898,"èį¥":4899,"èį§":4900,"èį¨":4901,"èįª":4902,"èį«":4903,"èį¯":4904,"èį³":4905,"èį·":4906,"èį¸":4907,"èį»":4908,"èį¼":4909,"èį½":4910,"èİħ":4911,"èİĨ":4912,"èİī":4913,"èİİ":4914,"èİĴ":4915,"èİĵ":4916,"èİĺ":4917,"èİŀ":4918,"èİł":4919,"èİª":4920,"èİ«":4921,"èİ±":4922,"èİ²":4923,"èİ´":4924,"èİ·":4925,"èİ¹":4926,"èİº":4927,"èİ½":4928,"èİ¿":4929,"èıĢ":4930,"èıģ":4931,"èıħ":4932,"èıĩ":4933,"èıĪ":4934,"èıĬ":4935,"èıĮ":4936,"èıı":4937,"èıĵ":4938,"èıĸ":4939,"èıĺ":4940,"èıľ":4941,"èıŁ":4942,"èıł":4943,"èı¡":4944,"èı©":4945,"èı±":4946,"èı²":4947,"èı¸":4948,"èı½":4949,"èĲģ":4950,"èĲĥ":4951,"èĲĦ":4952,"èĲĭ":4953,"èĲĮ":4954,"èĲį":4955,"èĲİ":4956,"èĲĺ":4957,"èĲĿ":4958,"èĲ¤":4959,"èĲ¥":4960,"èĲ¦":4961,"èĲ§":4962,"èĲ¨":4963,"èĲ©":4964,"èĲ±":4965,"èĲ¸":4966,"èĲ¼":4967,"èĲ½":4968,"èĳĨ":4969,"èĳļ":4970,"èĳĽ":4971,"èĳ¡":4972,"èĳ£":4973,"èĳ©":4974,"èĳ«":4975,"èĳ¬":4976,"èĳŃ":4977,"èĳ±":4978,"èĳ³":4979,"èĳµ":4980,"èĳº":4981,"èĴĤ":4982,"èĴĭ":4983,"èĴĲ":4984,"èĴĻ":4985,"èĴľ":4986,"èĴŁ":4987,"èĴ¡":4988,"èĴ¨":4989,"èĴ²":4990,"èĴ¸":4991,"èĴ¹":4992,"èĴ»":4993,"èĴ¿":4994,"èĵģ":4995,"èĵĦ":4996,"èĵĨ":4997,"èĵī":4998,"èĵĳ":4999,"èĵĵ":5000,"èĵĸ":5001,"èĵĿ":5002,"èĵŁ":5003,"èĵ¦":5004,"èĵ¬":5005,"èĵ¼":5006,"èĵ¿":5007,"èĶĳ":5008,"èĶĵ":5009,"èĶĹ":5010,"èĶĺ":5011,"èĶļ":5012,"èĶ¡":5013,"èĶ«":5014,"èĶ¬":5015,"èĶµ":5016,"èĶ·":5017,"èĶº":5018,"èĶ»":5019,"èĶ¼":5020,"èĶ½":5021,"èķĥ":5022,"èķĪ":5023,"èķī":5024,"èķĬ":5025,"èķĻ":5026,"èķ¤":5027,"èķ¨":5028,"èķ²":5029,"èķ´":5030,"èķ»":5031,"èķ¾":5032,"èĸĦ":5033,"èĸħ":5034,"èĸĩ":5035,"èĸı":5036,"èĸĳ":5037,"èĸĻ":5038,"èĸĽ":5039,"èĸ¨":5040,"èĸª":5041,"èĸ¬":5042,"èĸ¯":5043,"èĸ°":5044,"èĸ¹":5045,"èĹı":5046,"èĹĲ":5047,"èĹĵ":5048,"èĹķ":5049,"èĹľ":5050,"èĹ¤":5051,"èĹ©":5052,"èĹ»":5053,"èĹ¿":5054,"èĺĳ":5055,"èĺ¸":5056,"èĺ¼":5057,"èĻİ":5058,"èĻı":5059,"èĻĲ":5060,"èĻĳ":5061,"èĻĶ":5062,"èĻļ":5063,"èĻŀ":5064,"èĻ¢":5065,"èĻ«":5066,"èĻ¬":5067,"èĻ±":5068,"èĻ¹":5069,"èĻ»":5070,"èĻ½":5071,"èĻ¾":5072,"èļĢ":5073,"èļģ":5074,"èļĤ":5075,"èļĬ":5076,"èļĮ":5077,"èļĵ":5078,"èļķ":5079,"èļľ":5080,"èļĿ":5081,"èļ£":5082,"èļ¤":5083,"èļ©":5084,"èļª":5085,"èļ¯":5086,"èļ±":5087,"èļµ":5088,"èĽĢ":5089,"èĽĨ":5090,"èĽĩ":5091,"èĽĬ":5092,"èĽĭ":5093,"èĽİ":5094,"èĽĲ":5095,"èĽĶ":5096,"èĽĻ":5097,"èĽĽ":5098,"èĽŁ":5099,"èĽ¤":5100,"èĽŃ":5101,"èĽ®":5102,"èĽ°":5103,"èĽ³":5104,"èĽ¹":5105,"èĽ¾":5106,"èľĢ":5107,"èľĤ":5108,"èľĥ":5109,"èľĩ":5110,"èľĪ":5111,"èľĬ":5112,"èľį":5113,"èľĴ":5114,"èľĵ":5115,"èľķ":5116,"èľĹ":5117,"èľĺ":5118,"èľļ":5119,"èľľ":5120,"èľ¡":5121,"èľ¢":5122,"èľ¥":5123,"èľ±":5124,"èľ´":5125,"èľ·":5126,"èľ»":5127,"èľ¿":5128,"èĿĩ":5129,"èĿĪ":5130,"èĿī":5131,"èĿĮ":5132,"èĿİ":5133,"èĿĹ":5134,"èĿĻ":5135,"èĿł":5136,"èĿ¨":5137,"èĿ´":5138,"èĿ¶":5139,"èĿ¼":5140,"èŀĤ":5141,"èŀĥ":5142,"èŀį":5143,"èŀ¨":5144,"èŀ¯":5145,"èŀ³":5146,"èŀº":5147,"èŁĢ":5148,"èŁĨ":5149,"èŁĭ":5150,"èŁĳ":5151,"èŁĴ":5152,"èŁł":5153,"èŁ¹":5154,"èŁ¾":5155,"èłį":5156,"èłĶ":5157,"èłķ":5158,"èłĽ":5159,"èł¡":5160,"èł¢":5161,"èł¹":5162,"è¡Ģ":5163,"è¡Ħ":5164,"è¡ħ":5165,"è¡Į":5166,"è¡į":5167,"è¡Ķ":5168,"è¡Ĺ":5169,"è¡Ļ":5170,"è¡ŀ":5171,"è¡¡":5172,"è¡¢":5173,"è¡£":5174,"è¡¥":5175,"è¡¨":5176,"è¡©":5177,"è¡«":5178,"è¡¬":5179,"è¡®":5180,"è¡°":5181,"è¡²":5182,"è¡·":5183,"è¡¾":5184,"è¡¿":5185,"è¢ģ":5186,"è¢Ĥ":5187,"è¢Ħ":5188,"è¢ħ":5189,"è¢Ī":5190,"è¢ĭ":5191,"è¢į":5192,"è¢Ĵ":5193,"è¢ĸ":5194,"è¢ľ":5195,"è¢¤":5196,"è¢ª":5197,"è¢«":5198,"è¢Ń":5199,"è¢±":5200,"è£ģ":5201,"è£Ĥ":5202,"è£ħ":5203,"è£Ĩ":5204,"è£Ķ":5205,"è£ķ":5206,"è£ĺ":5207,"è£Ļ":5208,"è£Ł":5209,"è£¤":5210,"è£¨":5211,"è£±":5212,"è£³":5213,"è£´":5214,"è£¸":5215,"è£¹":5216,"è£¾":5217,"è¤Ĥ":5218,"è¤Ĳ":5219,"è¤Ĵ":5220,"è¤ĵ":5221,"è¤Ķ":5222,"è¤ļ":5223,"è¤¥":5224,"è¤ª":5225,"è¤«":5226,"è¤¶":5227,"è¥ģ":5228,"è¥Ħ":5229,"è¥Ł":5230,"è¥¿":5231,"è¦ģ":5232,"è¦ĥ":5233,"è¦ĩ":5234,"è¦ļ":5235,"è¦§":5236,"è¦³":5237,"è§ģ":5238,"è§Ĥ":5239,"è§Ħ":5240,"è§ħ":5241,"è§Ĩ":5242,"è§Ī":5243,"è§ī":5244,"è§Ĭ":5245,"è§İ":5246,"è§Ĳ":5247,"è§ĳ":5248,"è§Ĵ":5249,"è§ŀ":5250,"è§£":5251,"è§¥":5252,"è§¦":5253,"è¨Ģ":5254,"è¨³":5255,"è¨¼":5256,"è©¹":5257,"èªī":5258,"èªĵ":5259,"èªŃ":5260,"è«¡":5261,"èŃģ":5262,"èŃ¦":5263,"èŃ¬":5264,"èŃ²":5265,"è®ļ":5266,"è®¡":5267,"è®¢":5268,"è®¤":5269,"è®¥":5270,"è®§":5271,"è®¨":5272,"è®©":5273,"è®ª":5274,"è®«":5275,"è®Ń":5276,"è®®":5277,"è®¯":5278,"è®°":5279,"è®²":5280,"è®³":5281,"è®´":5282,"è®¶":5283,"è®·":5284,"è®¸":5285,"è®¹":5286,"è®º":5287,"è®¼":5288,"è®½":5289,"è®¾":5290,"è®¿":5291,"è¯Ģ":5292,"è¯ģ":5293,"è¯ĥ":5294,"è¯Ħ":5295,"è¯ħ":5296,"è¯Ĩ":5297,"è¯Ī":5298,"è¯ī":5299,"è¯Ĭ":5300,"è¯ĭ":5301,"è¯į":5302,"è¯ı":5303,"è¯ĳ":5304,"è¯ķ":5305,"è¯Ĺ":5306,"è¯ĺ":5307,"è¯Ļ":5308,"è¯ļ":5309,"è¯Ľ":5310,"è¯Ŀ":5311,"è¯ŀ":5312,"è¯Ł":5313,"è¯ł":5314,"è¯¡":5315,"è¯¢":5316,"è¯£":5317,"è¯¤":5318,"è¯¥":5319,"è¯¦":5320,"è¯§":5321,"è¯©":5322,"è¯«":5323,"è¯¬":5324,"è¯Ń":5325,"è¯¯":5326,"è¯°":5327,"è¯±":5328,"è¯²":5329,"è¯´":5330,"è¯µ":5331,"è¯¶":5332,"è¯·":5333,"è¯¸":5334,"è¯º":5335,"è¯»":5336,"è¯½":5337,"è¯¾":5338,"è¯¿":5339,"è°Ģ":5340,"è°ģ":5341,"è°ĥ":5342,"è°Ħ":5343,"è°ħ":5344,"è°Ĩ":5345,"è°Ī":5346,"è°Ĭ":5347,"è°ĭ":5348,"è°Į":5349,"è°į":5350,"è°İ":5351,"è°ı":5352,"è°Ĳ":5353,"è°ĳ":5354,"è°Ĵ":5355,"è°ĵ":5356,"è°Ķ":5357,"è°ķ":5358,"è°Ĺ":5359,"è°ĺ":5360,"è°Ļ":5361,"è°ļ":5362,"è°Ľ":5363,"è°ľ":5364,"è°Ł":5365,"è°¢":5366,"è°£":5367,"è°¤":5368,"è°¥":5369,"è°¦":5370,"è°§":5371,"è°¨":5372,"è°©":5373,"è°ª":5374,"è°¬":5375,"è°Ń":5376,"è°¯":5377,"è°±":5378,"è°²":5379,"è°´":5380,"è°¶":5381,"è°·":5382,"è±ģ":5383,"è±Ĩ":5384,"è±ĩ":5385,"è±ī":5386,"è±Ĭ":5387,"è±Į":5388,"è±Ķ":5389,"è±ļ":5390,"è±¡":5391,"è±¢":5392,"è±ª":5393,"è±«":5394,"è±¹":5395,"è±º":5396,"è²Ĥ":5397,"è²ħ":5398,"è²Į":5399,"è²Ķ":5400,"è²ĺ":5401,"è´Ŀ":5402,"è´ŀ":5403,"è´Ł":5404,"è´¡":5405,"è´¢":5406,"è´£":5407,"è´¤":5408,"è´¥":5409,"è´¦":5410,"è´§":5411,"è´¨":5412,"è´©":5413,"è´ª":5414,"è´«":5415,"è´¬":5416,"è´Ń":5417,"è´®":5418,"è´¯":5419,"è´°":5420,"è´±":5421,"è´²":5422,"è´´":5423,"è´µ":5424,"è´·":5425,"è´¸":5426,"è´¹":5427,"è´º":5428,"è´»":5429,"è´¼":5430,"è´¾":5431,"è´¿":5432,"èµģ":5433,"èµĤ":5434,"èµĥ":5435,"èµĦ":5436,"èµħ":5437,"èµĪ":5438,"èµĬ":5439,"èµĭ":5440,"èµĮ":5441,"èµİ":5442,"èµı":5443,"èµĲ":5444,"èµĵ":5445,"èµĶ":5446,"èµĸ":5447,"èµĺ":5448,"èµļ":5449,"èµĽ":5450,"èµĿ":5451,"èµŀ":5452,"èµł":5453,"èµ¡":5454,"èµ¢":5455,"èµ£":5456,"èµ¤":5457,"èµ¦":5458,"èµ§":5459,"èµ«":5460,"èµŃ":5461,"èµ°":5462,"èµ³":5463,"èµ´":5464,"èµµ":5465,"èµ¶":5466,"èµ·":5467,"è¶ģ":5468,"è¶ħ":5469,"è¶Ĭ":5470,"è¶ĭ":5471,"è¶Ł":5472,"è¶£":5473,"è¶³":5474,"è¶´":5475,"è¶µ":5476,"è¶¸":5477,"è¶º":5478,"è¶¾":5479,"è·ĥ":5480,"è·Ħ":5481,"è·Ĩ":5482,"è·ĭ":5483,"è·Į":5484,"è·İ":5485,"è·ĳ":5486,"è·ĸ":5487,"è·ļ":5488,"è·Ľ":5489,"è·Ŀ":5490,"è·Ł":5491,"è·¤":5492,"è·¨":5493,"è·©":5494,"è·ª":5495,"è·¯":5496,"è·³":5497,"è·µ":5498,"è··":5499,"è·¹":5500,"è·º":5501,"è·»":5502,"è¸ī":5503,"è¸Ĭ":5504,"è¸Į":5505,"è¸ı":5506,"è¸Ŀ":5507,"è¸ŀ":5508,"è¸Ł":5509,"è¸¢":5510,"è¸©":5511,"è¸ª":5512,"è¸®":5513,"è¸±":5514,"è¸µ":5515,"è¸¹":5516,"è¹Ĥ":5517,"è¹Ħ":5518,"è¹ĩ":5519,"è¹Ī":5520,"è¹ī":5521,"è¹Ĭ":5522,"è¹ĭ":5523,"è¹ĳ":5524,"è¹Ĵ":5525,"è¹Ļ":5526,"è¹Ł":5527,"è¹¦":5528,"è¹©":5529,"è¹¬":5530,"è¹Ń":5531,"è¹²":5532,"è¹´":5533,"è¹¶":5534,"è¹¼":5535,"è¹¿":5536,"èºģ":5537,"èºĩ":5538,"èºı":5539,"èº«":5540,"èº¬":5541,"èº¯":5542,"èº²":5543,"èºº":5544,"è»¢":5545,"è»½":5546,"è½¦":5547,"è½§":5548,"è½¨":5549,"è½©":5550,"è½¬":5551,"è½Ń":5552,"è½®":5553,"è½¯":5554,"è½°":5555,"è½²":5556,"è½´":5557,"è½¶":5558,"è½»":5559,"è½¼":5560,"è½½":5561,"è½¿":5562,"è¾ĥ":5563,"è¾Ħ":5564,"è¾ħ":5565,"è¾Ĩ":5566,"è¾ĩ":5567,"è¾Ī":5568,"è¾ī":5569,"è¾Ĭ":5570,"è¾į":5571,"è¾Ĳ":5572,"è¾ĳ":5573,"è¾ĵ":5574,"è¾ķ":5575,"è¾ĸ":5576,"è¾Ĺ":5577,"è¾ĺ":5578,"è¾Ļ":5579,"è¾Ľ":5580,"è¾ľ":5581,"è¾ŀ":5582,"è¾Ł":5583,"è¾£":5584,"è¾¨":5585,"è¾©":5586,"è¾«":5587,"è¾°":5588,"è¾±":5589,"è¾¹":5590,"è¾º":5591,"è¾»":5592,"è¾¼":5593,"è¾½":5594,"è¾¾":5595,"è¿ģ":5596,"è¿Ĥ":5597,"è¿Ħ":5598,"è¿ħ":5599,"è¿ĩ":5600,"è¿Ī":5601,"è¿İ":5602,"è¿Ĳ":5603,"è¿ĳ":5604,"è¿Ķ":5605,"è¿ĺ":5606,"è¿Ļ":5607,"è¿Ľ":5608,"è¿ľ":5609,"è¿Ŀ":5610,"è¿ŀ":5611,"è¿Ł":5612,"è¿¢":5613,"è¿¤":5614,"è¿¥":5615,"è¿¦":5616,"è¿©":5617,"è¿ª":5618,"è¿«":5619,"è¿Ń":5620,"è¿°":5621,"è¿·":5622,"è¿¸":5623,"è¿¹":5624,"è¿º":5625,"è¿½":5626,"éĢĢ":5627,"éĢģ":5628,"éĢĤ":5629,"éĢĥ":5630,"éĢħ":5631,"éĢĨ":5632,"éĢī":5633,"éĢĬ":5634,"éĢį":5635,"éĢı":5636,"éĢĲ":5637,"éĢĴ":5638,"éĢĶ":5639,"éĢĹ":5640,"éĢļ":5641,"éĢĽ":5642,"éĢĿ":5643,"éĢŀ":5644,"éĢŁ":5645,"éĢł":5646,"éĢ¢":5647,"éĢ®":5648,"éĢµ":5649,"éĢ¶":5650,"éĢ¸":5651,"éĢ»":5652,"éĢ¼":5653,"éĢ¾":5654,"éģģ":5655,"éģĤ":5656,"éģħ":5657,"éģĩ":5658,"éģį":5659,"éģı":5660,"éģĲ":5661,"éģĳ":5662,"éģĴ":5663,"éģĵ":5664,"éģĹ":5665,"éģĽ":5666,"éģ¢":5667,"éģ£":5668,"éģ¥":5669,"éģ¨":5670,"éģŃ":5671,"éģ®":5672,"éģ´":5673,"éģµ":5674,"éģ¶":5675,"éģ½":5676,"éģ¿":5677,"éĤĢ":5678,"éĤĤ":5679,"éĤĥ":5680,"éĤĪ":5681,"éĤĭ":5682,"éĤĳ":5683,"éĤĵ":5684,"éĤķ":5685,"éĤĽ":5686,"éĤĿ":5687,"éĤ¢":5688,"éĤ£":5689,"éĤ¦":5690,"éĤ¨":5691,"éĤª":5692,"éĤ¬":5693,"éĤ®":5694,"éĤ¯":5695,"éĤ°":5696,"éĤ±":5697,"éĤ³":5698,"éĤµ":5699,"éĤ¸":5700,"éĤ¹":5701,"éĤº":5702,"éĤ»":5703,"éĥģ":5704,"éĥħ":5705,"éĥĬ":5706,"éĥİ":5707,"éĥĳ":5708,"éĥľ":5709,"éĥĿ":5710,"éĥ¡":5711,"éĥ¢":5712,"éĥ¤":5713,"éĥ¦":5714,"éĥ§":5715,"éĥ¨":5716,"éĥ«":5717,"éĥŃ":5718,"éĥ´":5719,"éĥ·":5720,"éĥ¸":5721,"éĥ½":5722,"éĦĤ":5723,"éĦĻ":5724,"éĦŀ":5725,"éĦ¢":5726,"éĦ±":5727,"éħī":5728,"éħĬ":5729,"éħĭ":5730,"éħĮ":5731,"éħį":5732,"éħĲ":5733,"éħĴ":5734,"éħĹ":5735,"éħļ":5736,"éħĿ":5737,"éħ¢":5738,"éħ£":5739,"éħ¥":5740,"éħ©":5741,"éħª":5742,"éħ¬":5743,"éħ®":5744,"éħ¯":5745,"éħ°":5746,"éħ±":5747,"éħµ":5748,"éħ¶":5749,"éħ·":5750,"éħ¸":5751,"éħ¿":5752,"éĨĥ":5753,"éĨĩ":5754,"éĨī":5755,"éĨĭ":5756,"éĨį":5757,"éĨĲ":5758,"éĨĴ":5759,"éĨļ":5760,"éĨĽ":5761,"éĨ£":5762,"éĨª":5763,"éĨ®":5764,"éĨ¯":5765,"éĨ´":5766,"éĨº":5767,"éĩĩ":5768,"éĩī":5769,"éĩĬ":5770,"éĩĮ":5771,"éĩį":5772,"éĩİ":5773,"éĩı":5774,"éĩĳ":5775,"éĩľ":5776,"éĩ¦":5777,"éĪª":5778,"éīĦ":5779,"éī´":5780,"éĬŃ":5781,"éĬ®":5782,"éįĬ":5783,"éİĮ":5784,"éİı":5785,"éİĹ":5786,"éıĸ":5787,"éĳĳ":5788,"éĳ«":5789,"éĴĪ":5790,"éĴī":5791,"éĴĬ":5792,"éĴİ":5793,"éĴı":5794,"éĴĴ":5795,"éĴĵ":5796,"éĴĹ":5797,"éĴĻ":5798,"éĴĽ":5799,"éĴľ":5800,"éĴĿ":5801,"éĴŀ":5802,"éĴŁ":5803,"éĴł":5804,"éĴ¡":5805,"éĴ¢":5806,"éĴ£":5807,"éĴ¤":5808,"éĴ¥":5809,"éĴ¦":5810,"éĴ§":5811,"éĴ¨":5812,"éĴ©":5813,"éĴ®":5814,"éĴ¯":5815,"éĴ°":5816,"éĴ±":5817,"éĴ³":5818,"éĴ´":5819,"éĴµ":5820,"éĴº":5821,"éĴ»":5822,"éĴ¼":5823,"éĴ¾":5824,"éĴ¿":5825,"éĵĢ":5826,"éĵģ":5827,"éĵĤ":5828,"éĵĥ":5829,"éĵĦ":5830,"éĵħ":5831,"éĵĨ":5832,"éĵī":5833,"éĵİ":5834,"éĵĲ":5835,"éĵĽ":5836,"éĵľ":5837,"éĵĿ":5838,"éĵł":5839,"éĵ¡":5840,"éĵ¢":5841,"éĵ£":5842,"éĵ¤":5843,"éĵ¨":5844,"éĵ©":5845,"éĵ¬":5846,"éĵŃ":5847,"éĵ®":5848,"éĵ°":5849,"éĵ²":5850,"éĵµ":5851,"éĵ¶":5852,"éĵ¸":5853,"éĵº":5854,"éĵ¾":5855,"éĵ¿":5856,"éĶĢ":5857,"éĶģ":5858,"éĶĤ":5859,"éĶĦ":5860,"éĶħ":5861,"éĶĨ":5862,"éĶĪ":5863,"éĶī":5864,"éĶĭ":5865,"éĶĮ":5866,"éĶı":5867,"éĶĲ":5868,"éĶĳ":5869,"éĶĻ":5870,"éĶļ":5871,"éĶŁ":5872,"éĶ¡":5873,"éĶ¢":5874,"éĶ£":5875,"éĶ¤":5876,"éĶ¥":5877,"éĶ¦":5878,"éĶŃ":5879,"éĶ®":5880,"éĶ¯":5881,"éĶ°":5882,"éĶ²":5883,"éĶµ":5884,"éĶ¹":5885,"éĶº":5886,"éĶ»":5887,"éķĢ":5888,"éķģ":5889,"éķĤ":5890,"éķĩ":5891,"éķī":5892,"éķĮ":5893,"éķį":5894,"éķĲ":5895,"éķĳ":5896,"éķķ":5897,"éķĸ":5898,"éķĹ":5899,"éķĽ":5900,"éķľ":5901,"éķ£":5902,"éķŃ":5903,"éķ¯":5904,"éķ°":5905,"éķ³":5906,"éķ¶":5907,"éķ¿":5908,"éĸĴ":5909,"éĸ¢":5910,"éĹĩ":5911,"éĹĺ":5912,"éĹ¢":5913,"éĹ¨":5914,"éĹª":5915,"éĹ«":5916,"éĹŃ":5917,"éĹ®":5918,"éĹ¯":5919,"éĹ°":5920,"éĹ²":5921,"éĹ´":5922,"éĹµ":5923,"éĹ·":5924,"éĹ¸":5925,"éĹ¹":5926,"éĹº":5927,"éĹ»":5928,"éĹ½":5929,"éĹ¾":5930,"éĺĢ":5931,"éĺģ":5932,"éĺĤ":5933,"éĺħ":5934,"éĺĨ":5935,"éĺĩ":5936,"éĺĪ":5937,"éĺī":5938,"éĺİ":5939,"éĺĲ":5940,"éĺĳ":5941,"éĺĶ":5942,"éĺķ":5943,"éĺĸ":5944,"éĺĻ":5945,"éĺļ":5946,"éĺľ":5947,"éĺŁ":5948,"éĺ¡":5949,"éĺ®":5950,"éĺ±":5951,"éĺ²":5952,"éĺ³":5953,"éĺ´":5954,"éĺµ":5955,"éĺ¶":5956,"éĺ»":5957,"éĺ¿":5958,"éĻĢ":5959,"éĻĤ":5960,"éĻĦ":5961,"éĻħ":5962,"éĻĨ":5963,"éĻĩ":5964,"éĻĪ":5965,"éĻĭ":5966,"éĻĮ":5967,"éĻį":5968,"éĻĲ":5969,"éĻķ":5970,"éĻĽ":5971,"éĻŀ":5972,"éĻŁ":5973,"éĻ¡":5974,"éĻ¢":5975,"éĻ¤":5976,"éĻ¨":5977,"éĻ©":5978,"éĻª":5979,"éĻ²":5980,"éĻµ":5981,"éĻ¶":5982,"éĻ·":5983,"éĻº":5984,"éļħ":5985,"éļĨ":5986,"éļĪ":5987,"éļĭ":5988,"éļį":5989,"éļı":5990,"éļĲ":5991,"éļĶ":5992,"éļĺ":5993,"éļĻ":5994,"éļľ":5995,"éļł":5996,"éļ£":5997,"éļ§":5998,"éļ¶":5999,"éļ¼":6000,"éļ½":6001,"éļ¾":6002,"éĽĢ":6003,"éĽģ":6004,"éĽĦ":6005,"éĽħ":6006,"éĽĨ":6007,"éĽĩ":6008,"éĽī":6009,"éĽĮ":6010,"éĽį":6011,"éĽİ":6012,"éĽı":6013,"éĽĳ":6014,"éĽĴ":6015,"éĽķ":6016,"éĽ¨":6017,"éĽª":6018,"éĽ¯":6019,"éĽ°":6020,"éĽ³":6021,"éĽ¶":6022,"éĽ·":6023,"éĽ¹":6024,"éĽ¾":6025,"éľĢ":6026,"éľģ":6027,"éľĦ":6028,"éľĨ":6029,"éľĩ":6030,"éľĪ":6031,"éľī":6032,"éľĬ":6033,"éľį":6034,"éľİ":6035,"éľı":6036,"éľĳ":6037,"éľĵ":6038,"éľĸ":6039,"éľľ":6040,"éľŀ":6041,"éľŃ":6042,"éľ°":6043,"éľ²":6044,"éľ¸":6045,"éľ¹":6046,"éľ¾":6047,"éĿĴ":6048,"éĿĵ":6049,"éĿĸ":6050,"éĿĻ":6051,"éĿĽ":6052,"éĿŀ":6053,"éĿł":6054,"éĿ¡":6055,"éĿ¢":6056,"éĿ¥":6057,"éĿ©":6058,"éĿ³":6059,"éĿ´":6060,"éĿ¶":6061,"éĿ¼":6062,"éŀħ":6063,"éŀĭ":6064,"éŀį":6065,"éŀĳ":6066,"éŀĺ":6067,"éŀł":6068,"éŀ£":6069,"éŀŃ":6070,"éŁ¦":6071,"éŁ§":6072,"éŁ©":6073,"éŁ¬":6074,"éŁŃ":6075,"éŁ³":6076,"éŁµ":6077,"éŁ¶":6078,"éł«":6079,"éł¼":6080,"é¡µ":6081,"é¡¶":6082,"é¡·":6083,"é¡¹":6084,"é¡º":6085,"é¡»":6086,"é¡¼":6087,"é¡½":6088,"é¡¾":6089,"é¡¿":6090,"é¢ģ":6091,"é¢Ĥ":6092,"é¢Ħ":6093,"é¢ħ":6094,"é¢Ĩ":6095,"é¢ĩ":6096,"é¢Ī":6097,"é¢ī":6098,"é¢Ĭ":6099,"é¢Į":6100,"é¢į":6101,"é¢Ĳ":6102,"é¢ĳ":6103,"é¢ĵ":6104,"é¢Ķ":6105,"é¢ĸ":6106,"é¢Ĺ":6107,"é¢ĺ":6108,"é¢ļ":6109,"é¢Ľ":6110,"é¢ľ":6111,"é¢Ŀ":6112,"é¢ŀ":6113,"é¢ł":6114,"é¢¡":6115,"é¢¢":6116,"é¢¤":6117,"é¢¦":6118,"é¢§":6119,"é£İ":6120,"é£Ĵ":6121,"é£ĵ":6122,"é£ķ":6123,"é£ĺ":6124,"é£Ļ":6125,"é£ļ":6126,"é£ŀ":6127,"é£Ł":6128,"é£¨":6129,"é¤Ĳ":6130,"é¤®":6131,"é¤µ":6132,"é¥į":6133,"é¥ķ":6134,"é¥¥":6135,"é¥¨":6136,"é¥ª":6137,"é¥¬":6138,"é¥Ń":6139,"é¥®":6140,"é¥¯":6141,"é¥°":6142,"é¥±":6143,"é¥²":6144,"é¥´":6145,"é¥µ":6146,"é¥¶":6147,"é¥·":6148,"é¥º":6149,"é¥¼":6150,"é¥½":6151,"é¥¿":6152,"é¦Ģ":6153,"é¦ģ":6154,"é¦Ħ":6155,"é¦ħ":6156,"é¦Ĩ":6157,"é¦Ī":6158,"é¦ĭ":6159,"é¦į":6160,"é¦ı":6161,"é¦Ĵ":6162,"é¦Ķ":6163,"é¦ĸ":6164,"é¦Ĺ":6165,"é¦Ļ":6166,"é¦¥":6167,"é¦¨":6168,"é§Ħ":6169,"é§ħ":6170,"é§Ĩ":6171,"é¨ĵ":6172,"é¨¨":6173,"é©Ĵ":6174,"é©¬":6175,"é©Ń":6176,"é©®":6177,"é©¯":6178,"é©°":6179,"é©±":6180,"é©³":6181,"é©´":6182,"é©¶":6183,"é©·":6184,"é©¸":6185,"é©¹":6186,"é©»":6187,"é©¼":6188,"é©¾":6189,"é©¿":6190,"éªģ":6191,"éªĤ":6192,"éªĦ":6193,"éªħ":6194,"éªĨ":6195,"éªĩ":6196,"éªĪ":6197,"éªĬ":6198,"éªĭ":6199,"éªĮ":6200,"éªı":6201,"éªĲ":6202,"éªĳ":6203,"éªĹ":6204,"éªļ":6205,"éªĽ":6206,"éªľ":6207,"éªŀ":6208,"éªł":6209,"éª¡":6210,"éª¤":6211,"éª¥":6212,"éª§":6213,"éª¨":6214,"éª°":6215,"éª¶":6216,"éª·":6217,"éª¸":6218,"éª¼":6219,"é«Ĥ":6220,"é«ħ":6221,"é«ĭ":6222,"é«ĵ":6223,"é«ĺ":6224,"é«¦":6225,"é«ª":6226,"é«¯":6227,"é«»":6228,"é¬ĥ":6229,"é¬ĵ":6230,"é¬Ł":6231,"é¬£":6232,"é¬¼":6233,"éŃģ":6234,"éŃĤ":6235,"éŃĦ":6236,"éŃħ":6237,"éŃĩ":6238,"éŃį":6239,"éŃı":6240,"éŃĶ":6241,"é®¨":6242,"é±¼":6243,"é±¿":6244,"é²ģ":6245,"é²Ī":6246,"é²į":6247,"é²ĳ":6248,"é²Ľ":6249,"é²ľ":6250,"é²Ł":6251,"é²¢":6252,"é²¤":6253,"é²¨":6254,"é²«":6255,"é²±":6256,"é²²":6257,"é²¶":6258,"é²·":6259,"é²¸":6260,"é³ĥ":6261,"é³Ħ":6262,"é³ħ":6263,"é³Į":6264,"é³į":6265,"é³ķ":6266,"é³ĸ":6267,"é³Ĺ":6268,"é³Ŀ":6269,"é³ŀ":6270,"éµ°":6271,"é¸Ł":6272,"é¸ł":6273,"é¸¡":6274,"é¸¢":6275,"é¸£":6276,"é¸¥":6277,"é¸¦":6278,"é¸¨":6279,"é¸ª":6280,"é¸Ń":6281,"é¸¯":6282,"é¸³":6283,"é¸µ":6284,"é¸½":6285,"é¸¾":6286,"é¸¿":6287,"é¹Ĥ":6288,"é¹ĥ":6289,"é¹Ħ":6290,"é¹ħ":6291,"é¹Ī":6292,"é¹ī":6293,"é¹Ĭ":6294,"é¹Į":6295,"é¹ı":6296,"é¹ĳ":6297,"é¹ķ":6298,"é¹ĺ":6299,"é¹ľ":6300,"é¹ŀ":6301,"é¹¤":6302,"é¹¦":6303,"é¹§":6304,"é¹«":6305,"é¹Ń":6306,"é¹°":6307,"é¹³":6308,"é¹¿":6309,"éºĤ":6310,"éºĭ":6311,"éºĴ":6312,"éºĵ":6313,"éºĿ":6314,"éºŁ":6315,"éº¦":6316,"éº´":6317,"éº¸":6318,"éºº":6319,"éº»":6320,"éº¾":6321,"é»Ħ":6322,"é»į":6323,"é»İ":6324,"é»ı":6325,"é»ĳ":6326,"é»Ĵ":6327,"é»Ķ":6328,"é»ĺ":6329,"é»Ľ":6330,"é»ľ":6331,"é»Ŀ":6332,"é»ł":6333,"é»¯":6334,"é¼ĭ":6335,"é¼İ":6336,"é¼Ĳ":6337,"é¼ĵ":6338,"é¼ł":6339,"é¼¬":6340,"é¼¹":6341,"é¼»":6342,"é¼¾":6343,"é½ģ":6344,"é½Ĳ":6345,"é½¢":6346,"é½¿":6347,"é¾Ħ":6348,"é¾ħ":6349,"é¾Ī":6350,"é¾Ĭ":6351,"é¾ĭ":6352,"é¾Į":6353,"é¾Ļ":6354,"é¾ļ":6355,"é¾Ľ":6356,"é¾Ł":6357,"ï¸°":6358,"ï¸±":6359,"ï¸¶":6360,"ï¸¿":6361,"ï¹ģ":6362,"ï¹Ĥ":6363,"ï¹į":6364,"ï¹ı":6365,"ï¹Ĳ":6366,"ï¹ĳ":6367,"ï¹Ĵ":6368,"ï¹Ķ":6369,"ï¹ķ":6370,"ï¹ĸ":6371,"ï¹Ĺ":6372,"ï¹Ļ":6373,"ï¹ļ":6374,"ï¹Ŀ":6375,"ï¹ŀ":6376,"ï¹¡":6377,"ï¹£":6378,"ï¼ģ":6379,"ï¼Ĥ":6380,"ï¼ĥ":6381,"ï¼Ħ":6382,"ï¼ħ":6383,"ï¼Ĩ":6384,"ï¼ĩ":6385,"ï¼Ī":6386,"ï¼ī":6387,"ï¼Ĭ":6388,"ï¼ĭ":6389,"ï¼Į":6390,"ï¼į":6391,"ï¼İ":6392,"ï¼ı":6393,"ï¼Ĳ":6394,"ï¼ĳ":6395,"ï¼Ĵ":6396,"ï¼ĵ":6397,"ï¼Ķ":6398,"ï¼ķ":6399,"ï¼ĸ":6400,"ï¼Ĺ":6401,"ï¼ĺ":6402,"ï¼Ļ":6403,"ï¼ļ":6404,"ï¼Ľ":6405,"ï¼ľ":6406,"ï¼Ŀ":6407,"ï¼ŀ":6408,"ï¼Ł":6409,"ï¼ł":6410,"ï¼»":6411,"ï¼¼":6412,"ï¼½":6413,"ï¼¾":6414,"ï¼¿":6415,"ï½Ģ":6416,"ï½Ľ":6417,"ï½ľ":6418,"ï½Ŀ":6419,"ï½ŀ":6420,"ï½¡":6421,"ï½¢":6422,"ï½£":6423,"ï½¤":6424,"ï½¥":6425,"ï½¯":6426,"ï½°":6427,"ï¾ŀ":6428,"ï¾Ł":6429,"ï¿£":6430,"ï¿¥":6431,"...":6432,"er":6433,"ing":6434,"on":6435,"an":6436,"le":6437,"in":6438,"mm":6439,"ng":6440,"us":6441,"âĶĢâĶĢ":6442,"te":6443,"ed":6444,"al":6445,"ic":6446,"ia":6447,"ce":6448,"en":6449,"is":6450,"ra":6451,"es":6452,"cm":6453,"ne":6454,"re":6455,"tion":6456,"ch":6457,"or":6458,"na":6459,"ta":6460,"ll":6461,"ie":6462,"ma":6463,"ion":6464,"th":6465,"st":6466,"se":6467,"et":6468,"ck":6469,"ly":6470,"ge":6471,"ry":6472,"ter":6473,"ar":6474,"la":6475,"os":6476,"el":6477,"ml":6478,"at":6479,"man":6480,"it":6481,"me":6482,"de":6483,"nt":6484,"mb":6485,"ve":6486,"da":6487,"ps":6488,"to":6489,"son":6490,"ke":6491,"um":6492,"ss":6493,"as":6494,"co":6495,"go":6496,"id":6497,"ey":6498,"sa":6499,"ro":6500,"am":6501,"no":6502,"sh":6503,"ki":6504,"pe":6505,"ine":6506,"mi":6507,"ton":6508,"ment":6509,"ld":6510,"li":6511,"rs":6512,"ri":6513,"rd":6514,"io":6515,"ty":6516,"ba":6517,"ga":6518,"ny":6519,"by":6520,"ur":6521,"hz":6522,"ang":6523,"ka":6524,"ad":6525,"tor":6526,"kg":6527,"rt":6528,"ct":6529,"ts":6530,"ns":6531,"ao":6532,"nd":6533,"ya":6534,"il":6535,"ian":6536,"ers":6537,"day":6538,"ay":6539,"line":6540,"be":6541,"dy":6542,"ies":6543,"ha":6544,"ot":6545,"va":6546,"mo":6547,"land":6548,"ation":6549,"pa":6550,"ol":6551,"ue":6552,"ca":6553,"om":6554,"ure":6555,"bo":6556,"way":6557,"ko":6558,"do":6559,"un":6560,"ni":6561,"up":6562,"ds":6563,"ee":6564,"ive":6565,"cc":6566,"ble":6567,"ity":6568,"ex":6569,"ler":6570,"ap":6571,"book":6572,"ice":6573,"km":6574,"mg":6575,"ms":6576,"cy":6577,"view":6578,"lo":6579,"oo":6580,"net":6581,"ls":6582,"ii":6583,"box":6584,"ley":6585,"ent":6586,"les":6587,"said":6588,"ber":6589,"ner":6590,"der":6591,"hi":6592,"ir":6593,"ai":6594,"ver":6595,"ron":6596,"ster":6597,"sk":6598,"ft":6599,"ti":6600,"my":6601,"ker":6602,"one":6603,"ow":6604,"lin":6605,"ip":6606,"ics":6607,"ff":6608,"nce":6609,"per":6610,"ock":6611,"bs":6612,"ah":6613,"lv":6614,"mp":6615,"au":6616,"age":6617,"ting":6618,"ung":6619,"ction":6620,"db":6621,"ore":6622,"op":6623,"ong":6624,"ica":6625,"wa":6626,"tv":6627,"di":6628,"ier":6629,"si":6630,"ok":6631,"ut":6632,"vi":6633,"ac":6634,"fs":6635,"sion":6636,"tt":6637,"lt":6638,"bc":6639,"rry":6640,"ted":6641,"rn":6642,"t00":6643,"ui":6644,"ary":6645,"pm":6646,"za":6647,"ger":6648,"ï½į":6649,"hd":6650,"od":6651,"ina":6652,"ix":6653,"ana":6654,"ji":6655,"ard":6656,"ain":6657,"ze":6658,"bi":6659,"port":6660,"nm":6661,"dia":6662,"and":6663,"im":6664,"ei":6665,"po":6666,"bit":6667,"out":6668,"zz":6669,"tes":6670,"ast":6671,"âĹĭâĹĭ":6672,"ling":6673,"ory":6674,"ical":6675,"cn":6676,"ys":6677,"oc":6678,"lly":6679,"ks":6680,"board":6681,"lan":6682,"que":6683,"ua":6684,"com":6685,"ren":6686,"via":6687,"tch":6688,"ial":6689,"nn":6690,"xx":6691,"ser":6692,"ist":6693,"art":6694,"lm":6695,"ek":6696,"ning":6697,"if":6698,"ite":6699,"ku":6700,"ux":6701,"hs":6702,"ide":6703,"ins":6704,"ight":6705,"fe":6706,"ho":6707,"lla":6708,"pp":6709,"ec":6710,"rm":6711,"ham":6712,"ell":6713,"able":6714,"ctor":6715,"light":6716,"han":6717,"ise":6718,"tions":6719,"shi":6720,"ram":6721,"pi":6722,"well":6723,"hu":6724,"gb":6725,"ef":6726,"uan":6727,"plus":6728,"res":6729,"ess":6730,"ate":6731,"ese":6732,"ci":6733,"bet":6734,"nk":6735,"ute":6736,"fc":6737,"www":6738,"ght":6739,"gs":6740,"ile":6741,"wood":6742,"uo":6743,"em":6744,"king":6745,"tive":6746,"ox":6747,"zy":6748,"red":6749,"ium":6750,"lf":6751,"ding":6752,"tic":6753,"cs":6754,"che":6755,"ire":6756,"gy":6757,"ult":6758,"fa":6759,"mer":6760,"time":6761,"tte":6762,"tra":6763,"ern":6764,"ous":6765,"int":6766,"car":6767,"our":6768,"ant":6769,"jo":6770,"min":6771,"ino":6772,"ris":6773,"ud":6774,"set":6775,"her":6776,"ou":6777,"fi":6778,"ill":6779,"ick":6780,"av":6781,"dd":6782,"mark":6783,"ash":6784,"ome":6785,"ak":6786,"lle":6787,"watch":6788,"und":6789,"tal":6790,"less":6791,"rl":6792,"mhz":6793,"house":6794,"key":6795,"hy":6796,"web":6797,"gg":6798,"wan":6799,"Â°c":6800,"val":6801,"ons":6802,"ance":6803,"so":6804,"he":6805,"rp":6806,"ake":6807,"link":6808,"hp":6809,"eng":6810,"style":6811,"gi":6812,"ray":6813,"max":6814,"pc":6815,"ace":6816,"berg":6817,"news":6818,"all":6819,"rus":6820,"works":6821,"ja":6822,"ea":6823,"top":6824,"ness":6825,"lu":6826,"ul":6827,"ï½ģ":6828,"ean":6829,"gle":6830,"back":6831,"tan":6832,"nes":6833,"zi":6834,"las":6835,"oe":6836,"sd":6837,"bot":6838,"world":6839,"zo":6840,"vr":6841,"list":6842,"ort":6843,"lon":6844,"tc":6845,"of":6846,"bus":6847,"gen":6848,"lie":6849,"ria":6850,"coin":6851,"bt":6852,"ook":6853,"sy":6854,"word":6855,"ther":6856,"xi":6857,"sc":6858,"bb":6859,"tar":6860,"ky":6861,"yo":6862,"ara":6863,"aa":6864,"rc":6865,"tz":6866,"ston":6867,"eo":6868,"ade":6869,"win":6870,"ura":6871,"den":6872,"ita":6873,"sm":6874,"use":6875,"ode":6876,"fo":6877,"hone":6878,"ology":6879,"con":6880,"ford":6881,"joy":6882,"kb":6883,"rade":6884,"ach":6885,"ful":6886,"ase":6887,"star":6888,"are":6889,"mc":6890,"ella":6891,"read":6892,"ison":6893,"vm":6894,"play":6895,"cer":6896,"yu":6897,"ings":6898,"lia":6899,"cd":6900,"tus":6901,"rial":6902,"life":6903,"ae":6904,"rk":6905,"wang":6906,"sp":6907,"ving":6908,"lton":6909,"ple":6910,"cal":6911,"sen":6912,"ville":6913,"ius":6914,"mah":6915,"tin":6916,"ws":6917,"ru":6918,"est":6919,"dm":6920,"mon":6921,"eam":6922,"ments":6923,"ik":6924,"kw":6925,"bin":6926,"ata":6927,"vin":6928,"tu":6929,"ula":6930,"ature":6931,"ran":6932,"home":6933,"ral":6934,"force":6935,"ini":6936,"bert":6937,"nder":6938,"mber":6939,"sis":6940,"ence":6941,"nc":6942,"name":6943,"ncy":6944,"nie":6945,"ye":6946,"oid":6947,"chi":6948,"orm":6949,"rf":6950,"ware":6951,"pro":6952,"era":6953,"ub":6954,"zen":6955,"hr":6956,"row":6957,"ish":6958,"lot":6959,"ane":6960,"tina":6961,"vel":6962,"ene":6963,"cker":6964,"px":6965,"fork":6966,"gan":6967,"zon":6968,"qq":6969,"google":6970,"ism":6971,"zer":6972,"labels":6973,"md":6974,"ico":6975,"new":6976,"here":6977,"ual":6978,"vice":6979,"wer":6980,"mll":6981,"uk":6982,"ming":6983,"vo":6984,"led":6985,"ax":6986,"ert":6987,"lr":6988,"hing":6989,"chat":6990,"ule":6991,"pad":6992,"ring":6993,"city":6994,"mann":6995,"cl":6996,"vd":6997,"ping":6998,"rge":6999,"lk":7000,"ney":7001,"ular":7002,"tter":7003,"tm":7004,"yan":7005,"let":7006,"pt":7007,"berry":7008,"ew":7009,"wn":7010,"og":7011,"code":7012,"rid":7013,"cket":7014,"anonymoussaid":7015,"ag":7016,"ame":7017,"gc":7018,"lis":7019,"gin":7020,"cher":7021,"tis":7022,"rant":7023,"ats":7024,"ven":7025,"dn":7026,"ano":7027,"urt":7028,"rent":7029,"wen":7030,"ect":7031,"chel":7032,"cat":7033,"blog":7034,"yn":7035,"tp":7036,"rmb":7037,"field":7038,"reen":7039,"ors":7040,"ju":7041,"air":7042,"map":7043,"wo":7044,"get":7045,"base":7046,"ood":7047,"aw":7048,"ail":7049,"een":7050,"gp":7051,"eg":7052,"ose":7053,"ories":7054,"shop":7055,"sta":7056,"yer":7057,"ube":7058,"wi":7059,"low":7060,"fer":7061,"media":7062,"san":7063,"bank":7064,"nge":7065,"mail":7066,"lp":7067,"nse":7068,"stry":7069,"zone":7070,"ab":7071,"rner":7072,"care":7073,"pu":7074,"yi":7075,"bar":7076,"xy":7077,"ery":7078,"share":7079,"ob":7080,"ball":7081,"hk":7082,"cp":7083,"rie":7084,"ona":7085,"sl":7086,"lex":7087,"rum":7088,"ale":7089,"atic":7090,"erson":7091,"ql":7092,"ves":7093,"type":7094,"mix":7095,"bian":7096,"lc":7097,"hc":7098,"ration":7099,"mit":7100,"nch":7101,"o2":7102,"point":7103,"http":7104,"ury":7105,"ink":7106,"logy":7107,"js":7108,"shot":7109,"tb":7110,"tics":7111,"lus":7112,"ama":7113,"ions":7114,"lls":7115,"down":7116,"ress":7117,"kv":7118,"ark":7119,"ans":7120,"tty":7121,"bee":7122,"ari":7123,"verse":7124,"tton":7125,"ties":7126,"llow":7127,"du":7128,"rth":7129,"lar":7130,"des":7131,"cky":7132,"kit":7133,"ime":7134,"fun":7135,"vis":7136,"cture":7137,"tta":7138,"tel":7139,"lock":7140,"app":7141,"right":7142,"cent":7143,"its":7144,"asia":7145,"tti":7146,"tle":7147,"ller":7148,"ken":7149,"more":7150,"boy":7151,"dom":7152,"ider":7153,"unch":7154,"put":7155,"gh":7156,"tr":7157,"n1":7158,"tags":7159,"nus":7160,"town":7161,"ique":7162,"body":7163,"erry":7164,"the":7165,"mic":7166,"tro":7167,"alk":7168,"nity":7169,"oa":7170,"tf":7171,"ack":7172,"ded":7173,"sco":7174,"rite":7175,"ada":7176,"now":7177,"ndy":7178,"ika":7179,"xp":7180,"bu":7181,"rman":7182,"gm":7183,"fig":7184,"tto":7185,"gl":7186,"len":7187,"pper":7188,"a1":7189,"ition":7190,"ference":7191,"ig":7192,"mond":7193,"cation":7194,"pr":7195,"over":7196,"ith":7197,"su":7198,"llo":7199,"qi":7200,"admin":7201,"ora":7202,"log":7203,"ces":7204,"ume":7205,"oper":7206,"af":7207,"ound":7208,"cg":7209,"site":7210,"iko":7211,"ath":7212,"hip":7213,"rey":7214,"cks":7215,"dp":7216,"mw":7217,"ations":7218,"vs":7219,"flow":7220,"late":7221,"nter":7222,"ever":7223,"lab":7224,"nger":7225,"cing":7226,"nap":7227,"ens":7228,"bra":7229,"ign":7230,"oto":7231,"test":7232,"urs":7233,"ich":7234,"dr":7235,"lina":7236,"die":7237,"try":7238,"ader":7239,"chen":7240,"ten":7241,"ough":7242,"hen":7243,"cus":7244,"py":7245,"ward":7246,"ep":7247,"cle":7248,"ree":7249,"ctive":7250,"ool":7251,"ira":7252,"ez":7253,"card":7254,"cha":7255,"end":7256,"ala":7257,"tail":7258,"ries":7259,"ved":7260,"ways":7261,"wd":7262,"ond":7263,"tom":7264,"ov":7265,"fl":7266,"pd":7267,"gate":7268,"sky":7269,"ture":7270,"ape":7271,"load":7272,"ream":7273,"post":7274,"we":7275,"ike":7276,"ould":7277,"ious":7278,"gar":7279,"ggle":7280,"ric":7281,"own":7282,"side":7283,"other":7284,"tech":7285,"ator":7286,"ged":7287,"fit":7288,"ily":7289,"hn":7290,"cil":7291,"cel":7292,"ize":7293,"aid":7294,"data":7295,"head":7296,"sun":7297,"mar":7298,"lic":7299,"text":7300,"page":7301,"rris":7302,"ket":7303,"hai":7304,"hl":7305,"sent":7306,"ug":7307,"men":7308,"lution":7309,"tional":7310,"vy":7311,"dget":7312,"ein":7313,"uel":7314,"ument":7315,"hang":7316,"sue":7317,"ndi":7318,"cept":7319,"ste":7320,"tag":7321,"west":7322,"live":7323,"rap":7324,"tone":7325,"ass":7326,"tical":7327,"m2":7328,"mn":7329,"core":7330,"may":7331,"ope":7332,"rain":7333,"ement":7334,"tier":7335,"vic":7336,"lay":7337,"uck":7338,"hop":7339,"ear":7340,"fly":7341,"ship":7342,"iel":7343,"ude":7344,"ena":7345,"thing":7346,"ters":7347,"kin":7348,"vertisement":7349,"ien":7350,"dge":7351,"tant":7352,"twitter":7353,"fu":7354,"iner":7355,"uce":7356,"ev":7357,"file":7358,"rio":7359,"hat":7360,"lio":7361,"abc":7362,"vc":7363,"rity":7364,"ost":7365,"fet":7366,"come":7367,"beth":7368,"aft":7369,"don":7370,"khz":7371,"face":7372,"mate":7373,"jing":7374,"mand":7375,"gn":7376,"mmy":7377,"pmlast":7378,"wu":7379,"bel":7380,"dio":7381,"ht":7382,"ivity":7383,"isa":7384,"lter":7385,"cts":7386,"act":7387,"room":7388,"ets":7389,"hg":7390,"raph":7391,"ils":7392,"host":7393,"bon":7394,"tsu":7395,"ject":7396,"vas":7397,"firm":7398,"wf":7399,"nor":7400,"space":7401,"dc":7402,"sol":7403,"nsis":7404,"sio":7405,"ym":7406,"bor":7407,"wt":7408,"tw":7409,"oka":7410,"rss":7411,"work":7412,"atus":7413,"times":7414,"ather":7415,"cord":7416,"eep":7417,"pan":7418,"press":7419,"tl":7420,"ull":7421,"wei":7422,"rip":7423,"nis":7424,"oon":7425,"bug":7426,"cms":7427,"dar":7428,"oh":7429,"nba":7430,"count":7431,"url":7432,"ging":7433,"cia":7434,"tation":7435,"mini":7436,"mporary":7437,"ering":7438,"next":7439,"mbps":7440,"gas":7441,"ift":7442,"dot":7443,"ros":7444,"eet":7445,"ible":7446,"aka":7447,"lor":7448,"iu":7449,"gt":7450,"burg":7451,"iki":7452,"rex":7453,"cam":7454,"you":7455,"lee":7456,"itor":7457,"xt":7458,"nan":7459,"ann":7460,"ph":7461,"rcle":7462,"nic":7463,"nar":7464,"rian":7465,"table":7466,"sn":7467,"jia":7468,"ques":7469,"onsored":7470,"x2":7471,"v4":7472,"tein":7473,"stack":7474,"ads":7475,"baby":7476,"lone":7477,"uid":7478,"ave":7479,"oy":7480,"talk":7481,"eme":7482,"a5":7483,"lace":7484,"covery":7485,"r3":7486,"ners":7487,"rea":7488,"aine":7489,"ision":7490,"sia":7491,"bow":7492,"love":7493,"pl":7494,"uy":7495,"oi":7496,"rr":7497,"mple":7498,"sson":7499,"nts":7500,"uard":7501,"bia":7502,"tory":7503,"hia":7504,"sit":7505,"walk":7506,"xure":7507,"pact":7508,"walker":7509,"can":7510,"hoo":7511,"ï½Ĥ":7512,"yy":7513,"iti":7514,"bbs":7515,"ola":7516,"bre":7517,"pus":7518,"rder":7519,"nia":7520,"ugh":7521,"orage":7522,"ush":7523,"bat":7524,"dt":7525,"gio":7526,"lax":7527,"moon":7528,"kk":7529,"lux":7530,"rdon":7531,"x5":7532,"als":7533,"ida":7534,"nda":7535,"posted":7536,"mine":7537,"skip":7538,"form":7539,"ssion":7540,"tee":7541,"jie":7542,"night":7543,"ppy":7544,"eh":7545,"rence":7546,"lvin":7547,"trix":7548,"n2":7549,"uch":7550,"dra":7551,"sse":7552,"urn":7553,"lmer":7554,"sha":7555,"vg":7556,"nos":7557,"rail":7558,"dium":7559,"stone":7560,"np":7561,"ias":7562,"dk":7563,"xxx":7564,"cake":7565,"ification":7566,"nel":7567,"icon":7568,"bby":7569,"ust":7570,"fw":7571,"xon":7572,"ses":7573,"dragon":7574,"ere":7575,"nne":7576,"oud":7577,"a2":7578,"graphy":7579,"rtex":7580,"gma":7581,"ito":7582,"lling":7583,"jun":7584,"facebook":7585,"tos":7586,"stin":7587,"shine":7588,"mu":7589,"gence":7590,"zzi":7591,"tore":7592,"ead":7593,"osa":7594,"jiang":7595,"lam":7596,"nix":7597,"sday":7598,"master":7599,"zl":7600,"itz":7601,"food":7602,"lent":7603,"stro":7604,"lts":7605,"bscribe":7606,"tment":7607,"pn":7608,"ague":7609,"deo":7610,"nnis":7611,"ette":7612,"pop":7613,"cast":7614,"ews":7615,"stle":7616,"ima":7617,"r4":7618,"desk":7619,"ald":7620,"van":7621,"jy":7622,"lines":7623,"mes":7624,"self":7625,"note":7626,"ova":7627,"wing":7628,"hua":7629,"rect":7630,"unge":7631,"uma":7632,"kins":7633,"zu":7634,"price":7635,"med":7636,"mus":7637,"group":7638,"hin":7639,"iginal":7640,"oz":7641,"public":7642,"sch":7643,"dden":7644,"bell":7645,"drive":7646,"rmin":7647,"fx":7648,"nome":7649,"ctionary":7650,"oman":7651,"lish":7652,"cr":7653,"hm":7654,"how":7655,"uc":7656,"urg":7657,"cca":7658,"uality":7659,"ett":7660,"ani":7661,"tax":7662,"rma":7663,"jin":7664,"dical":7665,"lli":7666,"last":7667,"dan":7668,"rame":7669,"oot":7670,"hur":7671,"ground":7672,"getrelax":7673,"ince":7674,"bay":7675,"pass":7676,"rix":7677,"ello":7678,"eting":7679,"mobile":7680,"ience":7681,"ified":7682,"nny":7683,"fr":7684,"lean":7685,"pin":7686,"rin":7687,"bility":7688,"baru":7689,"gion":7690,"tors":7691,"ernel":7692,"mv":7693,"bike":7694,"ager":7695,"del":7696,"pods":7697,"free":7698,"tings":7699,"rley":7700,"copyright":7701,"mma":7702,"anda":7703,"mall":7704,"gnet":7705,"dog":7706,"":7707,"A":7708,"B":7709,"C":7710,"D":7711,"E":7712,"F":7713,"G":7714,"H":7715,"I":7716,"J":7717,"K":7718,"L":7719,"M":7720,"N":7721,"O":7722,"P":7723,"Q":7724,"R":7725,"S":7726,"T":7727,"U":7728,"V":7729,"W":7730,"X":7731,"Y":7732,"Z":7733,"¡":7734,"¢":7735,"£":7736,"¤":7737,"¥":7738,"¦":7739,"§":7740,"¨":7741,"©":7742,"ª":7743,"«":7744,"¬":7745,"®":7746,"¯":7747,"°":7748,"±":7749,"²":7750,"³":7751,"´":7752,"µ":7753,"¶":7754,"·":7755,"¸":7756,"¹":7757,"º":7758,"»":7759,"¼":7760,"½":7761,"¾":7762,"¿":7763,"À":7764,"Á":7765,"Â":7766,"Ã":7767,"Ä":7768,"Å":7769,"Æ":7770,"Ç":7771,"È":7772,"É":7773,"Ê":7774,"Ë":7775,"Ì":7776,"Í":7777,"Î":7778,"Ï":7779,"Ð":7780,"Ñ":7781,"Ò":7782,"Ó":7783,"Ô":7784,"Õ":7785,"Ö":7786,"×":7787,"Ø":7788,"Ù":7789,"Ú":7790,"Û":7791,"Ü":7792,"Ý":7793,"Þ":7794,"ß":7795,"à":7796,"á":7797,"â":7798,"ã":7799,"ä":7800,"å":7801,"æ":7802,"ç":7803,"è":7804,"é":7805,"ê":7806,"ë":7807,"ì":7808,"í":7809,"î":7810,"ï":7811,"ð":7812,"ñ":7813,"ò":7814,"ó":7815,"ô":7816,"õ":7817,"ö":7818,"÷":7819,"ø":7820,"ù":7821,"ú":7822,"û":7823,"ü":7824,"ý":7825,"þ":7826,"ÿ":7827,"Ā":7828,"ā":7829,"Ă":7830,"ă":7831,"Ą":7832,"ą":7833,"Ć":7834,"ć":7835,"Ĉ":7836,"ĉ":7837,"Ċ":7838,"ċ":7839,"Č":7840,"č":7841,"Ď":7842,"ď":7843,"Đ":7844,"đ":7845,"Ē":7846,"ē":7847,"Ĕ":7848,"ĕ":7849,"Ė":7850,"ė":7851,"Ę":7852,"ę":7853,"Ě":7854,"ě":7855,"Ĝ":7856,"ĝ":7857,"Ğ":7858,"ğ":7859,"Ġ":7860,"ġ":7861,"Ģ":7862,"ģ":7863,"Ĥ":7864,"ĥ":7865,"Ħ":7866,"ħ":7867,"Ĩ":7868,"ĩ":7869,"Ī":7870,"ī":7871,"Ĭ":7872,"ĭ":7873,"Į":7874,"į":7875,"İ":7876,"ı":7877,"Ĳ":7878,"ĳ":7879,"Ĵ":7880,"ĵ":7881,"Ķ":7882,"ķ":7883,"ĸ":7884,"Ĺ":7885,"ĺ":7886,"Ļ":7887,"ļ":7888,"Ľ":7889,"ľ":7890,"Ŀ":7891,"ŀ":7892,"Ł":7893,"ł":7894,"Ń":7895,"ĠĠ":7896,"ĠĠĠĠ":7897,"Ġ<":7898,"Ġt":7899,"]]":7900,"[[":7901,"Ġ[[":7902,"</":7903,"Ġ|":7904,"ĠĠĠĠĠ":7905,"qu":7906,"''":7907,"quot":7908,"ĠĠĠ":7909,"Ġa":7910,"Ġc":7911,"Ġw":7912,"Ġthe":7913,"Ġb":7914,"}}":7915,"{{":7916,"Ġs":7917,"Ġ=":7918,"Ġf":7919,"Ġto":7920,"ont":7921,"ĠĊ":7922,"ext":7923,"Ġ(":7924,"Ġof":7925,"Ġp":7926,"Ġd":7927,"Ġy":7928,"Ġm":7929,"Ġn":7930,"Ġyou":7931,"ĠT":7932,"amp":7933,"Ġin":7934,"Ġand":7935,"Ġ1":7936,"=&":7937,"Wiki":7938,"ped":7939,";&":7940,"ĠS":7941,"for":7942,"pedia":7943,";/":7944,"Ġ</":7945,"ĠI":7946,"'''":7947,"User":7948,"Ġth":7949,"Wikipedia":7950,"itle":7951,"201":7952,"Ġ*":7953,"mat":7954,"Ġ&":7955,"--":7956,"ĠA":7957,"title":7958,"format":7959,"user":7960,"rib":7961,"Ġl":7962,"ontrib":7963,"ĠĠĠĠĠĠĠ":7964,"Ġbe":7965,"ĠC":7966,"vision":7967,"ontribut":7968,"Ġ{{":7969,"Ġre":7970,"Ġis":7971,"00":7972,"ĠM":7973,"Ġh":7974,"odel":7975,"contribut":7976,"stamp":7977,"model":7978,"revision":7979,"timestamp":7980,"contributor":7981,"username":7982,"]].":7983,"ĠP":7984,"Ġst":7985,"comment":7986,"Ġfor":7987,"Ġon":7988,"Ġ==":7989,"ref":7990,"200":7991,"ĠB":7992,"||":7993,"]],":7994,"ĠH":7995,"Ġtalk":7996,"olor":7997,"wiki":7998,"Ġ201":7999,"ĠR":8000,"font":8001,"Ġpage":8002,"Ġan":8003,"ĠF":8004,"ateg":8005,"ĠĠĠĠĠĠĠĠ":8006,"ĠE":8007,"ategory":8008,"Ġnot":8009,"ount":8010,"ĠD":8011,"parent":8012,"pre":8013,"parentid":8014,"ĠW":8015,"Category":8016,"ĠL":8017,"ele":8018,"Ġit":8019,"Ġchan":8020,"ww":8021,"Ġ|-":8022,"Ġ2":8023,"wik":8024,"06":8025,"spa":8026,"ĠN":8027,"=\"":8028,"ĠThe":8029,"yle":8030,"Ġg":8031,"Ġus":8032,"TC":8033,"]])":8034,"ĠG":8035,"span":8036,"UTC":8037,"ĠJ":8038,"wikit":8039,"Ġx":8040,"//":8041,"Ġ--":8042,"br":8043,"âĢ":8044,"serve":8045,"Ġxml":8046,"preserve":8047,"emp":8048,"\">":8049,"wikitext":8050,"Ġha":8051,"Ġ''":8052,"==":8053,"ĠWikipedia":8054,"Ġas":8055,"Ġ19":8056,"Ġstyle":8057,"Ġthis":8058,"://":8059,"ĠO":8060,"Ġthat":8061,"Ġ6":8062,"rom":8063,"empl":8064,"!--":8065,";!--":8066,"Ġ'''":8067,"]]&":8068,"Ġ||":8069,"Ġwas":8070,"Ġname":8071,"Ġ([[":8072,"color":8073,"Ġchange":8074,"Ġ/":8075,"emplate":8076,"lease":8077,"|&":8078,"Ġal":8079,"gu":8080,"alis":8081,"Ġwith":8082,"Ġby":8083,"Ġ200":8084,"Ġacc":8085,"ork":8086,"Ġfrom":8087,"Ġhe":8088,";[[":8089,"imp":8090,"Ġle":8091,"Ġ+":8092,"ĠIf":8093,"ord":8094,"ĠY":8095,"Ġare":8096,"Ġ--&":8097,"Ġhave":8098,"Ġcan":8099,".&":8100,"cial":8101,"Ġat":8102,"]]</":8103,"eb":8104,"Ġaccount":8105,"Ġme":8106,"Ġ0":8107,"Ġyour":8108,"Ġor":8109,"Ġwh":8110,"Ġ#":8111,"Ġse":8112,"Ġchanges":8113,"Ġcolor":8114,"Ġdo":8115,"}}}":8116,"bout":8117,"alism":8118,"Ġ-":8119,"date":8120,"andalism":8121,"ĠSt":8122,"small":8123,"andbox":8124,"08":8125,"pecial":8126,"elcome":8127,"'s":8128,"arn":8129,"Ġwill":8130,"Ġv":8131,"Un":8132,"eletion":8133,"artic":8134,"iz":8135,"Special":8136,"}}&":8137,";{{":8138,"Ġmore":8139,"Bot":8140,")|":8141,"imple":8142,";|":8143,"ĠK":8144,"Ġ:":8145,"gr":8146,":#":8147,";#":8148,"{{{":8149,"iv":8150,"nb":8151,"Ġabout":8152,"The":8153,"Re":8154,"edit":8155,"Ġuse":8156,"03":8157,"Ġde":8158,"Ġbeen":8159,"Ġe":8160,"ngl":8161,"Ġwork":8162,"Ġk":8163,"Ġsh":8164,"sv":8165,"ind":8166,"In":8167,"ĠTemplate":8168,"Ġhas":8169,"Ġartic":8170,"04":8171,"vert":8172,";]]":8173,"Ġwant":8174,"mage":8175,"nbsp":8176,"formation":8177,"Ġmake":8178,"07":8179,"ates":8180,"Ġlike":8181,"Ġ[[:":8182,"FF":8183,"arch":8184,"Ġplease":8185,"Ġ/>":8186,"09":8187,"svg":8188,"align":8189,"hank":8190,"ican":8191,"Image":8192,"ĉĉ":8193,"Ġpages":8194,"Ġall":8195,"ubl":8196,"Ġpro":8197,"uary":8198,"Ġcl":8199,"ated":8200,"Ġ3":8201,"ove":8202,"ĠV":8203,"nglish":8204,"Ġweb":8205,"div":8206,"01":8207,"]]''":8208,"sup":8209,"05":8210,"org":8211,"ĠTh":8212,"ĠIt":8213,"Ġhelp":8214,"old":8215,"left":8216,"rit":8217,"very":8218,"Ġedit":8219,"WP":8220,"Ġnew":8221,"Ġ[":8222,"omm":8223,"ited":8224,"irst":8225,"quest":8226,"Ġdid":8227,"St":8228,"02":8229,"ople":8230,"Ġ!":8231,"Ġpa":8232,"Ġbut":8233,"Ġadd":8234,"ĠThank":8235,"Ġ*[[":8236,"ib":8237,"ĠEnglish":8238,"eople":8239,"Ġso":8240,"ally":8241,"Ġsome":8242,")</":8243,"unt":8244,"'t":8245,"PA":8246,"Ġpol":8247,"Ġ/&":8248,"Ġex":8249,"ackground":8250,"vandalism":8251,"oved":8252,"center":8253,"Ch":8254,"Ġ''[[":8255,"Ġout":8256,"ccess":8257,"Ġdeletion":8258,"cite":8259,"zw":8260,"ational":8261,"ĠUn":8262,"Ġmade":8263,"merican":8264,"ĠIn":8265,"ĠHe":8266,"ĠPlease":8267,"Ġone":8268,"pla":8269,"Ġdis":8270,"angu":8271,"Ġany":8272,"Ġ}}":8273,"inks":8274,"isher":8275,"minor":8276,";'''":8277,"Ġtitle":8278,"dding":8279,"Ġalso":8280,"Ġrem":8281,"Sandbox":8282,"anguage":8283,"RE":8284,"eren":8285,"henzw":8286,"Ġco":8287,"Ġchanging":8288,"ĠCh":8289,"order":8290,"Chenzw":8291,"TW":8292,";,":8293,"199":8294,"Ġr":8295,"\">{{":8296,"ootball":8297,"vers":8298,"sandbox":8299,"Ġhow":8300,"ĠThis":8301,"irth":8302,"ross":8303,"image":8304,"Ġplay":8305,"Template":8306,"Ġun":8307,"File":8308,"Ġif":8309,"'''&":8310,"ept":8311,"aut":8312,"uss":8313,"oblin":8314,"Ġthink":8315,"Ġpeople":8316,"Ġlearn":8317,"pg":8318,"az":8319,"ĠâĢĵ":8320,"Hel":8321,"ason":8322,"ublisher":8323,"{{#":8324,"icy":8325,"Ġ'":8326,"Ġ18":8327,"Ġ{":8328,"lag":8329,"ĠĠĠĠĠĠĠĠĠĠĠĠ":8330,"ĠNew":8331,"pri":8332,"access":8333,"Uw":8334,"Ġuser":8335,"iss":8336,"ĠYou":8337,"Ġch":8338,"reat":8339,"une":8340,"Information":8341,"Ġ4":8342,"accessdate":8343,"Ã©":8344,"amily":8345,"Ġj":8346,"Ġpolicy":8347,"ĠâĢ":8348,"direct":8349,"::":8350,"clud":8351,"Ġother":8352,"NA":8353,"ĠU":8354,"=[[":8355,"Ġ2010":8356,"Ġarticles":8357,"000":8358,"untof":8359,"idth":8360,"Ġtry":8361,"ober":8362,"ĠYour":8363,"ĠStates":8364,"|}}}":8365,"Ġclass":8366,"2013":8367,"oin":8368,"Auntof":8369,"Ġ2015":8370,"Ar":8371,"ĠDe":8372,"ific":8373,"Ġnow":8374,"FA":8375,"}}|":8376,"ild":8377,"iff":8378,"..":8379,"Ġhis":8380,"rat":8381,"Ġ20":8382,"Ġarticle":8383,"Help":8384,"pril":8385,"Ġ7":8386,"anuary":8387,"ME":8388,"Ġwhich":8389,"Ġpr":8390,"Request":8391,"nowiki":8392,"Ġ9":8393,"Ġshould":8394,"Ġwr":8395,"arning":8396,"Ġ2009":8397,"Ġĉĉ":8398,"Ġtest":8399,"Ġfont":8400,"Ġpre":8401,"Ġusing":8402,"reate":8403,")&":8404,"Qu":8405,"jpg":8406,"Ġhere":8407,"not":8408,"orld":8409,"eed":8410,";]]&":8411,"publisher":8412,"ĠWiki":8413,"Ġ|[[":8414,"/&":8415,"ĠMarch":8416,"ĠSimple":8417,"any":8418,"GE":8419,"oblinBot":8420,"GoblinBot":8421,"Ġ===":8422,"Ġ8":8423,"ontributions":8424,"Ġ10":8425,"Ġ5":8426,"Ġen":8427,").":8428,"erences":8429,"onal":8430,"ounty":8431,"bl":8432,"2015":8433,"family":8434,"Ġwarning":8435,"ebr":8436,"Contributions":8437,"Ġpadding":8438,"ontent":8439,"opul":8440,"NAME":8441,"ssage":8442,"ember":8443,"stub":8444,"Ġmay":8445,"Ġpart":8446,";</":8447,"size":8448,"fter":8449,"UL":8450,"ugu":8451,"rou":8452,"ĠMay":8453,"198":8454,"usic":8455,"sub":8456,"umb":8457,"ĠApril":8458,"eter":8459,"orn":8460,"Ġ2011":8461,"Ġwould":8462,"Ġ2012":8463,"oun":8464,"under":8465,"PAGE":8466,";(":8467,":|":8468,"Ġ2008":8469,"ebruary":8470,"Ġworks":8471,"American":8472,"html":8473,"ĠJanuary":8474,"PAGENAME":8475,"block":8476,"Ġthere":8477,"ctober":8478,"Ġmessage":8479,"eral":8480,"Ġwere":8481,"ChenzwBot":8482,"ovember":8483,"Ġfin":8484,"Ġinformation":8485,"cember":8486,"\">==":8487,"----":8488,"redirect":8489,"Ġthey":8490,"Ġown":8491,"eptember":8492,"Ġsol":8493,"verted":8494,"Ġ2016":8495,"Kee":8496,"hared":8497,"ater":8498,"Ġalign":8499,"Ġ**":8500,"Keegan":8501,"Ġtime":8502,"ĠAr":8503,"Ġ17":8504,"Talk":8505,"fobox":8506,"Ġfirst":8507,"ugust":8508,"background":8509,"United":8510,"Ġcomp":8511,"Ġper":8512,"]]||":8513,"Ġwe":8514,"Comm":8515,"gue":8516,"uly":8517,"),":8518,"ĠHow":8519,"Ġ2013":8520,"vent":8521,"err":8522,"Ġup":8523,"ingle":8524,"0000":8525,"Ġbet":8526,"outh":8527,"Ġcon":8528,"clude":8529,"2014":8530,"simple":8531,"olog":8532,"]].&":8533,"Ġ{{#":8534,"ears":8535,"Vandalism":8536,"~~":8537,"Welcome":8538,"elf":8539,");":8540,"ays":8541,"Ġwebs":8542,"Ġhelpful":8543,"ĠAn":8544,"Ġbel":8545,"ĠWelcome":8546,"cuss":8547,"flag":8548,"Ġ2014":8549,"Ġ16":8550,"Ġinter":8551,"rance":8552,"Ġprov":8553,"--&":8554,"eferences":8555,"Ġour":8556,"''&":8557,"gcolor":8558,"Ġsuch":8559,"OR":8560,"Ġ--[[":8561,"opulation":8562,"ĠâĢ¢":8563,"erman":8564,"Ġbirth":8565,"oll":8566,"ltr":8567,"ank":8568,"ĠJune":8569,"ĠFebruary":8570,"hor":8571,"Ġ199":8572,"dmin":8573,"MF":8574,"Ġdate":8575,"QD":8576,"ĠWikimedia":8577,"ĠCounty":8578,"ĠĠĠĠĠĠ":8579,"Ġcons":8580,"rop":8581,"Ġwhen":8582,"vol":8583,"Ġac":8584,"ĠOctober":8585,"Deletion":8586,"Ġag":8587,"ote":8588,"ied":8589,"]]'''":8590,"|[[":8591,"ĠNovember":8592,"Ġend":8593,"Ġwelcome":8594,"lat":8595,"2010":8596,"Ġ12":8597,"onald":8598,"Ġthem":8599,"enn":8600,"Ġaccounts":8601,":{{{":8602,"Ġ15":8603,"ĠRe":8604,"Ġcont":8605,"Ġsolid":8606,"ĠHowever":8607,"ĠDecember":8608,"Ġseem":8609,"plain":8610,"Ġsee":8611,"SE":8612,"Ġremoved":8613,"ename":8614,"Ġwho":8615,"ĠĠĠĠĠĠĠĠĠ":8616,"ased":8617,"col":8618,"arr":8619,"ĠAl":8620,"WMF":8621,"How":8622,"Ġhad":8623,"Ġafter":8624,"Ġ{{{":8625,"ĠAugust":8626,"Ġlanguage":8627,"Ġlog":8628,"ivers":8629,"Ġread":8630,"Ġplayer":8631,"alisation":8632,"Ġonly":8633,"noun":8634,"Ġdiscuss":8635,"ars":8636,"An":8637,"]])</":8638,"CT":8639,"ĠJuly":8640,"Ġ14":8641,"DI":8642,"thumb":8643,"Th":8644,"Ġfinalisation":8645,"Ġimage":8646,"orth":8647,"Ġ13":8648,"Pro":8649,"Quick":8650,"fore":8651,"Ġtext":8652,"Ġask":8653,";]][[":8654,"Ġser":8655,"Ġteam":8656,"DE":8657,"Ġbackground":8658,"Ġact":8659,"Ġmov":8660,"New":8661,"Ġthen":8662,"\">#":8663,"Ġĉ":8664,"Ġ11":8665,"istory":8666,"TA":8667,"Mac":8668,"aj":8669,"Ġcal":8670,"first":8671,"Ġ|}":8672,"umber":8673,"Ġborder":8674,"Al":8675,"ĠYork":8676,"ident":8677,"apan":8678,"ĠSeptember":8679,"Infobox":8680,"Ġanother":8681,"Ġneed":8682,"2009":8683,"2008":8684,"Ġ'''[[":8685,"cause":8686,"eful":8687,"Ġface":8688,"png":8689,"error":8690,"\">[[":8691,"ely":8692,"Ġdiff":8693,"irect":8694,"ites":8695,";[[:":8696,"ĠĠĠĠĠĠĠĠĠĠ":8697,"links":8698,"Ġatt":8699,"ĠLea":8700,"reating":8701,"Ġlist":8702,"Ġbecause":8703,"Ġar":8704,"Ġmoved":8705,"Ġap":8706,"AN":8707,"reated":8708,"php":8709,"nounce":8710,"Ġcalled":8711,"hed":8712,"Ġuseful":8713,"ames":8714,"donald":8715,"Simple":8716,"veryone":8717,"My":8718,"Ġtheir":8719,"opy":8720,"Ġimp":8721,"2012":8722,"Ed":8723,"idata":8724,"aking":8725,"RECT":8726,"220":8727,"DIRECT":8728,"Ġlinks":8729,"REDIRECT":8730,"elect":8731,"Ġreason":8732,"Ġmy":8733,"Ġused":8734,"Ġbot":8735,"Macdonald":8736,"If":8737,"ities":8738,"ines":8739,"ountry":8740,"US":8741,"Ġaddress":8742,"ĠLeague":8743,";[":8744,"About":8745,"index":8746,"ĠAmerican":8747,"ype":8748,"}}}|":8749,"Ġcreate":8750,"Ġ21":8751,"ols":8752,"bum":8753,"Ġcol":8754,"ohn":8755,"ĠFor":8756,"ĠUnited":8757,"Ġop":8758,"Ġstat":8759,"Ġconsider":8760,"bal":8761,"lack":8762,"df":8763,"Ġcomm":8764,"Ġdeath":8765,"place":8766,"Ġ2007":8767,"AW":8768,"named":8769,"quick":8770,"igh":8771,"unic":8772,"BA":8773,"ikidata":8774,"ices":8775,"ech":8776,"width":8777,"TS":8778,"}}}}":8779,"ife":8780,"iver":8781,"Ġ{|":8782,"ĠEveryone":8783,"omin":8784,"big":8785,"}}</":8786,"Ġfe":8787,"Ġerror":8788,"Football":8789,"AA":8790,"Ġgone":8791,"yp":8792,"Ġ22":8793,"Peter":8794,"Ġsub":8795,"wikipedia":8796,"Ġblock":8797,"2011":8798,"Requests":8799,"Ge":8800,"ady":8801,"ically":8802,"Ġwidth":8803,"List":8804,";''":8805,"oss":8806,"peri":8807,"AWB":8808,"odu":8809,"ograph":8810,"Ġ23":8811,"Ġrenamed":8812,"Ġmany":8813,"national":8814,"Os":8815,"ced":8816,"Ġdon":8817,"Ġbefore":8818,"Ġmost":8819,"Ġno":8820,"Ġ2017":8821,"Ġoff":8822,"De":8823,"Ġbetter":8824,"Ġbeing":8825,"ORT":8826,"omat":8827,"Ġ|{{":8828,"2007":8829,"Ġwrite":8830,"Ġsc":8831,"istrat":8832,"welcome":8833,"Ġannounce":8834,"iving":8835,"ange":8836,"Ġagain":8837,"ouse":8838,"iversity":8839,"Ġcom":8840,"Ġannouncement":8841,"plainlinks":8842,"Am":8843,"Rename":8844,"ontribs":8845,"rad":8846,"Ġshow":8847,"istics":8848,"ĠĠĠĠĠĠĠĠĠĠĠ":8849,"idd":8850,"LL":8851,"iris":8852,"blocked":8853,"eleted":8854,")]]":8855,"Ġspe":8856,"lobal":8857,"ndash":8858,"Ġappe":8859,"Ġdidn":8860,"DEFA":8861,"Ġremove":8862,"ield":8863,"ĠIP":8864,"Ġsay":8865,"ULTS":8866,"Ġwebsites":8867,"Ġthings":8868,"cho":8869,"overn":8870,"ULTSORT":8871,"ided":8872,"OC":8873,"DEFAULTSORT":8874,"]&":8875,"ustral":8876,"Ġapp":8877,"erent":8878,"Osiris":8879,"Ġ:''":8880,"bgcolor":8881,"dis":8882,"Ġover":8883,"Ġline":8884,"istric":8885,"ict":8886,"cap":8887,"Ġwhat":8888,"ality":8889,"Revert":8890,"References":8891,"flagicon":8892,"off":8893,"unicip":8894,"Ġgu":8895,"|}}}|":8896,"Ġtwo":8897,"Ġgo":8898,"urther":8899,"Ġgood":8900,"ĠĠĠĠĠĠĠĠĠĠĠĠĠĠ":8901,"Ġwrit":8902,"year":8903,"arge":8904,"rand":8905,"Ġedits":8906,"Ġro":8907,"Ġinto":8908,"ĠZ":8909,"Ġgen":8910,"content":8911,"ility":8912,"reflist":8913,"nown":8914,"Wikidata":8915,"dministrat":8916,"ĠHel":8917,"Ġche":8918,"Ġdifferent":8919,"vant":8920,"?|":8921,"yst":8922,"border":8923,"arty":8924,"td":8925,"Sc":8926,"hamp":8927,"inn":8928,"atch":8929,"22027":8930,"ublic":8931,"Ġthan":8932,"Be":8933,"IPA":8934,"wh":8935,"ĠUser":8936,"https":8937,"Ġher":8938,"Ġsame":8939,"Commun":8940,"**":8941,"]]:":8942,"ords":8943,"Ġits":8944,"ĠThey":8945,"Ġjust":8946,"Mer":8947,"ĠPro":8948,"ower":8949,"]]}}":8950,"uw":8951,"Language":8952,"void":8953,"Ġfurther":8954,"CE":8955,"Ġwhy":8956,"Ġfind":8957,"Ġpla":8958,"spe":8959,"Why":8960,"Ġcent":8961,"||||":8962,"Ġlook":8963,"ital":8964,"Mar":8965,"eff":8966,"Ġshared":8967,"Ġra":8968,"ritish":8969,"Ġvandalism":8970,"Ġavoid":8971,"downunder":8972,".''&":8973,"rans":8974,"alt":8975,"Ġarea":8976,"Ġlast":8977,"Ġget":8978,"Global":8979,"Peterdownunder":8980,"anad":8981,"Ġbelow":8982,"birth":8983,"Ġvery":8984,"ĠĠĠĠĠĠĠĠĠĠĠĠĠĠĠĠ":8985,"ready":8986,"Ġ30":8987,"Ġir":8988,"Ġyourself":8989,"Ġam":8990,"Ġmusic":8991,"rele":8992,"omatically":8993,"ution":8994,"blue":8995,"Ġcell":8996,"%&":8997,"urrent":8998,"vil":8999,"ĠOne":9000,"rest":9001,"2006":9002,"ĠIs":9003,"Gen":9004,"omp":9005,"par":9006,"Ġdes":9007,"creating":9008,"ĠFrance":9009,"Ã¤":9010,"comm":9011,"Ġthese":9012,"ali":9013,"Ġfootball":9014,"istrict":9015,".|":9016,"Ġalready":9017,"oci":9018,"dvice":9019,"hes":9020,"Ġthose":9021,"Ġknow":9022,"Ġnational":9023,"Ġclub":9024,"Ġmaking":9025,"Project":9026,"uring":9027,"Ġstart":9028,"ilm":9029,"author":9030,"rowspan":9031,"Shared":9032,"lue":9033,"CC":9034,"yl":9035,"Ġsour":9036,"MyLanguage":9037,"OCK":9038,";/&":9039,"Ġnotices":9040,"Ġyears":9041,"rench":9042,"Chris":9043,"ĠWorld":9044,"simplewiki":9045,"ĠInd":9046,"Ġfound":9047,"help":9048,"Ġcopy":9049,"oint":9050,"Cat":9051,"urope":9052,"ĠPri":9053,"ody":9054,"Ġstatistics":9055,"ivision":9056,"Ġpar":9057,"'',":9058,"%;":9059,"BASE":9060,"ished":9061,"Ġmean":9062,"ĠMar":9063,"ians":9064,"]]|":9065,"Ġusers":9066,"BASEPAGENAME":9067,"wikt":9068,"nal":9069,"division":9070,"reverted":9071,"ĠĠĠĠĠĠĠĠĠĠĠĠĠ":9072,"SharedIPA":9073,"Ġbook":9074,"SharedIPAdvice":9075,"relevant":9076,"wed":9077,"epart":9078,"Ġlang":9079,"Ġbirths":9080,"Ã¼":9081,"Ġirrelevant":9082,"Ġnote":9083,"ĠShe":9084,"icial":9085,"120":9086,"Ġ2006":9087,"Ġtop":9088,"Ġstill":9089,"',":9090,"Ġwrote":9091,"Add":9092,"umm":9093,"Ġworked":9094,"Single":9095,"Ġform":9096,"Ġund":9097,"ails":9098,"long":9099,"Ġmw":9100,"''[[":9101,"Red":9102,"Ġtools":9103,"Ġcap":9104,"ĠCon":9105,"Ġprovided":9106,"cu":9107,"Med":9108,"ogin":9109,"Ġgrou":9110,"080":9111,"183":9112,"Ġpl":9113,"Ġknown":9114,"Con":9115,"Ġunder":9116,"Thank":9117,"ĠWar":9118,"periment":9119,"area":9120,"Ġaut":9121,"Pol":9122,"ĠKing":9123,"Ġdir":9124,"Ġpost":9125,"Ġimport":9126,"Ġref":9127,"ists":9128,"ret":9129,"Ġ:::":9130,"abl":9131,"Ġab":9132,"hil":9133,"ives":9134,"wp":9135,"wit":9136,"Ġway":9137,"Ġallow":9138,"Ġevery":9139,"Ġage":9140,"Ġ|&":9141,"Ġyear":9142,"Ġsp":9143,"Japan":9144,"Wh":9145,"pos":9146,"elevision":9147,"ĠII":9148,"elected":9149,"population":9150,"ystem":9151,"special":9152,"Ġboth":9153,"Ġ24":9154,"Ġnumber":9155,";.":9156,"oinclude":9157,"inter":9158,"Ġinterwiki":9159,"noinclude":9160,"cess":9161,"Ġdiscussion":9162,"Block":9163,"ĠCity":9164,"rem":9165,"Ġwhere":9166,"aur":9167,"Ġmovie":9168,"imes":9169,"sec":9170,"Le":9171,"ĠMan":9172,"Ġhapp":9173,"eli":9174,"ative":9175,"ĠSh":9176,"your":9177,"ondon":9178,"Ġ25":9179,"===":9180,"Sh":9181,"Man":9182,"793":9183,".'''&":9184,"John":9185,"LK":9186,"ĠPr":9187,"ĠOther":9188,"helpful":9189,"ĠSUL":9190,"ĠCl":9191,"Ġsign":9192,"ĠRiver":9193,"ually":9194,",&":9195,"Ġnotification":9196,"293":9197,"ĠHello":9198,"automatically":9199,"Ġvi":9200,"aint":9201,"Ġnomin":9202,"orge":9203,"ĠOn":9204,"Ġleast":9205,"gth":9206,"ĠGerman":9207,"Ġhttp":9208,"ST":9209,"It":9210,"Ru":9211,"ournal":9212,"Other":9213,"ole":9214,"club":9215,"Ġlong":9216,"En":9217,"'''[[":9218,"TALK":9219,"vola":9220,"Ġtemplate":9221,"ĠTo":9222,"uvola":9223,"Ġ[[{{#":9224,"ĠLogin":9225,"Raz":9226,"RenameRequest":9227,"GlobalRenameRequest":9228,"Ġstop":9229,"Ġ}":9230,"Ġset":9231,"Ġo":9232,"Cl":9233,"hampions":9234,"/{{":9235,"Ġcheck":9236,"Ġbu":9237,"Ã¡":9238,"Ġlink":9239,"emplates":9240,"ago":9241,"ĠEd":9242,"erm":9243,";|[[":9244,"ĠAward":9245,"rank":9246,"sport":9247,"fff":9248,"andal":9249,"Ã¶":9250,"Ġright":9251,"chool":9252,"only":9253,"Ġ28":9254,"Rus":9255,"Ġ27":9256,"Ġ::":9257,"ĠWe":9258,"Ġdoes":9259,"Ġdevel":9260,"ĠThere":9261,"bottom":9262,"Ġhim":9263,"Ġmight":9264,"ister":9265,"stit":9266,"abel":9267,"ating":9268,"General":9269,"Page":9270,"elete":9271,"ĠUniversity":9272,"Ġtests":9273,"ography":9274,"Ġimportant":9275,"Ġalbum":9276,"margin":9277,"Ġ}}&":9278,"Ġres":9279,"Ġkept":9280,"Ġreport":9281,"yr":9282,"German":9283,"iam":9284,"Ambox":9285,"ĠBe":9286,"ĠAs":9287,"ird":9288,"born":9289,"Ġ26":9290,"Ġproject":9291,"weight":9292,"unicipality":9293,"Ġvis":9294,"Ġsure":9295,"Not":9296,"ummary":9297,"yd":9298,"''.":9299,"Ġ08":9300,"Ġreverted":9301,"ges":9302,"Ġstate":9303,"establ":9304,"arl":9305,"vertical":9306,"notice":9307,"version":9308,"Ġcho":9309,"ĠThese":9310,"Ġseries":9311,"ĠWh":9312,"etails":9313,"ngland":9314,"full":9315,"084":9316,"ĠInter":9317,"Arch":9318,"''',":9319,"ajor":9320,"Pr":9321,"ĠCol":9322,"Ne":9323,"oduction":9324,"Ġ[[{{":9325,"arm":9326,"icha":9327,"||[[":9328,"ĠBr":9329,"otal":9330,"Ġdef":9331,"Ġsize":9332,"asso":9333,"Ġsup":9334,"Ġcreated":9335,"Ġshe":9336,"|{{":9337,"gton":9338,"tian":9339,"--------":9340,"Ġdec":9341,"France":9342,"archive":9343,"Ġcould":9344,"Addbot":9345,"293183":9346,"OT":9347,"Ġfree":9348,"Contribs":9349,"gov":9350,"English":9351,"TALKPAGENAME":9352,"akes":9353,"Ġpass":9354,"Ġperson":9355,"Ġtag":9356,"arras":9357,"Ġquest":9358,"Ġ29":9359,"Ġloc":9360,"Ġide":9361,"inger":9362,"stru":9363,"ĠHOCK":9364,"Ġcity":9365,"Ġusername":9366,"oldid":9367,"sq":9368,"Ġseason":9369,"att":9370,"ĠComm":9371,"Ġselected":9372,"ichael":9373,"Ġinclud":9374,"cf":9375,"ollow":9376,"var":9377,"urr":9378,"overnment":9379,"vious":9380,"atures":9381,"wait":9382,"bur":9383,"Ġrel":9384,"Ġ*[":9385,"Ġcontin":9386,"Commons":9387,"caption":9388,"ures":9389,"ption":9390,"Ind":9391,"udi":9392,"ween":9393,"BC":9394,"2005":9395,"Ex":9396,"erence":9397,"ample":9398,"ovie":9399,"Hot":9400,"IN":9401,"ript":9402,"vation":9403,"oduc":9404,"On":9405,"ĠSc":9406,"Ġad":9407,"change":9408,"Main":9409,"Ġappear":9410,"tool":9411,"clo":9412,"orry":9413,"ams":9414,"ÃŃ":9415,"alon":9416,"Ġrec":9417,"|,":9418,"Ġmain":9419,"ĠNews":9420,"'m":9421,"Ġpoint":9422,"ural":9423,"green":9424,"Barras":9425,"Ġtemplates":9426,"Ġhelping":9427,"FFFA":9428,"={{":9429,"Ġ*/":9430,"Ġwebsite":9431,"sort":9432,"aly":9433,"Ġrequest":9434,"à¤":9435,"Ġsec":9436,"Ġtra":9437,"resident":9438,"Ġback":9439,"Ġtyp":9440,"ately":9441,"Ġlevel":9442,"action":9443,"ĠReferences":9444,"alifor":9445,"lymp":9446,"icago":9447,"Ġediting":9448,"\">'''":9449,"onth":9450,"uture":9451,"flame":9452,"Ġundeletion":9453,"htm":9454,"Ġposs":9455,"aul":9456,":|{{{":9457,"alifornia":9458,"undeleted":9459,"Ġlet":9460,"ĠSee":9461,"orflame":9462,"Ġsong":9463,"Ġsm":9464,"Blue":9465,"ony":9466,"ssoci":9467,"Sp":9468,"Or":9469,"Ġgive":9470,"article":9471,"yes":9472,"tain":9473,"epartment":9474,"ĠGu":9475,"ockey":9476,"ĠĠĠĠĠĠĠĠĠĠĠĠĠĠĠ":9477,"Ref":9478,"Ġlarge":9479,"ffin":9480,"Ġwik":9481,"doc":9482,"ived":9483,"ilt":9484,"login":9485,"hampionship":9486,"Razorflame":9487,"May":9488,"rough":9489,"bio":9490,"ĠIAN":9491,"class":9492,"Ġbelie":9493,"Ġbased":9494,"Ġbgcolor":9495,"str":9496,"ĠParty":9497,"ĠLe":9498,"Ġpolit":9499,"Rules":9500,"Ġbetween":9501,"padding":9502,"ense":9503,"ĠGrand":9504,"Che":9505,"Ġsu":9506,"2000":9507,"ĠâĢĶ":9508,"JP":9509,"Bad":9510,"ried":9511,"Ġcount":9512,"ĠDivision":9513,"lands":9514,"Ġnews":9515,"Redirect":9516,"Ġdirect":9517,"ĠRep":9518,"cient":9519,"HotCat":9520,"idge":9521,"This":9522,"Ġfour":9523,"!}}":9524,"Ġdeaths":9525,"Ġtr":9526,":{{":9527,"Ġman":9528,"ustralia":9529,"unction":9530,"books":9531,"Ġwithout":9532,"Ġ*{{":9533,"Ġurl":9534,"Ġquick":9535,"dministrators":9536,"Ġmar":9537,"subdivision":9538,"Ġqu":9539,"ptalon":9540,"add":9541,"illa":9542,"Ġview":9543,"ĠAir":9544,"Ġfollow":9545,"Gri":9546,"Ġpopulation":9547,"miss":9548,"bold":9549,"Ġca":9550,"bn":9551,"Ã³":9552,"]]{{":9553,"Se":9554,"Ġvisit":9555,"Cent":9556,"Created":9557,"Ġwell":9558,"Ġversion":9559,"rew":9560,"Ġfar":9561,"Ġret":9562,"ĠJapan":9563,"inal":9564,"Ġĉĉĉ":9565,"084080":9566,"Ġmember":9567,"isc":9568,"~~~~":9569,"Reverting":9570,"Ġmin":9571,"157":9572,"rist":9573,"ij":9574,"Ġlater":9575,"Tech":9576,"ott":9577,"served":9578,";,}}":9579,"idel":9580,"ĠEx":9581,"2004":9582,"Com":9583,"Bill":9584,"Ġanything":9585,"Ġreg":9586,"Ġcome":9587,"Ġrow":9588,"label":9589,"Ġmovies":9590,"Ġent":9591,"Ġside":9592,"Ġfuture":9593,"ĠRD":9594,"/*":9595,"notes":9596,"Eptalon":9597,"iet":9598,"ared":9599,"midd":9600,".]]":9601,"Ġduring":9602,"came":9603,"Ġcategory":9604,"Ġhand":9605,"Ġext":9606,"Ġdata":9607,"ĠSouth":9608,"ington":9609,"elivery":9610,"fort":9611,"Ġtype":9612,"Ġgroup":9613,"thern":9614,"Ġmuch":9615,"eek":9616,"iaWiki":9617,"Bar":9618,"include":9619,"Ġind":9620,"Ġexperiment":9621,"Ġear":9622,"wales":9623,"'''''":9624,"Ġcountry":9625,"avy":9626,"lang":9627,"loc":9628,"music":9629,"ects":9630,"ĠAt":9631,"ither":9632,"Inter":9633,"ĠCent":9634,"lear":9635,"region":9636,"FFFF":9637,"Ġbecame":9638,"urch":9639,">/*":9640,"ĠFound":9641,"ĠPeter":9642,"death":9643,"123":9644,"ĠRec":9645,"ĠCar":9646,"Edit":9647,"ĠAnd":9648,"oma":9649,"rename":9650,"ault":9651,"ofwales":9652,"ffinofwales":9653,"cyclo":9654,"Community":9655,"Content":9656,"Ġworld":9657,"Ġĉĉĉĉ":9658,"uj":9659,"black":9660,"IS":9661,"goblin":9662,"Ġshort":9663,"aract":9664,"|{{{":9665,"lect":9666,"Griffinofwales":9667,"Ġpossible":9668,"elevation":9669,"Ġredirect":9670,"ional":9671,"colspan":9672,"Ã¨":9673,"includeonly":9674,"Ġwiki":9675,"Car":9676,"Ver":9677,"Ġmap":9678,"ĠGe":9679,"Ġsystem":9680,"Ġthrough":9681,"ĠCup":9682,"Is":9683,"istan":9684,"serif":9685,"ales":9686,"illion":9687,"Ġplace":9688,"Bluegoblin":9689,"Ġwanted":9690,"Ġmessages":9691,"Bel":9692,";)":9693,"ĠRoman":9694,"anada":9695,"Br":9696,"Spa":9697,"Ġ'''&":9698,"ĠTalk":9699,"Ġsans":9700,"Ġ)":9701,"Ġfix":9702,"Ġunt":9703,"Ġart":9704,"vince":9705,"ify":9706,"where":9707,"Ġi":9708,"Ġclo":9709,"jsasso":9710,"Ġchild":9711,"British":9712,"weden":9713,"geo":9714,"avid":9715,"ersonal":9716,"National":9717,"init":9718,"124":9719,"Ġpri":9720,"ootnotes":9721,"present":9722,"People":9723,"ĠChampionship":9724,"team":9725,"ĠMed":9726,"AT":9727,"ĠThanks":9728,"height":9729,"000000":9730,"]])&":9731,"Blocking":9732,"He":9733,"====":9734,"comp":9735,"Ġcurrent":9736,":&":9737,"ĠSome":9738,"CEF":9739,"ideo":9740,"illiam":9741,"FC":9742,"West":9743,"attle":9744,"RS":9745,"Ġprevious":9746,"Ġdelivery":9747,"Ġthree":9748,"George":9749,"edy":9750,"9999":9751,"Ġgame":9752,"Ġ31":9753,"raz":9754,"Ġrecent":9755,"Ġacross":9756,"DD":9757,"ĠBot":9758,"gest":9759,"ensity":9760,"Ġuntil":9761,"Djsasso":9762,"Ġsmall":9763,"Ġborn":9764,"ittle":9765,"LLLL":9766,"Test":9767,"ants":9768,"Ġhigh":9769,"lege":9770,"Ġprovide":9771,"ened":9772,"Ġadded":9773,"ĠDo":9774,"ues":9775,"MediaWiki":9776,"Ġrele":9777,"World":9778,"years":9779,"Ġ2005":9780,"els":9781,"Ġbelieve":9782,"Ġ00":9783,"Ġproble":9784,"ummer":9785,"Ġbest":9786,"wikimedia":9787,"ĠFoundation":9788,"ĠÂ·":9789,"Åį":9790,"Ġaccept":9791,"Please":9792,"Ġsecond":9793,"ĠNational":9794,"ĠPrix":9795,"Ad":9796,"riter":9797,"cies":9798,"ports":9799,"state":9800,"Ġcross":9801,"member":9802,"ĠOlymp":9803,"Ġaccess":9804,"ĠAll":9805,"Ġsources":9806,"Saint":9807,"Ġword":9808,"Ġmove":9809,"TD":9810,"Ġsince":9811,"Ġagainst":9812,"football":9813,"olit":9814,"ĠEurope":9815,"Ġprocess":9816,"Ġfeatures":9817,"-&":9818,"Ġold":9819,"Contents":9820,"uter":9821,"Ġlife":9822,"Ġ//":9823,"epend":9824,"uz":9825,".}}&":9826,"movie":9827,"gram":9828,"ĠKingdom":9829,"2003":9830,"Ġcontent":9831,"ofess":9832,"create":9833,"Ġleft":9834,"reg":9835,"omen":9836,"à¦":9837,"Ġdied":9838,"Ġwikis":9839,"Ġunhelpful":9840,"expr":9841,"2001":9842,"Ġsection":9843,"'''.":9844,"Col":9845,"ician":9846,"ĠMc":9847,";:":9848,"Ġob":9849,"cyclopedia":9850,"middot":9851,"ones":9852,"Ġel":9853,"Ġchoose":9854,"Ġtelevision":9855,"Ġcare":9856,"ensus":9857,"Ġaround":9858,"('":9859,"ights":9860,"Ġprevent":9861,"~~~~&":9862,";]":9863,"Administrators":9864,"raft":9865,"Ġrowspan":9866,"speed":9867,"ĠGen":9868,"vandal":9869,"Ġgr":9870,"Ġexample":9871,"La":9872,"single":9873,"Living":9874,"ought":9875,"fullurl":9876,"Kans":9877,"ĠAd":9878,"ĠRet":9879,"Reflist":9880,"What":9881,"Ġbegin":9882,"ĠX":9883,"ĠOff":9884,"Ġwhile":9885,"diff":9886,"range":9887,"ĠĠĊ":9888,"Ġhope":9889,"Ġmet":9890,"ĠWhen":9891,"ĠSp":9892,"IP":9893,"Ġeven":9894,"ĠCalifornia":9895,"ĠEngland":9896,"ĠSer":9897,"ustralian":9898,"HL":9899,"WE":9900,"ogle":9901,"cfff":9902,"merica":9903,"Ġprojects":9904,"Int":9905,"Ġ01":9906,"Ġsimp":9907,"itation":9908,"ander":9909,"Ġru":9910,"Fr":9911,"2002":9912,"ĠMin":9913,"ĠNo":9914,"Ġcred":9915,"ĠBritish":9916,"ON":9917,"ES":9918,"Ġcode":9919,"ract":9920,"iction":9921,"Ġ***":9922,"Ġpermiss":9923,"ĠState":9924,"editor":9925,"ĠFrench":9926,"Flag":9927,"Ġnomination":9928,"Pi":9929,"=#":9930,"Pri":9931,"Cal":9932,"rel":9933,"Ġattack":9934,"Jim":9935,"Arial":9936,"otect":9937,"Ġ({{":9938,"Ġadmin":9939,"Ġstarted":9940,"established":9941,"nowrap":9942,"language":9943,"=|":9944,"urrican":9945,"aster":9946,";([[":9947,"Ġbr":9948,"Ġef":9949,"ordin":9950,"ours":9951,"South":9952,"stat":9953,"idelines":9954,"September":9955,"Ġ09":9956,"bove":9957,"ĠWest":9958,"North":9959,"uman":9960,"Ġmed":9961,"leanup":9962,"anish":9963,"Ġsaid":9964,"Ġhistory":9965,"ouis":9966,"website":9967,"Ġkind":9968,"And":9969,"ĠSorry":9970,"deletion":9971,"ĠChe":9972,"sw":9973,"effects":9974,"ask":9975,"Ġactors":9976,"uff":9977,"Ġgeneral":9978,"Gr":9979,"Ġoften":9980,"You":9981,"Ġcentury":9982,"Ġleave":9983,"start":9984,"Ġmist":9985,"Commonscat":9986,"ashes":9987,"Â·}}":9988,"restling":9989,"orp":9990,"AR":9991,"II":9992,"109":9993,"convert":9994,"ards":9995,"contribs":9996,"Acc":9997,"ois":9998,"pages":9999,"mlin":10000,"ER":10001,"Ġ*'''":10002,"ssociation":10003,"ifications":10004,"FFC":10005,"cience":10006,"reak":10007,"ety":10008,"Ġ02":10009,"ĠNorth":10010,"sey":10011,"ĠTimes":10012,"Ġsummary":10013,"ĠPark":10014,"ĠOr":10015,"unity":10016,"clubs":10017,"fortun":10018,"Ġval":10019,"209999":10020,"ucfirst":10021,"French":10022,"ĠSe":10023,"For":10024,"Ġwords":10025,"lement":10026,"Ġplayed":10027,"ĠBut":10028,"ssue":10029,"Ġdone":10030,"speedy":10031,"iting":10032,"Cre":10033,"ilit":10034,"Ġorig":10035,"]]'',":10036,"ãĥ":10037,"Ġocc":10038,"Aut":10039,"Ġbox":10040,"Ġsandbox":10041,"ĠCo":10042,"istor":10043,"Ġtoo":10044,"met":10045,"uf":10046,"Ġbecome":10047,"ĠComp":10048,"ĠPar":10049,"ĠMe":10050,"250":10051,"ĠUS":10052,"rol":10053,"Ġpermissions":10054,"Ġpublisher":10055,"Ġfam":10056,"riend":10057,"Ġ{{!}}":10058,"fortunately":10059,"Phil":10060,"Ġstr":10061,"1999":10062,"Ġcharact":10063,"Gu":10064,"ĠChicago":10065,"Ser":10066,";~~~~&":10067,"ildes":10068,"Central":10069,"Ġunique":10070,"Ġput":10071,"Use":10072,"Communes":10073,"iven":10074,"ĠHer":10075,"value":10076,"Ġbad":10077,"ĠBar":10078,"atter":10079,"inkle":10080,"BOT":10081,"display":10082,"Ġdeveloper":10083,"Ġreleased":10084,"ashington":10085,"forts":10086,"urple":10087,"Ġtrans":10088,"going":10089,"road":10090,"Pmlin":10091,"server":10092,"footnotes":10093,"ĠJohn":10094,"Ġabove":10095,"Ġwon":10096,"ĠPer":10097,"Mr":10098,"Ġefforts":10099,"ized":10100,"pid":10101,"Ġquestions":10102,"UK":10103,"ertain":10104,"alian":10105,"urricane":10106,"Stop":10107,"Rep":10108,"ban":10109,"with":10110,"obert":10111,"Ġheight":10112,"El":10113,"Ġauthor":10114,"pick":10115,"ands":10116,"Ġrecord":10117,"ĠUnfortunately":10118,"={{{":10119,"Ġinclude":10120,"CO":10121,"Ġlabel":10122,"TV":10123,"Par":10124,"Ġ900":10125,"ĠAmerica":10126,"Mercy":10127,"emoc":10128,"Ġcellpadding":10129,"search":10130,"Ġet":10131,"orgia":10132,"icies":10133,"Name":10134,"quared":10135,"Christian":10136,"white":10137,"mper":10138,"wikitable":10139,"utral":10140,"Ġwriter":10141,"Ġ2004":10142,"Kansan":10143,"iod":10144,"150":10145,"Ġsource":10146,"ches":10147,"68157":10148,"Ġreview":10149,"ases":10150,"ĠQu":10151,"uns":10152,"score":10153,"Ġeas":10154,"report":10155,"Merge":10156,"January":10157,"Nuvola":10158,"Ġcredited":10159,"Ġeverywhere":10160,"Ġflex":10161,"Ġsever":10162,"Co":10163,"adget":10164,"venience":10165,"spacing":10166,"odes":10167,"zell":10168,"507":10169,"Ġfunction":10170,"Ġsomething":10171,"Ġeach":10172,"stand":10173,"Ġattach":10174,"Ġ(&":10175,"Ġapps":10176,"Ġjournal":10177,"James":10178,"Ġ'''''":10179,"unk":10180,"Ġresp":10181,"RSquared":10182,"rack":10183,"Ġbl":10184,"ĠPal":10185,"|''":10186,"Ġâ":10187,"Ġfew":10188,"As":10189,"Ġflexible":10190,"Ġnotifications":10191,"ĠNot":10192,"Account":10193,"ĠYours":10194,"ĠLia":10195,"Go":10196,"NN":10197,"PiRSquared":10198,"Ġincon":10199,"Ġreserved":10200,"razil":10201,"3372":10202,"Ġsimple":10203,"ĠSo":10204,"Ġcolspan":10205,"Ġpassword":10206,"****":10207,"ĠRam":10208,"!!":10209,"Ġlogging":10210,"Ġlogin":10211,"ains":10212,"Ġim":10213,"Ġinconvenience":10214,"Ġcomments":10215,"ourt":10216,"ĠĠĠĠĠĠĠĠĠĠĠĠĠĠĠĠĠ":10217,"Ġkeep":10218,"Ġpersonal":10219,"Ġele":10220,"ĠLondon":10221,"irc":10222,"Ġge":10223,"âĢĿ&":10224,"Ġclashes":10225,"Ġsur":10226,"}}})":10227,"ĠLiaison":10228,"337219":10229,"Ġ100":10230,"MergeAccount":10231,"ĠPeterzell":10232,"]];":10233,"Ġnear":10234,"ĠRename":10235,"sign":10236,"Ġusually":10237,"river":10238,"pen":10239,"ĠRenamed":10240,"1992":10241,"Renamed":10242,"olic":10243,"Ġla":10244,"}}]].":10245,"!&":10246,"Ġbold":10247,"Issue":10248,"Ġcar":10249,"ĠEn":10250,"hys":10251,"pdf":10252,"ump":10253,"'ve":10254,"':":10255,"emy":10256,"itar":10257,"Cite":10258,"info":10259,"ĠAustralia":10260,"userlogin":10261,"Ġdays":10262,"March":10263,"num":10264,"Ġred":10265,"ĠMichael":10266,"hel":10267,"Ġlanguages":10268,"800":10269,"stead":10270,"Ġ);":10271,"Ġadding":10272,"jp":10273,"ĠJer":10274,"Useful":10275,"ĠHar":10276,"Ġ03":10277,"ĠÐ":10278,"ĠDistrict":10279,"MainPage":10280,"iga":10281,"ply":10282,"]]||[[":10283,"Create":10284,"nical":10285,"Ġhead":10286,"alse":10287,"itt":10288,"Ġmeet":10289,"mag":10290,"ĠHis":10291,"oup":10292,"Ġnamed":10293,"arts":10294,"April":10295,"edu":10296,"irgin":10297,"Ġcellspacing":10298,"Ġtake":10299,"AAAA":10300,"Ġincluding":10301,"ĠGood":10302,"UR":10303,"Ġsend":10304,"hot":10305,"see":10306,"Ġterm":10307,"ilitary":10308,"Ġsent":10309,"Ġday":10310,"Ġchildren":10311,"dministrator":10312,"olf":10313,"fcer":10314,"ĠPress":10315,"JPG":10316,"zh":10317,"341":10318,"Ġreading":10319,"ĠAfter":10320,"Creol":10321,".''":10322,"ows":10323,"arles":10324,"ĠPort":10325,"anton":10326,"subst":10327,"acy":10328,"exas":10329,"Ġmeans":10330,"ocal":10331,"Enfcer":10332,"ĠIS":10333,"].":10334,"Ġpos":10335,"Ġability":10336,"uet":10337,"winkle":10338,"London":10339,"-||":10340,"Har":10341,"term":10342,"Ġlen":10343,"Ġexplain":10344,"ĠInternational":10345,"Ġguidelines":10346,"isode":10347,"Ġcor":10348,"leader":10349,"ĠBel":10350,"Ġcontinue":10351,"lorida":10352,"ĠAnge":10353,"Ant":10354,"Jul":10355,"blank":10356,"Ste":10357,"Europe":10358,"Ġsingle":10359,"Ġseveral":10360,"Ġcareer":10361,"500":10362,"Que":10363,"toolserver":10364,"Ġnuvola":10365,"itude":10366,"Dis":10367,"riate":10368,"Ġmonth":10369,"Ġhappy":10370,"Ġevent":10371,"iles":10372,"omb":10373,"Ġcannot":10374,"ĠRepublic":10375,"Ġproduc":10376,"Ġ*''[[":10377,"history":10378,"No":10379,"wards":10380,"mical":10381,"Ġfamily":10382,"alth":10383,"Ġgovernment":10384,"Ġseen":10385,"position":10386,"Ġ2000":10387,"1998":10388,"Me":10389,"Ġlead":10390,"ĠVandalism":10391,"ĠHistory":10392,"ĠBer":10393,"ĠSm":10394,"Adding":10395,"Nor":10396,"ille":10397,"cre":10398,"Ġdown":10399,"Ġmistake":10400,"179":10401,"Redirected":10402,"ĠRecords":10403,"cad":10404,"GN":10405,"Ġformer":10406,"imat":10407,"Ġideas":10408,"]]'":10409,"Ġlot":10410,"Âł":10411,"Ġaccessdate":10412,"Ġfeel":10413,"BL":10414,"Ġtildes":10415,"##":10416,"BN":10417,"Ġ====":10418,"secure":10419,"cis":10420,"Ġter":10421,"enwp":10422,"ategories":10423,"All":10424,"isse":10425,"Ġstation":10426,"gent":10427,"],":10428,"cri":10429,"commons":10430,"used":10431,"Ġresult":10432,"unicipal":10433,"San":10434,"rox":10435,"Ġlength":10436,"Ġacceptable":10437,"witzer":10438,"213":10439,"iter":10440,"sur":10441,"Mont":10442,"ichard":10443,"Ġsupport":10444,"witzerland":10445,"ides":10446,"Ġ(''":10447,"Ġcaption":10448,"izing":10449,"emocrat":10450,"fb":10451,"Ġ04":10452,"volution":10453,"LI":10454,"Ġpo":10455,"ĠTime":10456,"anadian":10457,"jira":10458,"King":10459,"__":10460,"ergy":10461,"ordinates":10462,"ents":10463,"reek":10464,"abbr":10465,"Details":10466,"Ġbuild":10467,"omas":10468,"Ġdeleted":10469,"jspa":10470,"Ġtown":10471,"CreateIssue":10472,"total":10473,"Ġappears":10474,"sident":10475,"Notification":10476,"IR":10477,"1996":10478,"rab":10479,"ched":10480,"Ġtrying":10481,"shire":10482,"nl":10483,"DF":10484,"Chan":10485,"ĠPresident":10486,"August":10487,"ĠMon":10488,"Ġid":10489,"Ġvertical":10490,"Ġfl":10491,"refect":10492,"ĠAnt":10493,"uen":10494,"bling":10495,"iana":10496,"ĠAny":10497,"oj":10498,"Ġalways":10499,"Ġblocked":10500,"Comp":10501,"witch":10502,"AB":10503,"Ġconf":10504,"Ġ;":10505,"ota":10506,"ization":10507,"1997":10508,"Ġchanged":10509,"ĠGermany":10510,"Ġfollowing":10511,"fd":10512,";|&":10513,";{{{":10514,"Gla":10515,"ĠCha":10516,"ĠØ":10517,"]]{{Â·}}":10518,"actor":10519,"ĠSec":10520,"Yot":10521,"aving":10522,"Ġ({{{":10523,"Ġhome":10524,"December":10525,"ordon":10526,"October":10527,"rove":10528,"ĠNe":10529,";=":10530,"Ġne":10531,"band":10532,"ennedy":10533,"astern":10534,"Ġtyping":10535,"roduction":10536,"ben":10537,"Ġ2001":10538,">[[":10539,"ivil":10540,"ĠSummer":10541,"akistan":10542,"February":10543,"History":10544,"Ġorgan":10545,"asc":10546,"antic":10547,"radius":10548,"Ġactor":10549,"ĠSweden":10550,"William":10551,"à´":10552,"useum":10553,"Ġothers":10554,"ability":10555,"10341":10556,"Ġes":10557,"Ġmakes":10558,"Ġnotice":10559,"Ġ[[:{{{":10560,"issuet":10561,"CreateIssueDetails":10562,"issuetype":10563,"Ġwritten":10564,"ofessional":10565,"bd":10566,"à®":10567,"Port":10568,"Ġinterest":10569,"Ġregion":10570,"iber":10571,"kman":10572,"iddle":10573,"June":10574,"Country":10575,"Ġdetails":10576,"|}}}|{{{":10577,"ably":10578,"ĠSch":10579,"iy":10580,"ĠRuss":10581,"artin":10582,"Ġstud":10583,"number":10584,"oth":10585,"def":10586,"Ġlaw":10587,"Ġsuccess":10588,"ĠImage":10589,"country":10590,"rica":10591,"To":10592,"509":10593,"Ġcountries":10594,"Ġfilm":10595,"Glaisher":10596,"Ġ06":10597,"ource":10598,"ĠSpa":10599,"Ã³n":10600,"mf":10601,"location":10602,"Ġ101":10603,"Ġmunicipality":10604,"Ġparame":10605,"Roman":10606,"Ġnext":10607,"Ġplayers":10608,"]][[":10609,"iw":10610,"usical":10611,"ĠOlympics":10612,".</":10613,"iness":10614,"Ġmod":10615,"Ġstand":10616,"water":10617,"Ġgiven":10618,"ecess":10619,"November":10620,"Ġremember":10621,"ictor":10622,"osh":10623,"will":10624,"ĠAlso":10625,"Death":10626,"Sup":10627,"Ġsomeone":10628,"Policies":10629,"Rel":10630,"ĠPol":10631,"Ġ2003":10632,"dq":10633,"film":10634,"Ġvote":10635,"uke":10636,"}}}}}":10637,"300":10638,"Germany":10639,"Ġrock":10640,"arth":10641,"ired":10642,"quad":10643,"ãĤ":10644,"729":10645,"aff":10646,"pack":10647,"Ġshows":10648,"555":10649,"Ġed":10650,"Ġmembers":10651,"ĠFile":10652,"Ġ.":10653,"1990":10654,"Ġcomment":10655,"ski":10656,"Ġ07":10657,"Gadget":10658,"):":10659,"Gw":10660,"Ġlow":10661,"lood":10662,"inese":10663,"Ġthough":10664,"Ġtimes":10665,"ĠMy":10666,"]]''.":10667,"Mat":10668,"agle":10669,"Ġbar":10670,"olina":10671,"asp":10672,"à¸":10673,"ãģ":10674,"ĠPl":10675,"ĠPaul":10676,"KR":10677,"Ġicon":10678,"Ġcommon":10679,"Fran":10680,"rieved":10681,"ondisse":10682,"raw":10683,"Ġsoon":10684,"Ġ$":10685,"--[[":10686,"Per":10687,"Ġcreating":10688,"Archive":10689,"First":10690,"math":10691,"Ġidea":10692,"Log":10693,"ĠHouse":10694,"Ġinstead":10695,"opular":10696,"ĠNor":10697,"Ġencyclopedia":10698,"Ġscore":10699,"President":10700,"224":10701,"Ġreturn":10702,"wr":10703,"allery":10704,"ĠAf":10705,"tlement":10706,"566":10707,"Introduction":10708,"ĠRambling":10709,"Ġnorth":10710,"Pmlineditor":10711,"David":10712,"orpor":10713,"ĠBest":10714,"Ġwater":10715,"1995":10716,"Ġreally":10717,"Ġhockey":10718,"Ġfa":10719,"Ġlocation":10720,"105":10721,"Ġelect":10722,"NS":10723,"uation":10724,"Ġ05":10725,"Ġbig":10726,"ĠFootball":10727,"Ġthought":10728,"Ġdist":10729,"like":10730,";]])":10731,"oney":10732,"Ġadministrator":10733,"Requested":10734,"separ":10735,"removed":10736,"Ġband":10737,"ih":10738,"density":10739,"Russ":10740,"}}.":10741,";'''''":10742,"oyal":10743,"Ġspa":10744,"earch":10745,"|'''":10746,"song":10747,"ropical":10748,"wedish":10749,"Ġleader":10750,"ĠProvince":10751,"Ġorder":10752,"Min":10753,"vate":10754,"Ġwrong":10755,"Ġperiod":10756,"sports":10757,"lists":10758,"Ġschool":10759,"Ġwar":10760,"ocation":10761,"azine":10762,"Ġeditor":10763,"Ġbottom":10764,"ĠRed":10765,"asons":10766,"Sha":10767,"ĠRo":10768,"bour":10769,"]]}}.":10770,"nam":10771,"July":10772,"ĠMusic":10773,"Ġ50":10774,"bf":10775,"Ã¥":10776,"Ġflag":10777,"Ġ----":10778,"Technical":10779,"overnor":10780,"ĠGr":10781,"122":10782,"991":10783,"Ġcat":10784,"ids":10785,"Ġgames":10786,"Ġdesign":10787,"RA":10788,"Ġ[{{":10789,"ulture":10790,"Ġrun":10791,"dana":10792,"Ben":10793,":|,":10794,"Ġdocu":10795,"ĠIndia":10796,"lete":10797,"Major":10798,"Ġdistrict":10799,"ief":10800,"Ġass":10801,"conom":10802,"ouncil":10803,"aker":10804,"We":10805,"Hello":10806,"Ty":10807,"Ġsubject":10808,"Prop":10809,"GB":10810,"Diff":10811,"Ġland":10812,"ops":10813,"Ġgoing":10814,"Ġlittle":10815,"ellow":10816,"Ġfield":10817,"Ġsk":10818,"illed":10819,"WWE":10820,"FFF":10821,"Canada":10822,"Ġ2002":10823,"lim":10824,"separator":10825,"ior":10826,"enry":10827,"Ġmajor":10828,"ception":10829,"}},":10830,"||||||||":10831,"opment":10832,"medi":10833,"Ġpower":10834,"'ll":10835,"NT":10836,"ĠDis":10837,"imal":10838,"los":10839,"rick":10840,"Ġgreat":10841,"kh":10842,"Ġ#[[":10843,"rag":10844,"Your":10845,"Ġmust":10846,"ID":10847,"Ġnon":10848,"Data":10849,"Ġlive":10850,"Orash":10851,"ĠRes":10852,"1994":10853,"Mic":10854,"Ġep":10855,"Ġmillion":10856,"508":10857,"upation":10858,"quote":10859,"this":10860,"ĠISBN":10861,"Ġsays":10862,"toolbar":10863,"ĠThat":10864,"eth":10865,"ĠOld":10866,"etwork":10867,"Ġvar":10868,"delete":10869,"Ġelse":10870,"Ġprom":10871,"emocratic":10872,"irginia":10873,"olly":10874,"ĠDay":10875,"reed":10876,"umn":10877,"University":10878,"Ġspec":10879,"ĠSchool":10880,"unes":10881,"eration":10882,"Ġofficial":10883,"current":10884,"onia":10885,"516":10886,"ined":10887,"Michael":10888,"Australian":10889,"awa":10890,"Ġgroups":10891,"Ġ55":10892,"reet":10893,"oice":10894,"Ġinfobox":10895,"Ġmatch":10896,"Ġmark":10897,"ĠMS":10898,"ĠUnion":10899,"matash":10900,"atural":10901,"Ġarch":10902,"ĠBlack":10903,"ario":10904,"unicipalities":10905,"alle":10906,"igion":10907,"ĠArmy":10908,"most":10909,"AND":10910,"iro":10911,"104":10912,"Ġreply":10913,"EW":10914,"Ġem":10915,"Brazil":10916,"ĠEl":10917,"USA":10918,"118":10919,"Ġ[[::":10920,"107":10921,";|-||":10922,"1980":10923,"based":10924,"ĠJack":10925,"|[[::":10926,"CR":10927,"Ġ--[[::":10928,"uh":10929,"ymb":10930,"ifexpr":10931,"Ġair":10932,"Comic":10933,"imil":10934,"Ġ!!":10935,"Ġbody":10936,"ĠEmp":10937,"refecture":10938,"Orashmatash":10939,"News":10940,"ĠOfficial":10941,"Robert":10942,"aq":10943,"album":10944,"Ġgot":10945,"ushpin":10946,"ĠAngeles":10947,"Alex":10948,"Eur":10949,"ĠLa":10950,"CD":10951,"YY":10952,"Ġrest":10953,"Ġexperi":10954,"Ġexp":10955,"switch":10956,"Reverted":10957,"ultip":10958,"Eh":10959,"196":10960,"four":10961,"ission":10962,"TDKR":10963,"Times":10964,"active":10965,"Ġ|----":10966,"aseball":10967,"ĠSha":10968,"Ġquestion":10969,"Links":10970,"Ġjoin":10971,"CA":10972,"539":10973,"Ġearly":10974,"Ġtrue":10975,"nect":10976,"Ġfact":10977,"Gordon":10978,"Ryan":10979,"usiness":10980,"áĥ":10981,"Ġeng":10982,"]]-":10983,"lad":10984,"ĠIsland":10985,"Sch":10986,"212":10987,"uv":10988,"Ġeither":10989,"aught":10990,"Ġcenter":10991,"Ġdocument":10992,"ĠChris":10993,"polit":10994,"Ġeditors":10995,"ĠGo":10996,"ĠFran":10997,"Non":10998,"oser":10999,"admins":11000,"By":11001,"ĠJersey":11002,";}}":11003,";]]'''":11004,"Ġaway":11005,"Americans":11006,"Only":11007,"Atl":11008,"ĠTr":11009,"Tah":11010,"ĠSans":11011,"ots":11012,"Mon":11013,"Gwib":11014,"ucation":11015,";â":11016,"Ġtell":11017,"')":11018,"gether":11019,"106":11020,"ĠArt":11021,"Artic":11022,"Georgia":11023,"Book":11024,"Ġstudi":11025,"116":11026,"Cross":11027,"Ġblank":11028,"Sec":11029,"Ġformat":11030,")}}":11031,"Cap":11032,"cip":11033,"rules":11034,"Ġdem":11035,"ĠChurch":11036,"Ġcleanup":11037,"onor":11038,"ĠHigh":11039,"114":11040,"oul":11041,"ĠAct":11042,"efcfff":11043,"perimenting":11044,"ills":11045,"108":11046,"stitution":11047,"ĠAut":11048,"117":11049,"'re":11050,"132":11051,"llin":11052,"gal":11053,"ival":11054,"ambig":11055,"Ġrequ":11056,"cont":11057,"Ġsubdivision":11058,"establish":11059,"Ġtemp":11060,"imate":11061,"brary":11062,"writer":11063,"ĠName":11064,"Ġvalign":11065,"LA":11066,"Ġ:::::":11067,"owns":11068,"CS":11069,"andy":11070,"offset":11071,"ignpost":11072,"EE":11073,"ras":11074,"ĠLin":11075,"216":11076,"Ġcase":11077,"cj":11078,"1993":11079,"llinois":11080,"olk":11081,"Ġmer":11082,"onsin":11083,"wikix":11084,"Ġmargin":11085,"ĠTexas":11086,"ĠLouis":11087,"kJ":11088,"youth":11089,"County":11090,"Ġprob":11091,"length":11092,"liner":11093,"ĠAm":11094,"isconsin":11095,"'')":11096,"Ġprotect":11097,"utch":11098,"Wwikix":11099,"ĠEuropean":11100,"126":11101,"Tahoma":11102,"Ġenough":11103,"ered":11104,"Sw":11105,"uggest":11106,"wy":11107,"anta":11108,"ctions":11109,"125":11110,"exico":11111,"/|":11112,"Ġclose":11113,"har":11114,"irl":11115,"utc":11116,"115":11117,"147":11118,"Ġspecies":11119,"Ġdel":11120,"ais":11121,"Id":11122,"}}||":11123,"ĠFlorida":11124,"Ġprocessed":11125,"player":11126,"LLLLLLLL":11127,"Mh":11128,"ado":11129,"Ġhig":11130,"|}}}{{{":11131,"fect":11132,"gel":11133,"ĠAwards":11134,"Ġdr":11135,"Ġpartic":11136,"ĠOF":11137,"dark":11138,"Mal":11139,"ĠPen":11140,"Ġfamous":11141,"Ġsinger":11142,"fy":11143,"outhern":11144,"Ġluck":11145,"rigin":11146,"Ġexperimenting":11147,"Ġproblems":11148,"riz":11149,"Ġcorrect":11150,"ĠYear":11151,"fn":11152,"Ġsouth":11153,"oving":11154,"Ġpolitician":11155,"imilar":11156,"ĠMet":11157,"obel":11158,"166":11159,"Ġsha":11160,"Ġvol":11161,"Get":11162,"ureau":11163,"adio":11164,"het":11165,"dian":11166,"ĠPage":11167,"ĠMany":11168,"ransport":11169,"osop":11170,"aution":11171,"Ġ1988":11172,"Ġstru":11173,"ĠÃ":11174,"424":11175,";{{#":11176,"anet":11177,"235":11178,"Ġcame":11179,"Ġ1999":11180,"507729":11181,"cit":11182,"----------------":11183,"Rob":11184,"Ġhard":11185,"iled":11186,"Ġweek":11187,"Ġspecial":11188,"ĠCollege":11189,"ependent":11190,"Ġdesc":11191,"party":11192,"Pl":11193,"ences":11194,"cription":11195,"amb":11196,"inline":11197,"LE":11198,"ĠWill":11199,"6969":11200,"England":11201,"erty":11202,"Ġpopular":11203,"alf":11204,"ĠSen":11205,"Ġrece":11206,"Ġmon":11207,"ĠJames":11208,"reland":11209,"ĠJust":11210,"Ġagree":11211,"roup":11212,"878":11213,"ĠChan":11214,"110":11215,"ĠEast":11216,"Italy":11217,"Ġproblem":11218,"jj":11219,"Ġfull":11220,"ĠTeam":11221,"Tr":11222,"ĠAssociation":11223,"Ġdoing":11224,"3333":11225,"oft":11226,"Ġiss":11227,"695":11228,"Em":11229,"207":11230,"ires":11231,"mperor":11232,"kr":11233,"Ġprodu":11234,"Ġblack":11235,"ĠUnhelpful":11236,"Gordonrox":11237,"Reg":11238,"Ġvalue":11239,"ĠHall":11240,"amm":11241,"ĠMont":11242,"cz":11243,"arget":11244,"Ġbegan":11245,"was":11246,"Ġpresent":11247,"Ġneeded":11248,"113":11249,"Ġemp":11250,"Ġgrow":11251,"Paul":11252,"TI":11253,"ĠMor":11254,"prop":11255,"ĠMost":11256,"otland":11257,"adium":11258,"Ġwinn":11259,"gold":11260,"ĠBook":11261,"OS":11262,"ĠNHL":11263,"ĠSub":11264,"Charles":11265,"Caution":11266,"EhJ":11267,"129":11268,"Ġexist":11269,"ĠSup":11270,"ĠMinister":11271,"pha":11272,"Ġlooks":11273,"alls":11274,"Ġworking":11275,"Neutral":11276,"Ġdue":11277,"bj":11278,"ouri":11279,"}})":11280,"Spanish":11281,"cmd":11282,"ĨĴ":11283,"dx":11284,"Stat":11285,"Cha":11286,"anted":11287,"anks":11288,"hest":11289,"ĠEmpire":11290,"ĠBl":11291,"aterial":11292,"Ġcategories":11293,"anc":11294,"ĠCor":11295,"Ġ-[[":11296,"ipp":11297,"Verdana":11298,"nh":11299,"ingles":11300,"Ġcommunity":11301,"189":11302,"'''!":11303,"ĠLight":11304,"DST":11305,"Green":11306,"Met":11307,"reason":11308,"Ġissue":11309,"999":11310,"bw":11311,"ilver":11312,"Ġcapital":11313,"Ġfr":11314,";\\":11315,"Ġcompany":11316,"ĠĠĠĠĠĠĠĠĠĠĠĠĠĠĠĠĠĠ":11317,"Ġclos":11318,"ĠMac":11319,"Ġdoesn":11320,"âĢĶ||":11321,"ient":11322,"TH":11323,"194":11324,"cademy":11325,"Ġunderstand":11326,"fra":11327,"Ġhappened":11328,"LIGN":11329,"ountain":11330,"Userlogin":11331,"ĠStyle":11332,"ffff":11333,"vocal":11334,"ĠKore":11335,"Class":11336,"]]).":11337,"aria":11338,"Ġsite":11339,"195":11340,"qv":11341,"inc":11342,"ender":11343,"Ġneeds":11344,"101":11345,"oly":11346,"ĠPhil":11347,"Ġlists":11348,"Ġnotable":11349,"iography":11350,"Cities":11351,"itions":11352,"Ġgives":11353,"ĠALIGN":11354,"Ġbuilt":11355,"BB":11356,"iament":11357,"cover":11358,"journal":11359,"atin":11360,"186":11361,"quent":11362,"Ġte":11363,"Ġparts":11364,"department":11365,"vandalizing":11366,"ĠTV":11367,"Ġliving":11368,"178":11369,"ĠBC":11370,"ato":11371,"moz":11372,"Ġartist":11373,"Lights":11374,"lah":11375,"fg":11376,"');":11377,"Ġpublic":11378,"serv":11379,"Pe":11380,"atholic":11381,"\">&":11382,"Ġopen":11383,"ĠRail":11384,"pose":11385,"kj":11386,"Ġbo":11387,"lav":11388,"ĠDi":11389,"Ġprogram":11390,"ondissement":11391,"vir":11392,"Ġless":11393,"osaur":11394,"isbn":11395,"Ġrevision":11396,"istry":11397,"Ep":11398,"AP":11399,"Ġ'''''[[":11400,"itional":11401,"idence":11402,"Ġcond":11403,"epartments":11404,"Japanese":11405,"ĠOb":11406,"Ġmen":11407,"qj":11408,"ĠAg":11409,"Ġvideo":11410,"Ass":11411,"ĠBay":11412,"Et":11413,"kn":11414,"Air":11415,"recent":11416,"MB":11417,"ording":11418,"Ġ*''":11419,"Ġvari":11420,"Ġconsidered":11421,"Ġsuggest":11422,"Ġproper":11423,"Spam":11424,"Sav":11425,"odyne":11426,"Ġfive":11427,"BLOCK":11428,"ouble":11429,"Laur":11430,"Ġtogether":11431,"tie":11432,"Ġprobably":11433,"gian":11434,"238":11435,"Scream":11436,"ĠCenter":11437,"Ġdirector":11438,"Ġnever":11439,"icians":11440,"BS":11441,"Ġimprove":11442,"1988":11443,"qx":11444,"uses":11445,"149":11446,"ĠGreat":11447,"209":11448,"1991":11449,"aken":11450,"233":11451,"Ġmag":11452,"Ġ**[[":11453,"ĠIII":11454,"Ġwest":11455,"MD":11456,"ological":11457,"Ġcharacter":11458,"thod":11459,"spaper":11460,"roy":11461,"references":11462,"BG":11463,"trans":11464,"ublican":11465,"ĠEagle":11466,"ederal":11467,"esh":11468,"??":11469,"Dan":11470,"GA":11471,"Ġcomputer":11472,";).":11473,"ĠFirst":11474,"Ġtook":11475,"Barliner":11476,"|(":11477,"ĠCom":11478,"ĠAust":11479,"owa":11480,"frican":11481,"ĠMer":11482,"Brown":11483,"Ġones":11484,"ĠBrit":11485,"103":11486,"ĠCan":11487,"Ġengine":11488,"Ġpop":11489,"},":11490,"ĠSan":11491,"Jo":11492,"Ġplaces":11493,"Te":11494,"Ġtw":11495,"ribe":11496,"}}}&":11497,"Ġ1998":11498,"Ġwent":11499,"Ġlight":11500,"tiv":11501,"Gold":11502,"Mark":11503,"labama":11504,"ntertain":11505,"strong":11506,"Ġequ":11507,"180":11508,"Ġposition":11509,"Edward":11510,"Ġfriend":11511,"Ġfaith":11512,"Ġclear":11513,"Ġsimilar":11514,"Ġlargest":11515,"Battle":11516,"cean":11517,"ĠJapanese":11518,"district":11519,"43555":11520,"Act":11521,"ixed":11522,"Tele":11523,"ĠBo":11524,"Tur":11525,"ovel":11526,"alo":11527,"International":11528,"Ġmaterial":11529,"130":11530,"Ġbooks":11531,"FFFFFF":11532,"Ber":11533,"cmdr":11534,"ĠPre":11535,"Sub":11536,".,":11537,"Ġactress":11538,"Str":11539,"Ġpresident":11540,"war":11541,"zt":11542,"ĠVal":11543,"benef":11544,"kl":11545,"option":11546,"217":11547,"Ġable":11548,"Pop":11549,"Ġclick":11550,"ING":11551,"wg":11552,"ĠCanada":11553,"Ġunblocked":11554,"139":11555,"}}}}}}":11556,"je":11557,"1989":11558,"2489":11559,"Ġprop":11560,"ampa":11561,"ĠAlbum":11562,"Jeff":11563,"Ġsort":11564,"Ġsometimes":11565,"Related":11566,"amer":11567,"Ġfather":11568,"ĠPeople":11569,"opyright":11570,"158":11571,"establishments":11572,"Ġdelete":11573,"ĠWisconsin":11574,"UN":11575,"ĠFin":11576,"cale":11577,"icture":11578,"tif":11579,"ĠConf":11580,"ĠTer":11581,"'d":11582,"Ġharm":11583,"!]]":11584,"Polit":11585,"vocalScream":11586,"Most":11587,"Ġgener":11588,"bridge":11589,"Ġallowed":11590,"203":11591,"Ġpubl":11592,"ĠMunicipality":11593,"Ã§":11594,"Ġreal":11595,"ĠPrefecture":11596,"Ġextra":11597,"ounds":11598,"ĠCap":11599,"ĠChina":11600,"ultiple":11601,"Ġcha":11602,"Black":11603,"Ġestablished":11604,"ĠMiss":11605,"hemat":11606,"Jack":11607,"ubs":11608,"Max":11609,";;":11610,"ĠAtl":11611,"gend":11612,"changes":11613,"NonvocalScream":11614,"Ġint":11615,"AL":11616,"Ġnorm":11617,"ĠBy":11618,"articles":11619,"208":11620,"400":11621,"ccer":11622,"Ġbas":11623,"oph":11624,"ĠAfrica":11625,"ictoria":11626,"567":11627,"part":11628,"(&":11629,"utes":11630,"rec":11631,"Ġdisplay":11632,"Ab":11633,"Ġresearch":11634,"oviet":11635,"Ġshortly":11636,"ĠClass":11637,"Ġnames":11638,"ĠAirport":11639,".--&":11640,"ĠHead":11641,"Canadian":11642,"bg":11643,"pet":11644,"Ġ33":11645,"oreki":11646,"kt":11647,"Ġ148":11648,"112":11649,"iams":11650,"ongo":11651,"arnstar":11652,"Ġment":11653,"FB":11654,"Def":11655,"cv":11656,"xq":11657,"Ġcontrol":11658,"Julian":11659,"Ġoriginal":11660,"}}]]":11661,"arter":11662,"intr":11663,"ĠHockey":11664,"Ġrail":11665,"ĠWeb":11666,"ero":11667,"usion":11668,"Ġwhite":11669,"ĠGeneral":11670,"dow":11671,"AS":11672,"organ":11673,"otion":11674,"ĠAsh":11675,"Auth":11676,"undes":11677,"Ġhours":11678,"Can":11679,"Horeki":11680,"204":11681,"Ġson":11682,"Ġperfor":11683,"Ġ1990":11684,"0066":11685,";);":11686,"Ġlat":11687,"epar":11688,"omy":11689,"ĠSmith":11690,"oseph":11691,"ecessor":11692,"...&":11693,"Sports":11694,"Richard":11695,"ĠWashington":11696,"Don":11697,"ucky":11698,"cfcfff":11699,"therlands":11700,"ĠMag":11701,"commune":11702,"Ġ*/</":11703,"168":11704,"orange":11705,"Australia":11706,"Ġfixed":11707,"Ġcover":11708,"248920":11709,"aven":11710,"eal":11711,"section":11712,"Ġstates":11713,"idae":11714,"ador":11715,"Ġmeaning":11716,"Ġalong":11717,"elling":11718,"435":11719,"Ã´":11720,"ised":11721,"atul":11722,"Ġrepla":11723,"sert":11724,"Ġdiv":11725,"nouncements":11726,"Ġmarried":11727,"Ġcities":11728,"ĠRegion":11729,"Music":11730,"oints":11731,"Ġ:)":11732,"EC":11733,"quare":11734,"188":11735,"Property":11736,"Ġsongs":11737,"Sm":11738,"cially":11739,"ennis":11740,"Frank":11741,"ĠSw":11742,"Ġoccupation":11743,"ili":11744,"Chicago":11745,"ogn":11746,"Ġpast":11747,"udd":11748,"7700":11749,"Av":11750,"Chemical":11751,"Aust":11752,"Ġsimpl":11753,"amni":11754,"140":11755,"1987":11756,"urban":11757,"1986":11758,"Ġapprop":11759,"Jon":11760,"Ġthird":11761,"rich":11762,"Ġeasy":11763,"mult":11764,"Ġstay":11765,"Script":11766,"Ġsettlement":11767,"WikiProject":11768,"Ġspace":11769,"icult":11770,"jv":11771,"002":11772,"MainPageBG":11773,"Spain":11774,"true":11775,"atino":11776,"Ġcla":11777,"uri":11778,"Do":11779,"East":11780,"Ġoption":11781,"zx":11782,"story":11783,"ĠPe":11784,"bec":11785,"Ġetc":11786,"Wikiped":11787,"Ġri":11788,"16695":11789,"Ġscope":11790,"Ġcop":11791,"Trans":11792,"Ġcertain":11793,"ĠChrist":11794,"ĠĠĠĠĠĠĠĠĠĠĠĠĠĠĠĠĠĠĠ":11795,"ĠWales":11796,"Ġ::::":11797,"ML":11798,"Ġdise":11799,"Pat":11800,"ĠSignpost":11801,"ongress":11802,"510":11803,"ĠGod":11804,"ĠQue":11805,"427":11806,"Ġcharacters":11807,"Sam":11808,"ĠThree":11809,"193":11810,"false":11811,"ATE":11812,"aki":11813,"Majorly":11814,"Etamni":11815,"230":11816,"Either":11817,"ĠEst":11818,"145":11819,"artist":11820,"177":11821,"ĠTwinkle":11822,"rock":11823,"break":11824,"ĠWhat":11825,"mx":11826,"pect":11827,"writ":11828,"from":11829,"Ġ40":11830,"stein":11831,"Ġident":11832,"Ġself":11833,"197":11834,"kx":11835,"Star":11836,"Ġstatus":11837,"meta":11838,"Sort":11839,"dts":11840,"Ã±":11841,"ĠWith":11842,"ĠLi":11843,"ĠCarolina":11844,"zv":11845,"oute":11846,"gray":11847,"ymbol":11848,"ait":11849,"acts":11850,"ĠJr":11851,"1970":11852,"igan":11853,"jx":11854,"Sweden":11855,"Ġtags":11856,"430":11857,"Ġhaving":11858,"lection":11859,"1982":11860,"206":11861,"Announcements":11862,"Cur":11863,"ĠCompany":11864,"FD":11865,"190":11866,"1984":11867,"ĠFrom":11868,"hol":11869,"NG":11870,"Ġ1997":11871,"Ġactive":11872,"ended":11873,"Ġoffice":11874,"Ġorigin":11875,"Ġissu":11876,"uji":11877,"remier":11878,"official":11879,"Ġvot":11880,"148":11881,"ĠMad":11882,"DJ":11883,"Res":11884,"Bob":11885,"];":11886,"category":11887,"aries":11888,"Ġappropriate":11889,"Ġattacks":11890,"ĠGreen":11891,"ĠRock":11892,"ĠItalian":11893,"ovies":11894,"Ġdecide":11895,"has":11896,"428":11897,"chester":11898,"Ġoper":11899,"Ġdeb":11900,"lying":11901,"crat":11902,"808":11903,"document":11904,"rish":11905,"Pre":11906,"Ã¢":11907,"Ġtech":11908,"ohns":11909,"qd":11910,"ĠSquad":11911,"Ġwhe":11912,"ĠDa":11913,"cx":11914,"Area":11915,"ĠCast":11916,"Ġwithin":11917,"Ġuses":11918,"Ġstrong":11919,"Ġlate":11920,"erd":11921,"asket":11922,"Italian":11923,"175":11924,"ifeq":11925,"oftw":11926,"Ġchoice":11927,"ators":11928,"So":11929,"170":11930,"Ġ1996":11931,"Ġsix":11932,"CentralAuth":11933,"ĠCouncil":11934,"ĠWrestling":11935,"ĠHere":11936,"429":11937,"rv":11938,"default":11939,"bx":11940,"ylvan":11941,"227":11942,"Ġinstru":11943,"none":11944,"Eurodyne":11945,"abor":11946,"ising":11947,"illy":11948,"Ġav":11949,"Great":11950,"ĠTwo":11951,"ĠIts":11952,"Mil":11953,"Ġkey":11954,"109566":11955,"inda":11956,"Ġthing":11957,"Ġalbums":11958,"oftware":11959,"128":11960,"onds":11961,"Delete":11962,"Prime":11963,"roadcast":11964,"Ġlived":11965,"Tb":11966,"ĠIllinois":11967,"Ġreplace":11968,"ems":11969,"Ġkilled":11970,"qy":11971,"ĠMuseum":11972,"orial":11973,"Sport":11974,"Ġstory":11975,"173":11976,"Ġ1995":11977,"bv":11978,"ips":11979,"Billz":11980,"Ġcontribut":11981,"Purple":11982,"167":11983,"ending":11984,"return":11985,"Ġround":11986,"acc":11987,"|â":11988,"()":11989,"ntertainment":11990,"ĠUK":11991,"Ġprovince":11992,"Username":11993,"Ġspecific":11994,"Ġupd":11995,"Los":11996,"osed":11997,"gallery":11998,"Billboard":11999,"Ġwriting":12000,"ĠFe":12001,"Ġtypes":12002,"ĠGold":12003,"colton":12004,"ĠVirginia":12005,"Ġscient":12006,"tionary":12007,"main":12008,"ĠPalatino":12009,"qw":12010,"tired":12011,"ĠPrize":12012,"Ġlooking":12013,"ĠJackson":12014,"RyanCross":12015,"Ġhold":12016,"hh":12017,"ĠDepartment":12018,"ĠSte":12019,"Child":12020,"ailing":12021,"Christ":12022,"postal":12023,"ctic":12024,"ĠTra":12025,"SER":12026,"ĠInc":12027,"146":12028,"imon":12029,"ĠMass":12030,"Ġ\\":12031,"159":12032,"iable":12033,"Bo":12034,"BBC":12035,"Ven":12036,"cw":12037,"ĠCont":12038,"toad":12039,"Ġpe":12040,"160":12041,"uth":12042,"1983":12043,"137":12044,"case":12045,"qz":12046,"ĠCat":12047,"event":12048,"ictures":12049,"Ġlocal":12050,"stan":12051,"elle":12052,"fj":12053,"Ġsepar":12054,"ĠKent":12055,"Ġrelated":12056,"Ġheld":12057,"à¥":12058,"1979":12059,"Ġtransl":12060,"umbia":12061,"Ġnav":12062,"Ġyoung":12063,"ĠGra":12064,"1985":12065,"ĠPat":12066,"rook":12067,"ulf":12068,"Cy":12069,"Ã£":12070,"'''''&":12071,"stitute":12072,"ĠSoci":12073,"rup":12074,"ĠWikiped":12075,"Ġnationality":12076,"}}}|}}&":12077,"ĠHelp":12078,"eweb":12079,"pol":12080,"coordinates":12081,"onto":12082,"otype":12083,"ults":12084,"Time":12085,"ickname":12086,"aspx":12087,"ĠLaw":12088,"ĠâĢľ":12089,"174":12090,"iab":12091,"ĠBur":12092,"Ġpur":12093,"success":12094,"mt":12095,"iller":12096,"jan":12097,"ofile":12098,"ĠMary":12099,"184":12100,"Ġ}}{{":12101,"138":12102,"icine":12103,"Mag":12104,"JPN":12105,"Lauryn":12106,"Louis":12107,"ylvania":12108,"interest":12109,"Ġrather":12110,"imals":12111,"ause":12112,"Mc":12113,"Ġguide":12114,"onym":12115,"ored":12116,"Ġmind":12117,"fv":12118,"ailable":12119,"abeth":12120,"Ġwomen":12121,"Da":12122,"|'''&":12123,"Ġrole":12124,"Ġtrad":12125,"hand":12126,"Ġpract":12127,"ĠTH":12128,"CH":12129,"heim":12130,"arian":12131,"vandalize":12132,"onsense":12133,"ribution":12134,"Ġhouse":12135,"singer":12136,"Element":12137,")]],":12138,"mdash":12139,"ĠDuring":12140,"issue":12141,"EhJJ":12142,".}}":12143,"ĠMT":12144,"otor":12145,"illage":12146,"Clement":12147,"Ġparty":12148,"ĠCal":12149,"etts":12150,"Ġarms":12151,"529":12152,"qr":12153,"Ġdi":12154,"169":12155,"iger":12156,"1981":12157,"owski":12158,"volume":12159,"cussion":12160,"hio":12161,";'''[[":12162,"ndar":12163,"roll":12164,"havi":12165,"ilia":12166,"ĠPakistan":12167,"nology":12168,"Ġpp":12169,"Ġtow":12170,"ĠDavid":12171,"vest":12172,"Ġ=[[":12173,"Been":12174,"249":12175,"Ġ45":12176,"hors":12177,"citeweb":12178,"ĠFilm":12179,"Ġturn":12180,"ĠWilliam":12181,"xford":12182,"Citing":12183,"Ġstage":12184,"ĠVol":12185,"gium":12186,"andid":12187,"Ġreferences":12188,"Ġplan":12189,"Text":12190,"odd":12191,"Her":12192,"Ġ1994":12193,"Ġdepartment":12194,"226":12195,"qh":12196,"manager":12197,"Ġwind":12198,"Ġpublished":12199,"Rock":12200,"''':":12201,"210":12202,"205":12203,"White":12204,"bbc":12205,"bh":12206,"Copyright":12207,"Ġnative":12208,"purple":12209,"ĠArch":12210,"ixing":12211,"185":12212,"Ġdivision":12213,"Ġriver":12214,"OnMainPage":12215,"BeenOnMainPage":12216,"ĠLife":12217,"Juliancolton":12218,"Ġrights":12219,"Ġcy":12220,"Ġhuman":12221,"119":12222,"ĠBoy":12223,"ĠAlt":12224,"ribut":12225,"prec":12226,"ustom":12227,"Ġlo":12228,"liga":12229,"ĠForm":12230,"Äģ":12231,"Ġfood":12232,"asketball":12233,"Ġfight":12234,"though":12235,"ounded":12236,"Ġdefe":12237,"17988":12238,"nz":12239,"Ġ'''{{":12240,"ĠGroup":12241,"ĠBrown":12242,"replace":12243,"Ġcomplex":12244,"136":12245,"156":12246,"Ġphot":12247,"âĢĶ||âĢĶ||":12248,"Birth":12249,"rig":12250,"ottish":12251,";-":12252,"Ġplays":12253,"225":12254,"ishing":12255,"Ġcurrently":12256,"ĠPet":12257,"Color":12258,"ChristianMan":12259,"800000":12260,"ĠGames":12261,"Ġmat":12262,"sr":12263,"itch":12264,"fD":12265,"228":12266,"gv":12267,"velopment":12268,"à²":12269,"append":12270,";'":12271,"Ġlik":12272,"ĠLove":12273,"Ġoffic":12274,"hib":12275,"248":12276,"Wik":12277,"bad":12278,"Deaths":12279,"dale":12280,"();":12281,"oston":12282,"IA":12283,"Reception":12284,"]]),":12285,"acific":12286,"jr":12287,"Ġrepresent":12288,".'''":12289,"Ġgiving":12290,"Washington":12291,"ĠClub":12292,"achus":12293,"Getting":12294,"Ġtotal":12295,"1975":12296,"stra":12297,"Ġestablishments":12298,"='''":12299,"ennert":12300,"ĠAustralian":12301,"Cleanup":12302,"ĠWil":12303,"Thomas":12304,"Ġcr":12305,"cor":12306,"Ġactually":12307,"Ġmonths":12308,"introduction":12309,"eld":12310,"known":12311,"Ġelection":12312,"Ġareas":12313,"Off":12314,"asure":12315,"cb":12316,"pw":12317,"qt":12318,"Ġ1982":12319,"amples":12320,"ĠGeorge":12321,"ĠLine":12322,"nsylvania":12323,"Ġproducer":12324,"Departments":12325,"pv":12326,"retary":12327,"Ġhighest":12328,"Hyd":12329,"Savh":12330,"Ġleaving":12331,"mr":12332,"Ġtour":12333,"Ġfun":12334,"Ġve":12335,"fz":12336,"Val":12337,"Ãī":12338,"1976":12339,"level":12340,"ĠIslands":12341,"okyo":12342,"Ġdies":12343,"Ġprivate":12344,"Flagicon":12345,"BE":12346,"pecially":12347,"Ġkm":12348,"Tbennert":12349,"Mad":12350,"mir":12351,";.&":12352,"real":12353,"Ã£o":12354,"Ġ188":12355,"Ġwat":12356,"Ġnone":12357,"gw":12358,"Ġaward":12359,"approp":12360,"ĠSwitzerland":12361,"Super":12362,"/[[":12363,"oday":12364,"emale":12365,"ĠDon":12366,"ĠRel":12367,"Ġever":12368,"Ġscript":12369,"1978":12370,"City":12371,"176":12372,"Ġimages":12373,"mend":12374,"ĠOk":12375,"Ġinvol":12376,"arliament":12377,"qn":12378,"achusetts":12379,"ĠKnight":12380,"jw":12381,"259":12382,"243":12383,"ĠIreland":12384,"ĠMat":12385,"]]''&":12386,"Clementina":12387,"italic":12388,"ĠHill":12389,"Ġdifficult":12390,"ographic":12391,"rael":12392,"Ġsy":12393,"121":12394,"ansas":12395,"153":12396,"ĠWhite":12397,"533":12398,"770044":12399,"127":12400,"Ġdisease":12401,"pref":12402,"MS":12403,"kz":12404,"Ġaff":12405,"Ġ1992":12406,"ĠBen":12407,"ĠUp":12408,"Ġrequests":12409,"biology":12410,"but":12411,"ĠPla":12412,"240":12413,"ĠPost":12414,"Yotcmdr":12415,"Ġrange":12416,"])":12417,"onne":12418,"ĠDr":12419,"ĠAlabama":12420,"Dr":12421,"Big":12422,"Link":12423,"jz":12424,"165":12425,"iology":12426,"Ġparent":12427,"gx":12428,"ugia":12429,"Ro":12430,"Ġmodern":12431,"appropriate":12432,"una":12433,"111":12434,"ĠSal":12435,"1968":12436,"Ġtaken":12437,"bish":12438,"kd":12439,"ati":12440,"timezone":12441,"nels":12442,"Play":12443,"coord":12444,"Ġdest":12445,"Ġbit":12446,"234":12447,"MI":12448,"ntario":12449,"taintoad":12450,"133":12451,"udio":12452,"Ġmusical":12453,"bury":12454,"tre":12455,"Ġ1993":12456,"IRC":12457,"hold":12458,"sper":12459,"Will":12460,"ĠOut":12461,"Ġrom":12462,"ĠDes":12463,"Ġdead":12464,"|}}}&":12465,"OL":12466,"ecut":12467,"Ġfounded":12468,"California":12469,"Ġvandal":12470,"COL":12471,"ector":12472,"Ġenjoy":12473,"alter":12474,"ohnson":12475,"jn":12476,"rill":12477,"ĠStat":12478,"Ġparameters":12479,"Tom":12480,"Ġfalse":12481,"Ġavailable":12482,"aska":12483,"ĠMore":12484,"Ġhost":12485,"1977":12486,"iew":12487,"Ġmother":12488,"ĠSociety":12489,"Ġonce":12490,"ĠChristian":12491,"2453":12492,"Ġbuilding":12493,"164":12494,"ureaucrat":12495,"Haz":12496,"Chemicalinterest":12497,"ED":12498,"just":12499,"********":12500,"unit":12501,"ĠBG":12502,"Ġalthough":12503,"oke":12504,"202":12505,"Ġfig":12506,"Number":12507,"1972":12508,"ĠEarth":12509,"ĠSystem":12510,"elly":12511,"Ġking":12512,"mh":12513,"Ġdia":12514,"ĠCentral":12515,"Copyrights":12516,"144":12517,"cape":12518,"Association":12519,"ĠMen":12520,"Ġvand":12521,"Steven":12522,"nat":12523,"oducer":12524,"Ġtable":12525,"mas":12526,"Henry":12527,"ĠReg":12528,"olar":12529,"ynast":12530,"SJ":12531,"month":12532,"Ġtagged":12533,"obox":12534,"ĠQ":12535,"IST":12536,"ĠHam":12537,"Ġincluded":12538,"riteria":12539,"FL":12540,"ĠLightning":12541,"ication":12542,"Ġinfl":12543,"ĠMo":12544,"lb":12545,"Bas":12546,"Ġcall":12547,"Ġmilitary":12548,".)":12549,"EV":12550,"ylbec":12551,"chools":12552,"onment":12553,"Tor":12554,"18539":12555,"Ġĉĉĉĉĉ":12556,"Ġdescrib":12557,"iang":12558,"atulous":12559,"ylbecatulous":12560,"187":12561,"mayor":12562,"Ġobject":12563,"gypt":12564,"aves":12565,"ĠTur":12566,"flo":12567,"ĠAdd":12568,"ĠSeries":12569,"Second":12570,"fh":12571,"Ġeff":12572,"Ġcomes":12573,"ĠVer":12574,"ached":12575,"1974":12576,"vv":12577,"Fl":12578,"Ġport":12579,"Ġseat":12580,"239":12581,"ĠCa":12582,"Ġissues":12583,"548":12584,"lage":12585,"Ġtoday":12586,"Some":12587,"449":12588,"Ġ1980":12589,"attern":12590,"incess":12591,"Nat":12592,"Ġ43":12593,"Ġinappropriate":12594,"darkgreen":12595,"Ġrules":12596,"ĠMa":12597,"Ã¼r":12598,"ĠChart":12599,"503":12600,"Martin":12601,"ĠArea":12602,"ĠFrancis":12603,"exist":12604,"War":12605,"mz":12606,"dec":12607,"ĠAgain":12608,"undesliga":12609,"ĠWikidata":12610,"isodes":12611,"citation":12612,"Ġwrestling":12613,"Start":12614,"Ġblocks":12615,"154":12616,"ĠSaint":12617,"Ġwatch":12618,"Del":12619,"ĠSu":12620,"Purpleback":12621,"ĠFormula":12622,"Ġhurricane":12623,"Ġhistor":12624,"iced":12625,"ourse":12626,"about":12627,"itage":12628,"ĠRob":12629,"Ġz":12630,"istub":12631,"ava":12632,"Dru":12633,"Ġblocking":12634,"Ġdouble":12635,"Ġphys":12636,"ĠPlay":12637,"ĠStreet":12638,"354":12639,"gd":12640,"ĠTour":12641,"Pope":12642,"Ġfeature":12643,"Fylbecatulous":12644,"ĠMark":12645,"433":12646,"Ġtrack":12647,"European":12648,"Chinese":12649,"amin":12650,"jd":12651,"mbox":12652,"ĠArtic":12653,"season":12654,"ictionary":12655,"ective":12656,"Wind":12657,"arden":12658,"dead":12659,"vey":12660,"hem":12661,"uge":12662,"rh":12663,"Ġespecially":12664,"%;&":12665,"Ġcre":12666,"Ġmetal":12667,"ÅŁ":12668,"State":12669,"summary":12670,"OW":12671,"236":12672,"jl":12673,"AD":12674,"Ġ...":12675,"zech":12676,"426":12677,"uro":12678,"itive":12679,"Ġgreen":12680,"1837":12681,"Ġ48":12682,"Ġstandard":12683,"verage":12684,"emi":12685,"cq":12686,"law":12687,"elli":12688,"143":12689,"jh":12690,"Ġcompet":12691,"Ġda":12692,").&":12693,"ealand":12694,"Ġlonger":12695,"multistub":12696,"laze":12697,"ĠAlex":12698,"1973":12699,"ĠHot":12700,"India":12701,"Ġ*&":12702,"Ġended":12703,"Ġalmost":12704,"Ġkill":12705,"142":12706,"elena":12707,"ledge":12708,"([[":12709,"Switzerland":12710,"ĠAshby":12711,"ambiguation":12712,"Ġunblock":12713,"ssociated":12714,"545":12715,"171":12716,"show":12717,"glish":12718,"Ġbans":12719,"Ġservice":12720,"coming":12721,"ĠSpe":12722,"NNN":12723,"Ġretrieved":12724,"arria":12725,"Ġblue":12726,"Ġreasons":12727,"Ã«":12728,"Bl":12729,"PP":12730,"Democratic":12731,"Ġstar":12732,"Sn":12733,"using":12734,"vices":12735,"Sign":12736,"Ġsubpage":12737,"archiveurl":12738,"Ãº":12739,"Regions":12740,"Ġparameter":12741,"gency":12742,"547":12743,"lap":12744,"}}'''":12745,"Ġpred":12746,"Ġprofessional":12747,"ĠPortal":12748,"Grand":12749,"Den":12750,"RT":12751,"thur":12752,"Lugia":12753,"Ġmiss":12754,"152":12755,"Ġincre":12756,"Mor":12757,"Swedish":12758,"1969":12759,"Hi":12760,"ritic":12761,"ention":12762,"video":12763,"ĠZealand":12764,"olt":12765,"sequent":12766,"ĠWomen":12767,"Ġclosed":12768,"Ġwikipedia":12769,"Ġcomposer":12770,"ĠSam":12771,"Ġmodel":12772,"Ġseven":12773,"ustry":12774,"Location":12775,"Ġfire":12776,"kq":12777,"Medal":12778,"Pakistan":12779,"ĠDan":12780,"logo":12781,"check":12782,"Ġmiddle":12783,"ĠOrigin":12784,"child":12785,"Convert":12786,"mont":12787,"chan":12788,"atory":12789,"orough":12790,"Ma":12791,"Rem":12792,"See":12793,"ivedate":12794,"========":12795,"Huji":12796,"ources":12797,"]]!":12798,"Ġtesting":12799,"scope":12800,"appy":12801,"ĠSea":12802,"jt":12803,"Ãª":12804,"ritory":12805,"agery":12806,"2222":12807,"Att":12808,"ĠTe":12809,"Ġ1970":12810,"Ġ1991":12811,"549":12812,"237":12813,"Ġchannels":12814,"Ġimmedi":12815,"Sing":12816,"Redirecting":12817,")]]</":12818,"istricts":12819,"ronic":12820,"pushpin":12821,"ĠDel":12822,"Royal":12823,"528":12824,"ĠLast":12825,"ecause":12826,"CSD":12827,"Mo":12828,"2948":12829,"254":12830,"Ġjob":12831,"Sur":12832,"Ca":12833,"ĠDirect":12834,"ĠBug":12835,"uild":12836,"pression":12837,"Ġrelease":12838,"219":12839,"Ġserved":12840,"Ġquickly":12841,"bz":12842,"246":12843,"gress":12844,"Ġincludes":12845,"Spe":12846,"Ġhowever":12847,"adel":12848,"Blocks":12849,"Ġuns":12850,"Pers":12851,"Tra":12852,"lahoma":12853,"oval":12854,"Ġcoordinates":12855,"Ġnominated":12856,"igned":12857,"Ġpolitical":12858,"Ġ##":12859,"Ġmultiple":12860,"vironment":12861,"nih":12862,"Cont":12863,"Ġmostly":12864,"AJ":12865,"Ġknowing":12866,"Ġyet":12867,"Ġaction":12868,"Ġstudy":12869,"ĠOf":12870,"arly":12871,"Ġreceived":12872,"?&":12873,"Ġisn":12874,"pq":12875,"commonscat":12876,"vx":12877,"ND":12878,"}};":12879,"IV":12880,"Ġunit":12881,"fullname":12882,"Doc":12883,"163":12884,"Ġgave":12885,";}}}":12886,"ĠIndian":12887,"Nav":12888,"ĠBas":12889,"ordo":12890,"signup":12891,"fq":12892,";]])&":12893,"uda":12894,"ĠPopulation":12895,"ĠRetrieved":12896,"|-":12897,"Pal":12898,"laps":12899,"open":12900,"stal":12901,"135":12902,"1960":12903,"102":12904,"253":12905,"hood":12906,"stant":12907,"ĠHi":12908,";}}&":12909,"vacy":12910,"Ġsit":12911,"ĠEven":12912,"orter":12913,"155":12914,"header":12915,"canton":12916,"Ġelevation":12917,"Su":12918,"COLOR":12919,"ĠSong":12920,"ĠCensus":12921,"='":12922,"ĠCourt":12923,"499":12924,"Ġ|''[[":12925,"Ġ1989":12926,"Purplebackpack":12927,"Ġinv":12928,"ĠStation":12929,"gentina":12930,"ouch":12931,"Ġfre":12932,"Ġcri":12933,"ircu":12934,"Ġbreak":12935,"Lo":12936,"ĠSpain":12937,"ĠBGCOLOR":12938,"anley":12939,"Syn":12940,"ĠRem":12941,"ĠMap":12942,"unny":12943,"Ġmass":12944,"Ġdri":12945,"Jan":12946,"ĠEntertainment":12947,"|}}":12948,".%":12949,"Email":12950,"ageryears":12951,"chart":12952,"134":12953,"ĠAcademy":12954,"pred":12955,"Good":12956,"tlements":12957,"Ġ47":12958,"Ange":12959,"Ġviol":12960,"added":12961,"ĠFl":12962,"Ġexplaining":12963,"ashi":12964,"Sa":12965,"iano":12966,"atab":12967,"Sy":12968,"Ġev":12969,":'''":12970,"irt":12971,"/?":12972,"source":12973,"ained":12974,"Ġnor":12975,"Ġbrother":12976,"pz":12977,"Ġteach":12978,"MBlaze":12979,"568":12980,"TE":12981,"uer":12982,"Ġexpl":12983,"sing":12984,"Art":12985,"####":12986,"Elect":12987,"Archer":12988,"ynasty":12989,"Ġcause":12990,"Ġrailway":12991,"ĠMartin":12992,"ĠEp":12993,"Ham":12994,"569":12995,"Ġshown":12996,"Ġteams":12997,"Ġ46":12998,"ental":12999,"Ġnumbers":13000,"ĠKorea":13001,"iability":13002,"Pen":13003,"Ġder":13004,"Ġdam":13005,"Ġlim":13006,"Club":13007,"editer":13008,"jg":13009,"lier":13010,"446":13011,"television":13012,"leg":13013,"Emperor":13014,"guitar":13015,"ilton":13016,"metro":13017,"546":13018,"ĠQuick":13019,"Ġexperiments":13020,"Ġyes":13021,"aby":13022,"aaa":13023,"Ġcaused":13024,"ĠCatholic":13025,"Ġrain":13026,"ichigan":13027,"ĠIowa":13028,"ĠPh":13029,"ambridge":13030,"Ġwww":13031,"Ġest":13032,"Ġformed":13033,"sad":13034,"ĠStar":13035,"218":13036,"ewis":13037,"aughter":13038,"mk":13039,"ĠTor":13040,"agan":13041,"hony":13042,"Ġsing":13043,"AE":13044,"ĠLos":13045,"status":13046,"527":13047,"Ġbehavi":13048,"brown":13049,"Ġpaint":13050,"lit":13051,"FCFFF":13052,"pers":13053,"cell":13054,"Curtaintoad":13055,"ĠFrank":13056,"oped":13057,"isto":13058,"andra":13059,"seed":13060,"Cor":13061,"arrondissement":13062,"Ġguitar":13063,"stitut":13064,"trying":13065,"inet":13066,"Ut":13067,"ĠItaly":13068,"Ġcommune":13069,"Cast":13070,"Municipalities":13071,"Ġ57":13072,"Ġeverything":13073,"|#":13074,"heast":13075,"endo":13076,"Republican":13077,"Ġmention":13078,"jq":13079,"Rh":13080,")/":13081,"1971":13082,"ĠHol":13083,"Ã©n":13084,"iego":13085,"Olymp":13086,"Set":13087,"ĠCivil":13088,"Ġroad":13089,"Sal":13090,"Ġreference":13091,"Title":13092,"1967":13093,"DP":13094,"Serie":13095,"rett":13096,"Ġrevert":13097,"sortname":13098,"229":13099,"Ġli":13100,"Ġinfo":13101,"=''":13102,"Ġbecomes":13103,"imated":13104,"Count":13105,"Rub":13106,"ĠSwedish":13107,"ured":13108,"izabeth":13109,"nx":13110,"Hazard":13111,"247":13112,"native":13113,"ila":13114,"App":13115,"Ġseems":13116,"ĠAsia":13117,"igital":13118,"Ġdensity":13119,"Mel":13120,"ĠMus":13121,"|[":13122,"rug":13123,"ĠEm":13124,"Ġisland":13125,"Just":13126,"experimenting":13127,"231":13128,"294863":13129,"Ġhelps":13130,"([":13131,"Ġmoney":13132,"336":13133,"ĠâĨĴ":13134,"government":13135,"dies":13136,"978":13137,"yt":13138,"lto":13139,"kes":13140,"adi":13141,"Ġcancer":13142,"Ġpreserved":13143,"wx":13144,"Ġnotified":13145,"Ġ49":13146,";[{{":13147,"Ġwish":13148,"rison":13149,"620":13150,"obj":13151,"iburn":13152,"hui":13153,"Ġamount":13154,"mai":13155,"600":13156,"Ġopin":13157,"Assume":13158,"hal":13159,"estival":13160,"Fre":13161,"Population":13162,"lov":13163,"192":13164,"ĠStand":13165,"Got":13166,"526":13167,"ĠWind":13168,"query":13169,"Actors":13170,"ĠWilliams":13171,"osc":13172,"dfff":13173,"Ġtopics":13174,"Ġill":13175,"Ġdu":13176,"Typ":13177,"ewish":13178,"Ļ¥":13179,"At":13180,"ĠSpr":13181,"Ð°Ð":13182,"Ra":13183,"item":13184,"sych":13185,"Ġsex":13186,"otto":13187,"ĠChinese":13188,"uq":13189,"arriage":13190,"Cla":13191,"à¯":13192,"target":13193,"Ġdet":13194,"ĠCountry":13195,"ĠLo":13196,"ĠList":13197,"ĠKentucky":13198,"lies":13199,"dfffdf":13200,"Ġimmediately":13201,"Fair":13202,"425":13203,"ĠJones":13204,"380":13205,"Bra":13206,"]]|[[":13207,"Lu":13208,"Ġsw":13209,"Ġ250":13210,"One":13211,"odern":13212,"ued":13213,"ittee":13214,"gf":13215,"ĠInformation":13216,"azz":13217,"ĠSince":13218,"Jean":13219,"SAND":13220,"Province":13221,"hx":13222,"Ġquite":13223,"Caliburn":13224,"Miss":13225,"ĠBridge":13226,"}}}|{{{":13227,"Ġsimply":13228,"]]'''&":13229,"Ġanimals":13230,"172":13231,"auto":13232,"Ġenergy":13233,"311":13234,"ela":13235,"Ok":13236,"Spr":13237,"Ġnetwork":13238,"IK":13239,"params":13240,"aged":13241,"jf":13242,"ĠTech":13243,"ĠBritain":13244,"lx":13245,"reece":13246,"Hurricane":13247,"rees":13248,"ĠMil":13249,"Ġhalf":13250,"Ġmax":13251,"Sat":13252,"ache":13253,"Western":13254,"reference":13255,"igon":13256,"atives":13257,"Sasso":13258,"etro":13259,"vinces":13260,"navy":13261,"Alp":13262,"|}}}|&":13263,"|{{#":13264,"alendar":13265,"Ġadminship":13266,"wv":13267,"ESP":13268,"ĠBecause":13269,"Ġconstru":13270,"Year":13271,"Ġmo":13272,"ĠFr":13273,"ĠNight":13274,"mq":13275,"ĠMal":13276,"]]-[[":13277,"gz":13278,"ingen":13279,"Rick":13280,"osopher":13281,"bq":13282,"ami":13283,"Mailing":13284,"Ġrace":13285,"Ġmedal":13286,"osp":13287,"ĠTop":13288,"ardian":13289,"inner":13290,"Ġroll":13291,"people":13292,"rx":13293,"atre":13294,"Ġpie":13295,"Ġcamp":13296,"uclear":13297,"Date":13298,"MA":13299,"8630":13300,"shadow":13301,"oli":13302,"Ġpress":13303,"Episode":13304,"ĠDef":13305,"Ġfront":13306,"ensive":13307,"Ġfile":13308,"Ġmayor":13309,"RO":13310,"182":13311,"ĠSpanish":13312,"esus":13313,"559":13314,"request":13315,"disp":13316,"eder":13317,"Ġcounty":13318,"Of":13319,"Lea":13320,"Ġlost":13321,"131":13322,"Ġ:&":13323,"Er":13324,"Kennedy":13325,"ĠLand":13326,"magazine":13327,"ecti":13328,"ceed":13329,"447":13330,"222":13331,"Ġ:*":13332,"uts":13333,"aya":13334,"1964":13335,"gra":13336,"Ġrelat":13337,"mance":13338,"ĠCreating":13339,"mad":13340,"ĠÂ":13341,"Ġintr":13342,"Ġparticular":13343,"Ġminor":13344,"ependence":13345,"Ġ,":13346,"jk":13347,"apt":13348,"cgi":13349,"Ġpoints":13350,"Ġmeant":13351,"ĠAtlantic":13352,"]]]]":13353,"ĠArab":13354,"ĠRobert":13355,"popup":13356,"House":13357,"ĠID":13358,"Ġwife":13359,"ista":13360,"ĠRussian":13361,"215":13362,"448":13363,"ĠMexico":13364,"orf":13365,"ading":13366,"pink":13367,"orse":13368,"387":13369,"oko":13370,"Jian":13371,"RR":13372,"hampion":13373,"Mary":13374,"ĠOver":13375,"urder":13376,"Ġscience":13377,"hind":13378,"PTA":13379,"ori":13380,"nv":13381,"alia":13382,"Ġtill":13383,"ores":13384,"aylor":13385,"Article":13386,"âĢ¢}}":13387,"She":13388,"fair":13389,"ĠApp":13390,"Ġled":13391,"Ġperfect":13392,"Ġrefer":13393,"Bookman":13394,"ĠCongress":13395,"innes":13396,"game":13397,"pter":13398,"Articles":13399,"SEE":13400,"Bans":13401,"obile":13402,"]],&":13403,"ĠWork":13404,"Ġearlier":13405,"igious":13406,"jav":13407,"SA":13408,"Ġ80":13409,"Ġwhether":13410,"ifiability":13411,"Hung":13412,"Ã¡n":13413,"column":13414,"ĠLake":13415,"Ġaged":13416,"ifky":13417,"Å«":13418,"162":13419,"ĠGar":13420,"ĠInstitute":13421,"ĠLee":13422,"ĠThomas":13423,"nationalteam":13424,"Editor":13425,"Ġreplaced":13426,"sf":13427,"China":13428,"AAAAAAAA":13429,"nav":13430,"Ġtakes":13431,"ĠDE":13432,"anger":13433,"ĠSuper":13434,"ircuit":13435,"authors":13436,"onic":13437,"Union":13438,"ĠDuke":13439,"Ġdep":13440,"Ġ1986":13441,"ĠParliament":13442,"ennes":13443,"iler":13444,"ĠPublic":13445,"burgh":13446,"speople":13447,"ĠRoad":13448,"ĠAcc":13449,"Ġeast":13450,"osition":13451,"1966":13452,"ĠWestern":13453,"mary":13454,"anned":13455,"306":13456,"FI":13457,"Ġago":13458,"TASER":13459,"atabase":13460,"tivity":13461,"}}{{":13462,"webkit":13463,"ĠValley":13464,"managerclubs":13465,"TASERING":13466,"second":13467,"ĠGame":13468,"intendo":13469,"ĠCommons":13470,"255":13471,"Äĥ":13472,"Ġtheory":13473,"italictitle":13474,"Ġfinal":13475,"ĠRussia":13476,"Ġ([":13477,"ĠIN":13478,"uct":13479,"views":13480,"ĠConference":13481,"Ġvoice":13482,"ĠGreek":13483,"Jianhui":13484,"occ":13485,"151":13486,"pel":13487,"owl":13488,"hv":13489,"Ġtowns":13490,"Ken":13491,"]]}}&":13492,"ĠAfrican":13493,"ament":13494,"Ġdefault":13495,"Pages":13496,"ocol":13497,"808080":13498,"}}}]]}}.":13499,"Äĩ":13500,"uten":13501,"mistry":13502,"FE":13503,"rb":13504,"ĠRichard":13505,"ITA":13506,"Ġ[{{{":13507,"NY":13508,"fam":13509,"nationalyears":13510,"manageryears":13511,"àµ":13512,"ĠCanadian":13513,"municipality":13514,"Ġresults":13515,"ysop":13516,"pf":13517,"zd":13518,"jm":13519,"Ġeconom":13520,"haw":13521,"roken":13522,"remove":13523,"phys":13524,"innesota":13525,"Kore":13526,"Ġ1960":13527,"ddigon":13528,"phan":13529,"ĠWay":13530,"Alan":13531,"fin":13532,"Gar":13533,"Indian":13534,"Ø§ÙĦ":13535,"++":13536,"cur":13537,"asy":13538,"884":13539,"Writ":13540,"unblock":13541,"Ġamong":13542,"Thanks":13543,"ages":13544,"ifexist":13545,"High":13546,"Alt":13547,"Ġcontinues":13548,"Ġ1987":13549,"sadowski":13550,"Ġplant":13551,"Ä±":13552,".--[[":13553,"ĠCross":13554,"pup":13555,"alent":13556,"SP":13557,"divid":13558,"Kat":13559,"Ġcriteria":13560,"worth":13561,"youthclubs":13562,"183741":13563,"idden":13564,"Ġmedia":13565,"Ġnonsense":13566,"ĠParis":13567,"Ġclaim":13568,"zn":13569,"Belinda":13570,"557":13571,"ĠLocation":13572,"(?":13573,"ror":13574,"bai":13575,"Ġvandalis":13576,"Druddigon":13577,"ĠBru":13578,"clubnumber":13579,"Open":13580,"doi":13581,"Ġ90":13582,"rating":13583,"Ġ]]</":13584,"ĠGA":13585,"ĠCheers":13586,"Bi":13587,"ĠYoung":13588,"iac":13589,"ĠRoyal":13590,"irds":13591,"ĠHeaded":13592,"gq":13593,"Ele":13594,"currentclub":13595,"adata":13596,"ĠJohnson":13597,"Verifiability":13598,"';":13599,"related":13600,"aux":13601,"udge":13602,"ĠSol":13603,"ephen":13604,"LLLLLLLLLLLLLLLL":13605,"Change":13606,"Ð¾Ð":13607,"Ġbureaucrat":13608,"558":13609,"Ġnum":13610,"ĠSur":13611,"Ġwhole":13612,"MP":13613,"Lin":13614,"iterature":13615,"Ġhum":13616,"enna":13617,"Ke":13618,"ĠOs":13619,"Russian":13620,"owers":13621,"Division":13622,"Ġevents":13623,"Ġcopied":13624,"youthyears":13625,"Ġvarious":13626,"543":13627,"SPA":13628,"326":13629,"rog":13630,"Ġplaced":13631,"Ġ?":13632,"latm":13633,"214":13634,"Sonia":13635,"Ġshouldn":13636,"longm":13637,"nytimes":13638,"ĠOcean":13639,"Ġvon":13640,"grrr":13641,"Ġtrain":13642,"ragon":13643,"Ġgoes":13644,"Old":13645,"Ġdiscussions":13646,"mailto":13647,"Ġspouse":13648,"track":13649,"ĠCommunity":13650,"345":13651,"Russia":13652,"deleted":13653,"sx":13654,"Ġvolume":13655,"restler":13656,"Ġmovement":13657,"viv":13658,"ĠTown":13659,"Ġrecently":13660,"Â·'''":13661,"Ġver":13662,"407":13663,"ĠBern":13664,"erial":13665,"Alb":13666,"tx":13667,"Vector":13668,"Ġnoticeboard":13669,"anza":13670,"stic":13671,"ĠOlympic":13672,"Ġ59":13673,"Ġ32":13674,"non":13675,"Ġ|'''":13676,"ĠShow":13677,"Ġpushpin":13678,"ĠOpen":13679,"Ġconnect":13680,"Browne":13681,"497":13682,"Ġ35":13683,"Ġplaying":13684,"Ġhel":13685,"aku":13686,"arks":13687,"ountains":13688,"playername":13689,"bull":13690,"ollywood":13691,"anies":13692,"Fred":13693,"Mexico":13694,"ffic":13695,"Ġpat":13696,"cul":13697,"pk":13698,"Classical":13699,"bk":13700,"Ġhappen":13701,"Robot":13702,"Come":13703,"egas":13704,"Ġforce":13705,"Total":13706,"zk":13707,"Best":13708,"Ġsound":13709,"ĠLink":13710,"successor":13711,"hedral":13712,"556":13713,"Ren":13714,"Ġgetting":13715,"488":13716,"ially":13717,"IMD":13718,"ĠDou":13719,"))":13720,"anti":13721,"Ġedition":13722,"fir":13723,"ĠHaw":13724,"ĠHenry":13725,"ĠFlag":13726,"local":13727,"haps":13728,"Ġansw":13729,"predecessor":13730,"''']":13731,"Mid":13732,"Eastern":13733,"inson":13734,"Ġ44":13735,"Ph":13736,"Ġvan":13737,"âĢİ":13738,"Ġ36":13739,"andidate":13740,"itan":13741,"uty":13742,"ĠMel":13743,"277":13744,"Ġcontain":13745,"Nifky":13746,"Ġpostal":13747,";|{{":13748,"GER":13749,"(\\":13750,"Ġlove":13751,"thology":13752,"Ġ'''Â·'''":13753,"Ġclubs":13754,"489":13755,"StevenJ":13756,"CAN":13757,"dv":13758,"486":13759,"Ġspeak":13760,"Ġwatched":13761,"Des":13762,"Ment":13763,"Ġcit":13764,"wdt":13765,"Net":13766,"ĠOhio":13767,"iÃ³n":13768,"mapsize":13769,"Li":13770,"Ġdiscover":13771,"ĠUnder":13772,"Bsadowski":13773,"Norm":13774,"bul":13775,"Hu":13776,"OV":13777,"506":13778,"abs":13779,"ĠSubsequent":13780,"ancy":13781,"done":13782,"Ġcases":13783,"float":13784,"achine":13785,"latNS":13786,"ĠPrince":13787,"141":13788,"1950":13789,"istration":13790,"ierre":13791,"ĠCla":13792,"Ġnotability":13793,"longEW":13794,"mor":13795,"ologist":13796,"ascript":13797,"à§":13798,"Ġsuccessful":13799,"696969":13800,"apore":13801,"nr":13802,"rait":13803,"Ġ60":13804,"yx":13805,"ircraft":13806,"ĠPennsylvania":13807,"short":13808,"ĠDoing":13809,"shtml":13810,"Sk":13811,"''')":13812,"mal":13813,"ĠRevolution":13814,"SEPTA":13815,"urity":13816,"Gra":13817,"1965":13818,"Ġcer":13819,"angar":13820,"Ġspeedy":13821,"Ġdecided":13822,"Ġpicture":13823,"III":13824,"orporated":13825,"But":13826,"Ġrank":13827,"401":13828,"newspaper":13829,"eller":13830,"ĠNations":13831,"ĠSk":13832,"DJSasso":13833,"Ġwin":13834,"161":13835,"Ãł":13836,"Ġ1984":13837,"Ġepisode":13838,"Dutch":13839,"Ġhit":13840,"ĠNetwork":13841,"487":13842,"iq":13843,"Ġnull":13844,"={{#":13845,"Sortname":13846,"irk":13847,"ĠCopy":13848,"Ġpractice":13849,"project":13850,"'''|":13851,"ĠJo":13852,"phia":13853,"ĠOffice":13854,"regon":13855,"aco":13856,"oshi":13857,"Arr":13858,"wl":13859,"257":13860,"Ġrule":13861,"Law":13862,"Tygrrr":13863,"wick":13864,"445":13865,"Ġreligion":13866,"isters":13867,"wwe":13868,"Stub":13869,"}});":13870,"ĠService":13871,"Ġannoun":13872,"office":13873,"yg":13874,"antons":13875,"Twinkle":13876,"Ten":13877,"Tax":13878,"ods":13879,"skyline":13880,"archivedate":13881,";âĢĵ":13882,"Ġlisted":13883,"ĠEditing":13884,"Ġsimpler":13885,"zerbai":13886,"vention":13887,"1945":13888,"ampaign":13889,"ĠMic":13890,"rystal":13891,"iley":13892,"ranch":13893,"posed":13894,"keep":13895,"administrat":13896,"roch":13897,"Ġitself":13898,"Ġnatural":13899,"ĠNavy":13900,"goals":13901,"elebr":13902,"Ġ},":13903,"006":13904,"ĠGi":13905,"icht":13906,"agement":13907,"Mike":13908,";''[[":13909,"ĠAbout":13910,"onom":13911,"'''[[:":13912,"1958":13913,"ĠInt":13914,"ĠVictoria":13915,"Mass":13916,"bourne":13917,"Ġsentence":13918,"jb":13919,"config":13920,"244":13921,"aga":13922,"223":13923,"cons":13924,"ĠMassachusetts":13925,"lats":13926,"Ġinterested":13927,"Joseph":13928,"Ġterms":13929,"ĠAlbums":13930,"semb":13931,"Ġcontact":13932,"Geography":13933,"Ros":13934,"ĠTrans":13935,"ĠHonor":13936,"village":13937,"ultural":13938,"309":13939,"Ġproduced":13940,"clear":13941,"sz":13942,"eria":13943,"ĠCharles":13944,"Netherlands":13945,"Maxim":13946,"Ġboard":13947,"ĠSat":13948,"vely":13949,"igation":13950,"Ġconc":13951,"benefits":13952,"ĠPremier":13953,"sg":13954,"ĠMedia":13955,"ĠNow":13956,"Ġcopyright":13957,"Ġhimself":13958,"ĠDisney":13959,"Cr":13960,"ĠVen":13961,"Ġindivid":13962,"305":13963,"Archiving":13964,"allen":13965,"igns":13966,"Å¡":13967,"Ġ(''[[":13968,"436":13969,"craft":13970,"AC":13971,"Ġ]]":13972,"eeks":13973,"Ġtreat":13974,"Ġawards":13975,"Steve":13976,"Map":13977,"fred":13978,"anch":13979,"Ġdeal":13980,"elves":13981,"series":13982,"437":13983,"jab":13984,"Ha":13985,"496":13986,"ĠLu":13987,"ordan":13988,"enwpbased":13989,"onse":13990,"ĠGovernment":13991,"Ġgets":13992,"Liber":13993,"adelphia":13994,"Ġsense":13995,"eu":13996,"Ġpoliticians":13997,"Vol":13998,"Ġ58":13999,"ĠBig":14000,"ĠLiga":14001,"Ġchurch":14002,"Ġstudents":14003,"Ġpref":14004,"tenance":14005,"Ġ1985":14006,"Ġaverage":14007,"Ġroman":14008,"ĠMig":14009,"Jun":14010,"Ġ~":14011,"fk":14012,"ĠSant":14013,"Bur":14014,"Daniel":14015,"1956":14016,"538":14017,"Ġ34":14018,"oda":14019,"imdb":14020,"ĠHome":14021,"efef":14022,"Ġpurpose":14023,"person":14024,"Ġ'&":14025,"Tim":14026,"1963":14027,"Les":14028,"result":14029,"Ġprot":14030,"rz":14031,"unn":14032,"Ġunits":14033,"SR":14034,"ĠBarnstar":14035,"Ġ70":14036,"vents":14037,"omer":14038,"Ġpromot":14039,"Ġforces":14040,"cta":14041,"election":14042,"javascript":14043,"ederation":14044,"IMDb":14045,"isch":14046,"iding":14047,"Ġ:{{":14048,"Ġ37":14049,"Ġrespect":14050,"flat":14051,"Ġice":14052,"Paris":14053,"nihongo":14054,"Ġalias":14055,"Ġ39":14056,"ĠWhile":14057,"coln":14058,"Ġdevelopment":14059,"ĠScotland":14060,"onder":14061,"Ġbi":14062,"Ġvillage":14063,"wil":14064,"Ġ88":14065,"graph":14066,"Ġ1976":14067,"498":14068,"Ġph":14069,"stituen":14070,"hw":14071,"Ġsport":14072,"////":14073,"naming":14074,"optional":14075,"opher":14076,"uther":14077,"ĠActor":14078,"Ġgoals":14079,"asa":14080,"Fin":14081,"||{{":14082,"Belgium":14083,"footballer":14084,"ando":14085,"ardo":14086,"uba":14087,"181":14088,"roat":14089,"ination":14090,"ugal":14091,"Ol":14092,"Angela":14093,"366":14094,"sb":14095,"arg":14096,"ables":14097,"ĠScience":14098,"ctures":14099,"Ġauto":14100,"Tag":14101,"Ġlocated":14102,"Team":14103,"message":14104,"Ġ1981":14105,":''":14106,"function":14107,"423":14108,"celona":14109,"ĠDemocratic":14110,"goal":14111,"olitan":14112,";$":14113,"gart":14114,"Greek":14115,"ategor":14116,"orporation":14117,"bits":14118,"orders":14119,"anglad":14120,"rump":14121,"Ang":14122,"infobox":14123,"leted":14124,"ĠWood":14125,"1959":14126,"ĠPan":14127,"AJona":14128,"Boston":14129,"Ġfiction":14130,"grey":14131,"mj":14132,"Ġ1975":14133,"Ġ38":14134,"ĠForce":14135,"Ġalt":14136,"Ġentire":14137,"(/":14138,"Ġwriters":14139,"Ġthanks":14140,"Ġattemp":14141,"ĠBal":14142,"ertainment":14143,"ency":14144,"Ġbus":14145,"Experimenting":14146,"Ġ56":14147,"ĠBrazil":14148,"president":14149,"ĠTheir":14150,"Ġstub":14151,"Sant":14152,"VAND":14153,"Ġnewest":14154,"ln":14155,"uki":14156,"Warning":14157,"Ġanyone":14158,"bass":14159,"Ġsaw":14160,"tur":14161,"hard":14162,"etroit":14163,"ĠPo":14164,"ĠBill":14165,"Ġmethod":14166,"Hydriz":14167,"wikEd":14168,"ĠJul":14169,"459":14170,"oms":14171,"Prince":14172,"ĠUSA":14173,"rought":14174,"county":14175,"ĠBlue":14176,"evin":14177,"008":14178,"Ġcontributions":14179,"256":14180,"Ġtri":14181,";'''&":14182,"capital":14183,"ĠEdward":14184,"osÃ©":14185,"537":14186,"Ġsoftware":14187,"Ġinside":14188,"istic":14189,"rez":14190,"Ġ1950":14191,"VD":14192,"Ancient":14193,"qg":14194,"Ġprin":14195,"BF":14196,"ĠIV":14197,"242":14198,"ĠOnce":14199,"ĠStadium":14200,"roke":14201,"Ġdaughter":14202,"Web":14203,"245":14204,"Ġserif":14205,"iverse":14206,"Sir":14207,"Ġsports":14208,"Ġ1979":14209,"Ġcentral":14210,"Ġhop":14211,"477":14212,"ĠLibrary":14213,":(":14214,"1962":14215,"Soviet":14216,"Ġaircraft":14217,"SC":14218,"ĠSecretary":14219,"itecture":14220,"Ġsuper":14221,"Camp":14222,"ĠSing":14223,"Ġrenaming":14224,"Ġcoast":14225,"Nick":14226,"ĠEnd":14227,"Ġnothing":14228,"Top":14229,"Ġeight":14230,"Ġcounties":14231,"1961":14232,"1930":14233,"bes":14234,"census":14235,"Ġclock":14236,"ership":14237,"252":14238,"Ġappro":14239,"Ġepisodes":14240,"ĠId":14241,"Ġargu":14242,"Ġlinked":14243,"241":14244,"sj":14245,"irls":14246,"ĠChile":14247,"Ġdeveloped":14248,"]]'''.":14249,"tivis":14250,"Governor":14251,"406":14252,"Tropical":14253,"Form":14254,"Ġculture":14255,"Animal":14256,"otte":14257,"ĠRh":14258,"ĠOxford":14259,"glas":14260,"ĠStudi":14261,"Ġexpand":14262,"resp":14263,"Na":14264,"Ġcivil":14265,"ÃŃa":14266,"Florida":14267,"Ġten":14268,"007":14269,"Ġleg":14270,"Peer":14271,"vad":14272,"Ġms":14273,"221":14274,"Ġbusiness":14275,"large":14276,"504":14277,"Ġhot":14278,"251":14279,"aro":14280,"ĠWho":14281,"ocals":14282,"imb":14283,"GR":14284,"ĠCy":14285,"ydney":14286,"Ġjoined":14287,"meter":14288,"hq":14289,"Nobel":14290,"Pas":14291,"Ġ1983":14292,"Bru":14293,"ecutive":14294,"css":14295,"003":14296,"release":14297,"longs":14298,"arily":14299,"OP":14300,"Ġwarn":14301,"Ġregular":14302,"wz":14303,"stron":14304,"Provinces":14305,"Asia":14306,"Ġdraft":14307,"Ġgenus":14308,"mperial":14309,"467":14310,"ourage":14311,"ibility":14312,"ifying":14313,"religion":14314,"cano":14315,"Atlantic":14316,"439":14317,"Us":14318,"Ġsaying":14319,"Scotland":14320,"string":14321,"ension":14322,"Northern":14323,"Typo":14324,"noc":14325,"stor":14326,"UT":14327,"ĠDec":14328,"MTA":14329,"mid":14330,"Fs":14331,"Ġsold":14332,"ĠSun":14333,"ĠGeorgia":14334,"raine":14335,"irit":14336,"enny":14337,"RC":14338,"angaroo":14339,"ĠJun":14340,"ully":14341,"Ġcur":14342,"ĠFrancisco":14343,"359":14344,"Ġ:'''[[:":14345,"191":14346,"279":14347,"ĠNext":14348,"ĠThen":14349,"Ġmouth":14350,"ĠColor":14351,"Arctic":14352,"ĠSenate":14353,"coa":14354,"Bal":14355,"Pet":14356,"leep":14357,"Race":14358,"Ter":14359,"Ġaddition":14360,"Ġoutside":14361,"Ġtried":14362,"Little":14363,"Ġ1974":14364,"Dec":14365,"469":14366,"ĠTelevision":14367,"NHL":14368,"spam":14369,"868":14370,"ively":14371,"Ġdestroy":14372,"ĠRecord":14373,"Ġcourse":14374,"ĠĠĠĊ":14375,"Ġeveryone":14376,"....":14377,")''":14378,"ĠWinter":14379,"gus":14380,"SI":14381,"ĠPrime":14382,"CUR":14383,"Jer":14384,"Ġfoc":14385,"ĠFre":14386,"Ġpen":14387,"ĠOl":14388,"ĠDeath":14389,"Ġcommunes":14390,"Watch":14391,"ĠHistor":14392,"Ġnormal":14393,"moved":14394,"Ġenc":14395,"ĠBiography":14396,"Ġheader":14397,"8235":14398,"Ġlogo":14399,"ĠAnn":14400,"-[[":14401,"Army":14402,"Ġdefeated":14403,"qk":14404,"ĠDen":14405,"Ġmatter":14406,"ĠGovernor":14407,"Ġmeasure":14408,"Snake":14409,"ĠRac":14410,"039":14411,"icks":14412,"299":14413,"dem":14414,"\\}":14415,"mel":14416,"Ġfail":14417,"ĠBra":14418,"Ġgold":14419,"vard":14420,"habit":14421,"URL":14422,"ĠTom":14423,"Ġground":14424,"Ġoptions":14425,"Gotanda":14426,"RD":14427,"ĠChampionships":14428,"Ġallows":14429,"Alexander":14430,"Ġrecogn":14431,"latd":14432,")]]&":14433,"Ġden":14434,"oni":14435,"Fe":14436,"ĠImg":14437,"CURRE":14438,"ĠBa":14439,"longd":14440,"Settlements":14441,"ĠMem":14442,"Ġnecess":14443,"gj":14444,"ropolitan":14445,"Gi":14446,"ISO":14447,"uate":14448,"stun":14449,"DB":14450,"ĠBundesliga":14451,"ĠStorm":14452,"uu":14453,"Ġearth":14454,")]":14455,"ÅĤ":14456,"Ġnight":14457,"ĠRele":14458,"Ġconcer":14459,"AF":14460,"}}}]]&":14461,"hend":14462,"Ġnoticed":14463,"Ġstorm":14464,"Pmlinediter":14465,"ĠInternet":14466,"usc":14467,"Bern":14468,"Ġsearch":14469,"Austria":14470,"Ġà¤":14471,"404":14472,"urns":14473,"ysis":14474,"illars":14475,"issip":14476,"Sen":14477,"Ġvers":14478,"ĠStart":14479,"Ġminutes":14480,"ĠCount":14481,"Ã©e":14482,"Ġscreen":14483,"Ġcontains":14484,"Po":14485,"Ġopened":14486,"lain":14487,"YYN":14488,"RfD":14489,"ĠBrother":14490,"Ġattention":14491,"authority":14492,"Ġdirectly":14493,"without":14494,"eman":14495,"Ġmusicians":14496,"Ġsl":14497,"330":14498,"ĠFI":14499,"rier":14500,"Ġ978":14501,"thew":14502,"Cras":14503,"unning":14504,"ests":14505,"Movies":14506,"Ġpump":14507,"icut":14508,"232":14509,"preci":14510,"ĠBooks":14511,"260":14512,"ĠSecond":14513,"438":14514,"Ġmusician":14515,"science":14516,"oken":14517,"argets":14518,"Ġthems":14519,"456":14520,"fp":14521,"eta":14522,"Ġparents":14523,"Ġsea":14524,"ente":14525,"Ġarmy":14526,"Ġ54":14527,"description":14528,"LT":14529,"Enwp":14530,"Ġfootballers":14531,"/~":14532,"Ġcirc":14533,"Ġradio":14534,"ietnam":14535,"sea":14536,"online":14537,"stance":14538,"ĠQueen":14539,"izz":14540,"Ġ[[{{{":14541,"elt":14542,"oise":14543,"yster":14544,"ĠHeritage":14545,"Ġlives":14546,"Ġsock":14547,"Ġunfair":14548,"otter":14549,"ĠCamp":14550,"RI":14551,"empor":14552,"ĠKennedy":14553,"Golden":14554,"536":14555,"1957":14556,"xv":14557,"Hak":14558,"ribute":14559,"Ġsoldi":14560,"Sar":14561,"Est":14562,"Ġlines":14563,"Crasstun":14564,"266":14565,"ĠNorthern":14566,"Ġlikely":14567,"Summary":14568,"Ġheart":14569,"amil":14570,"Ġexact":14571,"Ġmanager":14572,"ATH":14573,"1955":14574,"Latin":14575,"ĠMedal":14576,"Ġsouthern":14577,"ĠTre":14578,"0033":14579,"Ġthemselves":14580,"Ġlower":14581,"ĠCurrent":14582,"making":14583,"Ġasked":14584,"cipitation":14585,"bed":14586,"479":14587,"athan":14588,"ĠPictures":14589,"Ġopinion":14590,"Donald":14591,"Ret":14592,"istance":14593,"arger":14594,"Ġwoman":14595,"Simon":14596,"UC":14597,"1954":14598,"á»":14599,"Czech":14600,"thlet":14601,"aho":14602,"wide":14603,"Ġinc":14604,"ĠCare":14605,"iny":14606,"onepage":14607,"ĠPhys":14608,"Ã¨s":14609,"Ġcustom":14610,"ĠWars":14611,"ĠRepresent":14612,"och":14613,"SM":14614,"Ã©rie":14615,"(?:":14616,"ĠVan":14617,"1948":14618,"Wil":14619,"Ġphil":14620,"stituency":14621,"Ġcauses":14622,"nj":14623,"nw":14624,"angladesh":14625,"LACE":14626,"Ġvs":14627,"457":14628,"exican":14629,"1928":14630,"Ġtold":14631,"ĠZone":14632,"Ġconfir":14633,"enne":14634,"soccer":14635,"rief":14636,"Ġ500":14637,"Ġfields":14638,"fraid":14639,"Ġsmaller":14640,"oration":14641,"Ġupdate":14642,"fm":14643,"Ġafraid":14644,"Ġweeks":14645,"408":14646,"Ġlay":14647,"benefit":14648,"ĠCr":14649,"Ġcreat":14650,"Republic":14651,"inder":14652,"qp":14653,"bach":14654,"vl":14655,"abour":14656,"ĠMess":14657,"ĠMain":14658,"oes":14659,"Dou":14660,"SU":14661,"Ġ300":14662,"Ġtemper":14663,"Ã¨re":14664,"teams":14665,"518":14666,"neutral":14667,"ĠAre":14668,"iba":14669,"530":14670,"ums":14671,"Ġcomplet":14672,"Ġbin":14673,"azi":14674,"466":14675,"vk":14676,"Ġnotes":14677,"Ġgenre":14678,"blem":14679,"gk":14680,"speranza":14681,"umi":14682,"wikis":14683,";]]'''''":14684,"Origin":14685,"ĠTitle":14686,"0099":14687,"ĠEmperor":14688,"necticut":14689,"osis":14690,"ogs":14691,"ĠSa":14692,"Pok":14693,"Ġcalendar":14694,"Ġbattle":14695,"Ġeat":14696,"yellow":14697,"sembly":14698,"Ġfemale":14699,"476":14700,"ĠChild":14701,"Ġstudied":14702,"211":14703,"ĠHappy":14704,"ĠMissouri":14705,"258":14706,"Ġ1972":14707,"MC":14708,"Sol":14709,"ĠCorn":14710,"found":14711,"RL":14712,"ĠHa":14713,"ĠOnline":14714,"oting":14715,"Ġbands":14716,"Ġcomedy":14717,"DDDD":14718,"Ġ1977":14719,"Ġappeared":14720,"ĠSy":14721,"409":14722,"|}}}|,":14723,"Ġcast":14724,"dfdf":14725,"Ġfac":14726,"kansas":14727,"latin":14728,"awards":14729,"Sl":14730,"politician":14731,"rw":14732,"ĠMichigan":14733,"dl":14734,"Texas":14735,"1946":14736,"School":14737,"\\&":14738,"Andrew":14739,"icker":14740,"âĪ":14741,"Pan":14742,"ĠYears":14743,"Luc":14744,"ĠMcC":14745,"ĠCommittee":14746,"2133":14747,"Ġ1969":14748,"izen":14749,"\\{":14750,"Ġmm":14751,"oscow":14752,"Ġways":14753,"ĠBeach":14754,"=]]":14755,"fall":14756,"unjab":14757,"HT":14758,"Ġrequire":14759,"script":14760,"inosaur":14761,"Ġflo":14762,"sman":14763,"Tri":14764,"Grunny":14765,"Ġleague":14766,"Ġprison":14767,"qf":14768,"weet":14769,"erald":14770,"itts":14771,"Ġnovel":14772,"writing":14773,"Ġneigh":14774,"hough":14775,"Ġbelong":14776,"816":14777,"ĠAD":14778,"Ġtravel":14779,"Rubbish":14780,"Ġhelped":14781,"oming":14782,"ĠAtt":14783,"hematics":14784,"513":14785,"ĠAustria":14786,"''}}":14787,"1940":14788,"ĠSoviet":14789,"visiÃ³n":14790,"276":14791,"anning":14792,"ĠWall":14793,"write":14794,"Ġeducation":14795,"ĠHard":14796,"Ġdevelop":14797,"IRTH":14798,"ĠJournal":14799,"Ġdeg":14800,"arus":14801,"caps":14802,"servative":14803,"There":14804,"ĠRome":14805,"IO":14806,"Ġ53":14807,"1944":14808,"call":14809,"guitarist":14810,"ĠMajor":14811,"icator":14812,"Node":14813,"Water":14814,"Ġerr":14815,"1952":14816,"pat":14817,"Ġ[//":14818,"Ġinternational":14819,"wise":14820,"337":14821,"plit":14822,"|*":14823,"Scottish":14824,"ctaMTA":14825,"Ġtopic":14826,"Ġnormally":14827,"eign":14828,"protect":14829,"Kim":14830,"405":14831,"dz":14832,"Ġelected":14833,"Ġstructure":14834,"Ġfollowed":14835,"mouth":14836,"Ġpers":14837,"ĠTim":14838,"orig":14839,"ulation":14840,"Lake":14841,"Ġseparate":14842,"vz":14843,"emic":14844,"5738":14845,"hic":14846,"Ð¾Ð²":14847,"ĠNA":14848,"Computer":14849,"ĠActress":14850,"riel":14851,"bp":14852,"ĠBIRTH":14853,"Ġ1978":14854,"Boy":14855,"ÛĮ":14856,"Ġ1971":14857,"rosoft":14858,"qe":14859,"goe":14860,"alen":14861,"Ġblood":14862,"ĠLabel":14863,"Ġappreci":14864,"actress":14865,"Ġplants":14866,"fix":14867,"erick":14868,"Yes":14869,"Ġtree":14870,"wk":14871,"Ġsignature":14872,"515":14873,"akota":14874,"Ġben":14875,"Ġdrop":14876,"ades":14877,"Ġeasier":14878,"ester":14879,"Ġmainly":14880,"|âĢĶ":14881,"Ġsymbol":14882,"ingu":14883,"Ky":14884,"aring":14885,"agen":14886,"700":14887,"olis":14888,"oholic":14889,"documentation":14890,"Ġindependent":14891,"ĠTri":14892,"268":14893,"Ġasking":14894,"Rom":14895,"iversal":14896,"SEPTActaMTA":14897,"also":14898,"Ġevil":14899,"oduced":14900,"nu":14901,"iva":14902,"quake":14903,"minal":14904,"which":14905,"limit":14906,"880":14907,"vt":14908,"Former":14909,"328":14910,"nitude":14911,"ilms":14912,"Ġcolour":14913,"seal":14914,"Ġperformed":14915,"isk":14916,"Canton":14917,"]]||{{":14918,">+":14919,"Hy":14920,"Order":14921,"SS":14922,"Ġshowing":14923,"members":14924,"ĠDEATH":14925,"dÃ©":14926,"ĠAmericans":14927,"1939":14928,"Out":14929,"eer":14930,"Ã¦ts":14931,"riearch":14932,"ĠEgypt":14933,"riearchdale":14934,"xz":14935,"nickname":14936,"Ba":14937,"Ġcomplete":14938,"ograp":14939,"ĠFour":14940,"Ġpret":14941,"Discussion":14942,"zerbaijan":14943,"contin":14944,"Ġregard":14945,"lapse":14946,"1929":14947,"478":14948,"lass":14949,"iah":14950,"kish":14951,"IC":14952,"Ġ1968":14953,"ĠCome":14954,"arring":14955,"Config":14956,"Nintendo":14957,"Ġboy":14958,"Ġserious":14959,"ĠToday":14960,"]]{{Â·":14961,"asion":14962,"Ġstars":14963,"ĠArtist":14964,"oral":14965,"ĠAb":14966,"Ġsocial":14967,"Ġisbn":14968,"Ã©s":14969,"ernal":14970,"Dave":14971,"Ġ64":14972,"Ġconfl":14973,"Document":14974,"1605":14975,"1936":14976,"atar":14977,"Ġpoet":14978,"UE":14979,"ofessor":14980,"Ġbring":14981,"foot":14982,"ĠLet":14983,"guay":14984,"OM":14985,"Post":14986,"Ġcodes":14987,"ĠKong":14988,"kennedy":14989,"arp":14990,"wanted":14991,"ĠCoast":14992,"aches":14993,"Ġmem":14994,"Ġstudio":14995,"Ġitem":14996,"ĠJan":14997,"Ġsystems":14998,"bm":14999,"reedom":15000,"1949":15001,"Ġer":15002,"rochip":15003,"Ġcou":15004,"1947":15005,"servation":15006,"Irish":15007,"ĠBad":15008,"Harry":15009,"Queen":15010,"ĠAutomatically":15011,"Argentina":15012,"Land":15013,"River":15014,"Ġ1973":15015,"Ġ|âĢĵ":15016,"ĠResearch":15017,"Ġ|''":15018,"enc":15019,"Oct":15020,"1953":15021,"cep":15022,"}}''',":15023,"ĠData":15024,"ourced":15025,"aren":15026,"what":15027,"ises":15028,"ĠUs":15029,"wich":15030,"ĠBefore":15031,"rg":15032,"cht":15033,"Ġchart":15034,"Ray":15035,"Earth":15036,"Ġstep":15037,"ĠFame":15038,"cio":15039,"ĠAirlines":15040,"emon":15041,"appendChild":15042,"Ġlisting":15043,"Ġcolumn":15044,"ĠLinotype":15045,"irman":15046,"Ġ1967":15047,"ĠOntario":15048,"ĠKe":15049,"ĠStandard":15050,"eft":15051,"rik":15052,"arner":15053,"Ġvotes":15054,"ulg":15055,"alysis":15056,"FRA":15057,"phil":15058,"Ġanti":15059,"ĠLong":15060,"clusion":15061,"loy":15062,"ĠEncyclopedia":15063,"ennessee":15064,"cut":15065,"irs":15066,"Äį":15067,"Belgian":15068,"Ġwinners":15069,"mater":15070,"initely":15071,"oring":15072,"ĠConstitution":15073,"varo":15074,"Carriearchdale":15075,"vh":15076,"Ġprecipitation":15077,"009":15078,"Taxobox":15079,"Ġran":15080,"teen":15081,"550":15082,"move":15083,"orer":15084,"ĠBelow":15085,"360":15086,"Mu":15087,"Ġcut":15088,"uration":15089,"ĠPart":15090,"fant":15091,"olas":15092,"|âľ":15093,"ĠHu":15094,"Ġ#&":15095,"Ġtaking":15096,"Sym":15097,"ĠSax":15098,"Ġstructures":15099,"357":15100,"hail":15101,"ĠRod":15102,"à¤¾":15103,"high":15104,"Men":15105,"Ġsaf":15106,"ĠJim":15107,"Ġgray":15108,"viation":15109,"guy":15110,"Ġbuildings":15111,"ĠFixing":15112,"names":15113,"ĠSpecial":15114,"Ġweight":15115,"uguese":15116,"inition":15117,"Af":15118,"Ġbrought":15119,"Ġann":15120,"Ġnorthern":15121,"onio":15122,"mph":15123,"Game":15124,"arrow":15125,"Ġcost":15126,"plate":15127,"Jac":15128,"sans":15129,"Ġcreation":15130,"retired":15131,"airs":15132,"KS":15133,"precated":15134,"ĠOklahoma":15135,"ĠColumbia":15136,"ieuten":15137,"undred":15138,"ĠCambridge":15139,"ĠMovie":15140,"ĠWebsite":15141,"Kent":15142,"Nov":15143,"packet":15144,"Ġlett":15145,"269":15146,"xls":15147,"urd":15148,"1934":15149,"Iran":15150,"ĠĠĠĠĠĠĠĠĠĠĠĠĠĠĠĠĠĠĠĠ":15151,"osophy":15152,"Esperanza":15153,"Ġstarting":15154,"Leg":15155,"ĠEng":15156,"Ġaffect":15157,"Ġrepe":15158,"Ġremain":15159,"rizona":15160,"Mount":15161,"allas":15162,"}}}]]|":15163,"270":15164,"Targets":15165,"ĠWild":15166,"Ġcourt":15167,"ebec":15168,"Ġath":15169,",''":15170,"ilities":15171,"tele":15172,"deb":15173,"ĠNumber":15174,"768":15175,"gues":15176,"403":15177,"oca":15178,"Ġpay":15179,"Ġfriends":15180,"ĠWilson":15181,"468":15182,"ĠRay":15183,"Ġcollege":15184,"Johan":15185,"charts":15186,"Ġadvert":15187,"ruit":15188,"omatic":15189,"ĠMr":15190,"rated":15191,"GAB":15192,"Pending":15193,"Capital":15194,"xl":15195,"vet":15196,"template":15197,"Ġfav":15198,"ĠWeek":15199,"280":15200,"Ġedited":15201,"]]==":15202,"Login":15203,"ĠReport":15204,"Television":15205,"Ġfigure":15206,"cla":15207,"Ġreached":15208,"Ġ1964":15209,"uters":15210,"Ag":15211,"ĠTw":15212,"Ġdivisions":15213,"pacity":15214,"lobe":15215,"ortant":15216,"Ġconsensus":15217,"Third":15218,"aug":15219,"]]/[[":15220,"Ġshoot":15221,"Ġrelation":15222,"String":15223,"Ġinvolved":15224,"tab":15225,"Ġball":15226,"Wikipedian":15227,"Ġinstrument":15228,"ĠWWE":15229,"CM":15230,"reatest":15231,"VE":15232,"Ġcoach":15233,"Academy":15234,"ĠFamily":15235,"288":15236,"Middle":15237,"Synergy":15238,"fish":15239,"fact":15240,"Ġship":15241,"Sun":15242,"Ġeasily":15243,"musician":15244,"Show":15245,"ĠScott":15246,"524":15247,"ril":15248,"Microchip":15249,"hj":15250,"scribe":15251,"ĠLen":15252,"lovak":15253,"urlen":15254,"cred":15255,"inct":15256,"Federal":15257,"Ġinit":15258,"ÐµÐ":15259,"songwriter":15260,"ango":15261,"Ap":15262,"Ġdescription":15263,"GG":15264,"qm":15265,"rovers":15266,"ĠWik":15267,"296":15268,";||":15269,"aron":15270,"Ġgenerally":15271,"Signatures":15272,"gers":15273,"aste":15274,"Ġ79":15275,"ciences":15276,"Nas":15277,"ĠBirth":15278,"ĠNAME":15279,"307":15280,"Ġalter":15281,"ĠPacific":15282,"Ġseasons":15283,"alog":15284,"Ġexcept":15285,"Ġparticip":15286,"Ġrecorded":15287,"had":15288,"Haw":15289,"Ġcompanies":15290,"1951":15291,"Ġ****":15292,"requests":15293,"Raven":15294,"Ø§ÙĨ":15295,"ixon":15296,"ĠLatin":15297,"exual":15298,"oD":15299,"Tak":15300,"Ġ{{!}}-":15301,"520":15302,"qb":15303,"Ġfair":15304,"Ġbeginning":15305,"ania":15306,"bill":15307,"289":15308,"vw":15309,"End":15310,"pj":15311,"ä¸":15312,"iversities":15313,"ĠEsther":15314,"Cass":15315,"UserLogin":15316,"lem":15317,"lake":15318,"Ġsuccessor":15319,"Ġdrama":15320,"ifer":15321,"onde":15322,"Ġpillars":15323,"aret":15324,"Mah":15325,"Nic":15326,"wikidata":15327,"Ġ|-----":15328,"olo":15329,"Victoria":15330,"ĠKhan":15331,"ĠAlthough":15332,"Wood":15333,"Ġhealth":15334,"ieve":15335,"hammad":15336,"ĠCorporation":15337,"Ġbre":15338,"ĠTower":15339,"Ġeffect":15340,"nik":15341,"ĠEpisode":15342,"urlencode":15343,"bles":15344,"514":15345,"audi":15346,"Imbox":15347,"Ġstations":15348,"Ġsortable":15349,"Label":15350,"Ġgrad":15351,"ĠArts":15352,"Sportspeople":15353,"ĠEle":15354,"Charl":15355,"ĠLewis":15356,"dministrative":15357,"267":15358,"ĠGal":15359,"ĠEducation":15360,"akh":15361,"Ġlowest":15362,"qs":15363,"Ġfall":15364,"1709":15365,"Ã¤r":15366,"ĠTag":15367,"yk":15368,"Ġlarger":15369,"ĠDivisiÃ³n":15370,"YK":15371,"]}}":15372,"species":15373,"PDF":15374,"ĠSand":15375,"Did":15376,"onent":15377,"rell":15378,"pared":15379,"Ġcompletely":15380,"ĠLiber":15381,"ominican":15382,"525":15383,"mails":15384,"vados":15385,"path":15386,"Ġmeets":15387,"politics":15388,"Ġworry":15389,"ĠWat":15390,"Ġclean":15391,"ĠLittle":15392,"Ġelections":15393,"pb":15394,"oslav":15395,"ION":15396,"oger":15397,"ĠLive":15398,"ointed":15399,"elson":15400,"hanistan":15401,"Ġfeed":15402,"Ġ||[[":15403,"angers":15404,"389":15405,"islat":15406,"Hol":15407,"]]'''''":15408,"ĠNetherlands":15409,"BR":15410,"grams":15411,"anga":15412,"Ġupdating":15413,"Mus":15414,"Internet":15415,"415":15416,"517":15417,"1920":15418,"Ġtrust":15419,"CURRENT":15420,"ĠWalk":15421,"dw":15422,"ĠÅ":15423,"ĠStone":15424,"ĠSpace":15425,"friend":15426,"ĠChampions":15427,"Netoholic":15428,"278":15429,"ĠMigrating":15430,"455":15431,"African":15432,"Bre":15433,"388":15434,"Ġgra":15435,"Ġonline":15436,"Ġcapt":15437,"roadcasting":15438,"VI":15439,"1925":15440,"Arab":15441,"Towns":15442,"Human":15443,"ĠSingle":15444,"Fairfield":15445,"Ġvia":15446,"she":15447,"Az":15448,"Track":15449,"Ġspeed":15450,"udy":15451,"ĠAnother":15452,"ĠLanguage":15453,"common":15454,")\\":15455,"1937":15456,"alem":15457,"ĠLouisiana":15458,"insee":15459,"Pa":15460,"Ġmid":15461,"Ġgrows":15462,"ĠProject":15463,"ĠTest":15464,"Ġanswer":15465,"|âĢĶ}}":15466,"NC":15467,"Ġfinished":15468,"Manchester":15469,"pool":15470,"Ġlegal":15471,"Tre":15472,"Ġfootnotes":15473,"Ġbehind":15474,"ĠLuc":15475,"Ġpot":15476,"Short":15477,"006600":15478,"Ġdiscovered":15479,"ondata":15480,"Ġ''&":15481,"ĠSwiss":15482,"dep":15483,"ĠPug":15484,"Ġforms":15485,"ĠâĻ¥":15486,"Up":15487,"oven":15488,";[[:{{{":15489,"Fort":15490,"nf":15491,"Ġschools":15492,"ĠGenre":15493,"Ġrivers":15494,"osen":15495,"Virginia":15496,"Ġ1966":15497,"Franco":15498,"Ġmis":15499,"ĠGri":15500,"former":15501,"ĠLike":15502,"Ġ42":15503,"Ġproduction":15504,"itect":15505,"ĠÃ©":15506,"dam":15507,"ĠBand":15508,"Ġadministrators":15509,"Ġoriginally":15510,"Hakan":15511,"osta":15512,"||'''":15513,"PS":15514,"BRA":15515,"Uk":15516,"458":15517,"isation":15518,"Avic":15519,"uence":15520,"ishes":15521,"Ġperform":15522,"gyp":15523,"286":15524,"1927":15525,"ĠRom":15526,"Movie":15527,"Islam":15528,"Ġmissing":15529,"Support":15530,"ĠJesus":15531,"Ice":15532,"Ġsat":15533,"Calais":15534,"letter":15535,"forms":15536,"rome":15537,"Ġ41":15538,"IAN":15539,"issippi":15540,"Santa":15541,"Ġancient":15542,"lz":15543,"oba":15544,"ĠSar":15545,"super":15546,"ographer":15547,"394":15548,"ĠHurricane":15549,"Yottie":15550,"Bat":15551,"annica":15552,"Ġsorry":15553,"ĠGh":15554,"196884":15555,"jc":15556,"Ġorange":15557,"Philip":15558,"Ġexplained":15559,"preme":15560,"holder":15561,"Ġdates":15562,"vari":15563,"View":15564,"qc":15565,"Ġfine":15566,"ĠKorean":15567,"ĠJoseph":15568,"Leaving":15569,"Racepacket":15570,"chestra":15571,"344":15572,"nomin":15573,"Imp":15574,"Ġautomatically":15575,"Ġreliable":15576,"ucceed":15577,"Ġpolice":15578,"orning":15579,"Ġsurv":15580,"Ricky":15581,"ceff":15582,"Ġsal":15583,"ĠArticle":15584,"onas":15585,"loss":15586,"unday":15587,"1926":15588,"enty":15589,"oeing":15590,"Barn":15591,"ĠTele":15592,"ĠDar":15593,"ĠStory":15594,"Ġsigned":15595,"Ġscientists":15596,"Ġevidence":15597,"deg":15598,"ĠDutch":15599,"HakanIST":15600,"disambiguation":15601,"297":15602,"339":15603,"Ur":15604,"001":15605,"Ġpolitics":15606,"Ac":15607,"ĠDevelopment":15608,"Size":15609,"ĠWater":15610,"ĠStanley":15611,"Alvaro":15612,"ynam":15613,"Interstate":15614,"090":15615,"abe":15616,"lg":15617,"nom":15618,"ĠFire":15619,"oura":15620,"1943":15621,"Joe":15622,"novel":15623,"ĠSimp":15624,"ĠLord":15625,"Ġupon":15626,"Defender":15627,"ĠSports":15628,"1942":15629,"369":15630,"ĠDakota":15631,"ĠLater":15632,"ĠOnly":15633,"Ġwinning":15634,"iers":15635,"esse":15636,"ido":15637,"Ġ@":15638,"ĠIslam":15639,"Ġfast":15640,"Ġregnum":15641,"ĠSocial":15642,"ateur":15643,"HI":15644,"Pap":15645,"Ġ75":15646,"ential":15647,"ĠBell":15648,"ĠBet":15649,"ĠBon":15650,"Persondata":15651,"oiw":15652,"icide":15653,"Ġsurface":15654,"lw":15655,"military":15656,"ĠGuide":15657,"Call":15658,"Ġappearance":15659,"pur":15660,"AQ":15661,"ÃĨ":15662,"Ġtool":15663,"enth":15664,"aval":15665,"ĠFIFA":15666,"Ġnominator":15667,"Ġmagazine":15668,"gor":15669,"xw":15670,";]]'''&":15671,"middle":15672,":'":15673,"Ġera":15674,"ritics":15675,"oku":15676,"Ġchance":15677,"Ġ:[[":15678,"cfm":15679,"ourier":15680,"}}}]]":15681,"webcitation":15682,"ĠPop":15683,"Ġ[[#":15684,"Ġdeprecated":15685,"temp":15686,"Ð½Ð¸":15687,"Ġuniversity":15688,"liesi":15689,"ĠKn":15690,"Ġrequired":15691,";]&":15692,"Greg":15693,"ĠFestival":15694,"Ġwhose":15695,"Ġcontinued":15696,"Ġdirected":15697,"yya":15698,"Changes":15699,"Ġinfluen":15700,"ieutenant":15701,"ection":15702,"Pacific":15703,"Tokyo":15704,"anz":15705,"ahoo":15706,"ĠBorough":15707,"etermin":15708,"storm":15709,"Ruy":15710,"latinum":15711,"Ġ|}}":15712,"XT":15713,"ĠPas":15714,"Ġboxes":15715,"Symonds":15716,"Ġitems":15717,"ĠPugliesi":15718,"ĠOper":15719,"1933":15720,"bourg":15721,"Ġremoval":15722,"yv":15723,"Core":15724,"Ġpresidential":15725,"qa":15726,"Ġbase":15727,"ippines":15728,"413":15729,"540":15730,"ilot":15731,"Ġpun":15732,"kf":15733,"Ġalpha":15734,"358":15735,"=]]&":15736,"Ġthank":15737,"rÃ©":15738,"Ġ1965":15739,"von":15740,"lins":15741,"baseball":15742,"yz":15743,"legend":15744,"his":15745,"Cer":15746,"Ġannounced":15747,"3403":15748,"uggle":15749,"Ġregions":15750,"stats":15751,"ĠType":15752,"Ġqual":15753,"Ġsnow":15754,"420":15755,"ĠKelly":15756,"iday":15757,"Gal":15758,"Poland":15759,"imagesize":15760,"hf":15761,"Ġcelebr":15762,"pir":15763,"Ġfif":15764,";|'''":15765,"1938":15766,"ĠAng":15767,"omial":15768,"XX":15769,"Ġaccident":15770,"Ġhigher":15771,"Di":15772,"544":15773,"Ġ+=":15774,"Ġindic":15775,"ĠAge":15776,"NOT":15777,"Ġcycl":15778,"urb":15779,"Num":15780,"Ġpolicies":15781,"ificant":15782,"imum":15783,"JM":15784,"ĠAccording":15785,"Ġ89":15786,"ĠIsrael":15787,"entertainment":15788,"iance":15789,"prot":15790,"Ġ1945":15791,"inth":15792,"coat":15793,"died":15794,"000080":15795,"1924":15796,"ante":15797,"ĠElect":15798,"input":15799,"MON":15800,"Ta":15801,"ej":15802,"pmid":15803,"ĠField":15804,"ĠStatistics":15805,"Ash":15806,"Common":15807,"Ġsoci":15808,"helpme":15809,"Ġdesigned":15810,"Removing":15811,"ĠCreek":15812,"560":15813,"valign":15814,"Down":15815,"Ġtax":15816,"ĠRf":15817,"40117":15818,"290":15819,"ĠCommission":15820,"Ġhttps":15821,"::::":15822,"egasus":15823,"Day":15824,"ĠSir":15825,"ammy":15826,"scb":15827,"DC":15828,")}}&":15829,"province":15830,"Southern":15831,"ĠWell":15832,"Ġexamples":15833,"512":15834,"abled":15835,"450":15836,"shield":15837,"417":15838,"lum":15839,"habitants":15840,"nament":15841,"ĠDate":15842,"Ġpropos":15843,"Ġpredecessor":15844,")\"":15845,"338":15846,"Ġdisc":15847,"hawks":15848,"MOS":15849,"Ġĉĉĉĉĉĉ":15850,"ĠRoss":15851,"attles":15852,"rac":15853,"Build":15854,"Ġ76":15855,"____":15856,"wah":15857,"etic":15858,"ĠFox":15859,"illages":15860,"imation":15861,"Ã©es":15862,"Manual":15863,"Ġislands":15864,"570":15865,"andom":15866,"Emailuser":15867,"Ġdamage":15868,"flower":15869,"mund":15870,"utt":15871,"yal":15872,"lington":15873,"Arthur":15874,"Writers":15875,"tn":15876,"unda":15877,"Kn":15878,"308":15879,"sid":15880,"Ġcook":15881,"Ian":15882,"ĠClark":15883,"build":15884,"Station":15885,"Ġ51":15886,"Ġbelieved":15887,"ĠTemp":15888,"Testarticle":15889,"iooiw":15890,"ifisto":15891,"Ġpark":15892,"ĠAT":15893,"ĠHor":15894,"414":15895,"hb":15896,"Ġbasic":15897,"Arrondissement":15898,"443":15899,"Ġque":15900,"anner":15901,"Van":15902,"Real":15903,"otten":15904,"Ġ1963":15905,"Ġordo":15906,"wm":15907,"thnic":15908,"|}}}}}}":15909,"ema":15910,"ĠFred":15911,"Und":15912,"Ġ1961":15913,"Ġconcerns":15914,"349":15915,"ryan":15916,"ĠHay":15917,"coach":15918,"HG":15919,"Ġbenef":15920,"ĠFar":15921,"gif":15922,"ĠAdmin":15923,"Ġkilling":15924,"ĠPast":15925,"Ġclassis":15926,"Brit":15927,"Ġprotected":15928,"firmed":15929,"raf":15930,"Sep":15931,"298":15932,"civil":15933,"ĠMadrid":15934,"ĠRef":15935,"}}}]]}}":15936,"Region":15937,"399":15938,"ĠTaylor":15939,"KingRaven":15940,"League":15941,"Ġservices":15942,"Rail":15943,"ĠCheck":15944,"solid":15945,"pread":15946,"computer":15947,"Bay":15948,"ĠHand":15949,"]]''',":15950,"!</":15951,"'</":15952,"after":15953,"Ġtrou":15954,"1931":15955,"Ġox":15956,"Ak":15957,"Stubs":15958,"rophy":15959,"constru":15960,"160517":15961,"iker":15962,"ĠEastern":15963,"ÃŃn":15964,"Ġmeeting":15965,"iens":15966,"Disney":15967,"wel":15968,"arry":15969,"ĠPolit":15970,"Ġcollaps":15971,"ĠâĢĶ[[":15972,"wind":15973,"Tony":15974,"Ġsn":15975,"ĠHung":15976,"Ġcharge":15977,"ĠBerty":15978,"medium":15979,"eus":15980,"fre":15981,"standing":15982,"puppet":15983,"ĠKeep":15984,"=}}&":15985,"vanced":15986,"'']]":15987,"1941":15988,"english":15989,"Brian":15990,"ĠBerlin":15991,"ĠAff":15992,"court":15993,"Kar":15994,"ĠJane":15995,"ĠWikipedian":15996,"pattern":15997,"ungs":15998,"opter":15999,"Ġfoot":16000,"acher":16001,"Der":16002,"Final":16003,"bricator":16004,"ondissements":16005,"erdan":16006,"ĠWolf":16007,"Ġ85":16008,"Exp":16009,"Wiktionary":16010,"lyn":16011,"Fox":16012,"witter":16013,"ĠAdams":16014,"Ġofficer":16015,"LC":16016,"'&":16017,"Mentifisto":16018,"Things":16019,"olph":16020,"Ã´ne":16021,"dj":16022,"Love":16023,"325":16024,"tial":16025,"Ġexpect":16026,"Div":16027,"ĠTokyo":16028,"Chile":16029,"usen":16030,"ĠBall":16031,"ĠKar":16032,"Ġindividual":16033,"venue":16034,"Ġsuff":16035,"ĠRelated":16036,"Ott":16037,"ĠFree":16038,"stell":16039,"ĠBre":16040,"||||||||||":16041,"416":16042,"378":16043,"formatnum":16044,"Ly":16045,"314":16046,"onna":16047,"uffolk":16048,"ĠRepresentatives":16049,"ĠWhy":16050,"quoise":16051,"ĠOrder":16052,"Ġfourth":16053,"Ã¸n":16054,"Ġdescribed":16055,"1932":16056,"kp":16057,"Oyster":16058,"Ġtube":16059,"Ġ65":16060,"Ġvandalise":16061,"stad":16062,"From":16063,"Selena":16064,"347":16065,"Professional":16066,"981":16067,"information":16068,"char":16069,"ĠLeg":16070,"ĠReview":16071,"62069":16072,"Ġmentioned":16073,"Ġpoor":16074,"cats":16075,"Ġcolours":16076,"Long":16077,"Ġnecessary":16078,"348":16079,"ĠBattle":16080,"ĠĠĠĠĠĠĠĠĠĠĠĠĠĠĠĠĠĠĠĠĠĠĠĠĠĠĠĠĠĠĠĠ":16081,"ĠAndrew":16082,":{{#":16083,"Ġdepend":16084,"latitude":16085,"anth":16086,"Ġwhenever":16087,"Private":16088,"Ġrunning":16089,";''']]":16090,"Ġtitles":16091,"race":16092,";''']][[":16093,"reme":16094,"sters":16095,")?":16096,"['":16097,"Wikipedians":16098,"Werdan":16099,"Ġweap":16100,"western":16101,"ectively":16102,"Ġlogs":16103,"Album":16104,"ĠProducer":16105,"histor":16106,"ĠBank":16107,"ĠBull":16108,"Stephen":16109,"ĠMaria":16110,"Ġ};":16111,"ospital":16112,"5555":16113,"Ġtran":16114,"ĠPegasus":16115,"ĠKnow":16116,"Ġreturned":16117,"440":16118,"imm":16119,"--------------------------------":16120,"Premier":16121,"Official":16122,"rength":16123,"publ":16124,"timore":16125,"à¯į":16126,"Ġmoment":16127,"IT":16128,"Political":16129,"523":16130,"oq":16131,"mei":16132,"gener":16133,"Type":16134,"ĠPoland":16135,"good":16136,"ĠAss":16137,"prev":16138,"287":16139,"wj":16140,"ĠSE":16141,"bie":16142,"lications":16143,"320":16144,"Ġelement":16145,"chae":16146,"Civil":16147,"×Ļ":16148,"]]?":16149,"ĠEach":16150,"Ġknowledge":16151,"silver":16152,"ĠGreece":16153,"Icon":16154,"ricket":16155,"ĠTowns":16156,";{{&":16157,"Ġphy":16158,"rogen":16159,"Ġletter":16160,"Prat":16161,"ĠMur":16162,"Ġshot":16163,"Ireland":16164,"{{!}}":16165,"Ġ''(":16166,"zb":16167,"Ġpassed":16168,"button":16169,"ĠOrgan":16170,"azon":16171,"ĠSingles":16172,"Princess":16173,"Ev":16174,"Ġhonor":16175,"commun":16176,"zm":16177,"linton":16178,"ĠPunk":16179,"Ġmoving":16180,"alymp":16181,"buc":16182,"Ã¥n":16183,"ÑģÑĤ":16184,"efined":16185,"ĠBush":16186,"Ġoldest":16187,";Â·":16188,"ĠVi":16189,"Ġdivided":16190,"vn":16191,"/#":16192,"Toronto":16193,"DS":16194,"baum":16195,
[...]
